<unk>	0
<pad>	0
<bos>	0
<eos>	0
▁t	-0
he	-1
▁a	-2
in	-3
er	-4
on	-5
▁the	-6
re	-7
an	-8
▁o	-9
at	-10
en	-11
ed	-12
▁s	-13
or	-14
is	-15
al	-16
es	-17
▁w	-18
it	-19
ar	-20
▁of	-21
▁c	-22
nd	-23
▁in	-24
▁f	-25
▁b	-26
ic	-27
▁p	-28
▁and	-29
as	-30
ing	-31
ion	-32
ro	-33
le	-34
▁A	-35
▁S	-36
▁m	-37
▁to	-38
▁T	-39
▁d	-40
▁C	-41
ou	-42
▁1	-43
ent	-44
▁h	-45
il	-46
st	-47
▁M	-48
om	-49
▁B	-50
el	-51
am	-52
▁re	-53
ol	-54
▁(	-55
ct	-56
▁l	-57
▁P	-58
ad	-59
▁I	-60
ur	-61
▁n	-62
et	-63
ch	-64
ation	-65
▁The	-66
▁th	-67
▁R	-68
▁e	-69
iv	-70
▁H	-71
▁2	-72
ly	-73
us	-74
ers	-75
ig	-76
id	-77
ot	-78
▁19	-79
ce	-80
ir	-81
im	-82
▁was	-83
▁for	-84
▁D	-85
▁on	-86
▁F	-87
ut	-88
▁is	-89
ay	-90
▁L	-91
ist	-92
▁g	-93
▁as	-94
▁G	-95
ow	-96
ra	-97
▁E	-98
▁N	-99
▁be	-100
ter	-101
▁W	-102
ith	-103
un	-104
ul	-105
em	-106
▁st	-107
▁20	-108
her	-109
th	-110
and	-111
▁with	-112
▁al	-113
▁by	-114
um	-115
os	-116
▁J	-117
ver	-118
ag	-119
▁O	-120
rom	-121
▁con	-122
▁an	-123
op	-124
▁wh	-125
ac	-126
est	-127
ri	-128
▁at	-129
▁that	-130
▁"	-131
od	-132
▁In	-133
▁v	-134
▁from	-135
ian	-136
oc	-137
av	-138
▁de	-139
ab	-140
ain	-141
▁pro	-142
ies	-143
▁com	-144
▁K	-145
ity	-146
▁he	-147
if	-148
res	-149
all	-150
▁it	-151
▁U	-152
ate	-153
up	-154
ort	-155
art	-156
pe	-157
ia	-158
ill	-159
▁se	-160
ud	-161
ew	-162
ber	-163
▁or	-164
ard	-165
ich	-166
▁are	-167
igh	-168
ub	-169
▁St	-170
ld	-171
ak	-172
qu	-173
ment	-174
ore	-175
▁200	-176
ant	-177
ess	-178
▁pl	-179
ip	-180
▁his	-181
▁r	-182
ap	-183
se	-184
ated	-185
▁ex	-186
ive	-187
ish	-188
ial	-189
▁Ch	-190
ary	-191
nt	-192
og	-193
ov	-194
ug	-195
mer	-196
end	-197
▁ch	-198
ge	-199
ast	-200
our	-201
00	-202
▁Re	-203
▁V	-204
ong	-205
ine	-206
ere	-207
ical	-208
▁–	-209
ction	-210
und	-211
ust	-212
ell	-213
ord	-214
ure	-215
ame	-216
ost	-217
uc	-218
so	-219
ear	-220
ks	-221
▁which	-222
▁were	-223
),	-224
ran	-225
▁le	-226
fer	-227
ther	-228
ire	-229
cl	-230
ight	-231
▁comp	-232
ie	-233
rit	-234
ue	-235
pt	-236
19	-237
▁also	-238
▁k	-239
▁sh	-240
tern	-241
▁us	-242
▁Un	-243
ry	-244
ous	-245
ff	-246
ition	-247
port	-248
ces	-249
▁He	-250
are	-251
▁y	-252
▁201	-253
ations	-254
ric	-255
ign	-256
ass	-257
▁not	-258
ave	-259
▁un	-260
▁Al	-261
pl	-262
▁ar	-263
per	-264
man	-265
age	-266
ide	-267
irst	-268
ult	-269
iz	-270
ect	-271
ome	-272
▁199	-273
▁cl	-274
▁has	-275
ount	-276
▁18	-277
ory	-278
land	-279
▁cont	-280
▁had	-281
▁Th	-282
ack	-283
▁int	-284
▁It	-285
ph	-286
ond	-287
ang	-288
▁whe	-289
hed	-290
ib	-291
▁play	-292
▁Se	-293
ican	-294
ng	-295
ence	-296
▁te	-297
▁3	-298
▁its	-299
erv	-300
ork	-301
ater	-302
▁ad	-303
own	-304
ok	-305
▁first	-306
▁Y	-307
ational	-308
▁their	-309
fter	-310
ach	-311
ice	-312
ree	-313
▁Ar	-314
ions	-315
▁ro	-316
▁part	-317
wo	-318
out	-319
▁res	-320
).	-321
▁ac	-322
ime	-323
▁ap	-324
▁have	-325
ens	-326
ates	-327
ey	-328
▁ab	-329
▁Amer	-330
▁but	-331
ally	-332
te	-333
ound	-334
clud	-335
ru	-336
act	-337
over	-338
ould	-339
▁one	-340
ited	-341
amp	-342
▁|	-343
▁who	-344
low	-345
orn	-346
▁man	-347
ik	-348
ace	-349
▁198	-350
ark	-351
▁j	-352
▁per	-353
ors	-354
ugh	-355
▁De	-356
aw	-357
ool	-358
uch	-359
ts	-360
ubl	-361
ite	-362
▁this	-363
ile	-364
▁dis	-365
ents	-366
▁bec	-367
▁year	-368
ress	-369
▁other	-370
▁includ	-371
▁rec	-372
ath	-373
▁en	-374
for	-375
ild	-376
▁American	-377
▁ag	-378
gh	-379
▁been	-380
able	-381
ely	-382
uring	-383
wn	-384
▁im	-385
▁sc	-386
ade	-387
we	-388
▁New	-389
▁two	-390
les	-391
vel	-392
ons	-393
ivers	-394
▁As	-395
ob	-396
▁Le	-397
old	-398
▁Com	-399
▁(19	-400
ms	-401
▁4	-402
ase	-403
▁197	-404
ased	-405
▁comm	-406
oin	-407
ics	-408
▁des	-409
ences	-410
ied	-411
oy	-412
iss	-413
red	-414
als	-415
chool	-416
ind	-417
ings	-418
▁Mar	-419
▁can	-420
▁ne	-421
▁her	-422
ember	-423
ball	-424
▁sp	-425
▁after	-426
ail	-427
ance	-428
ury	-429
orld	-430
ted	-431
ose	-432
ne	-433
ron	-434
ople	-435
ward	-436
cess	-437
ough	-438
oot	-439
io	-440
▁all	-441
ood	-442
▁over	-443
▁ev	-444
▁they	-445
urn	-446
▁into	-447
ft	-448
ans	-449
hip	-450
▁new	-451
▁5	-452
olog	-453
▁-	-454
▁out	-455
du	-456
ral	-457
▁up	-458
▁Ex	-459
20	-460
▁gro	-461
lect	-462
outh	-463
ished	-464
▁pe	-465
reat	-466
way	-467
▁off	-468
ram	-469
▁spe	-470
ah	-471
▁pre	-472
gan	-473
rans	-474
▁fil	-475
▁cent	-476
▁und	-477
▁196	-478
▁act	-479
oh	-480
one	-481
rough	-482
▁ra	-483
ren	-484
ious	-485
▁col	-486
▁An	-487
ision	-488
▁att	-489
rib	-490
ferences	-491
▁Pro	-492
▁Col	-493
duc	-494
ton	-495
▁time	-496
▁cons	-497
▁more	-498
ep	-499
ener	-500
▁tra	-501
▁bet	-502
▁sy	-503
▁pol	-504
der	-505
che	-506
▁used	-507
ular	-508
ists	-509
▁most	-510
▁reg	-511
ict	-512
▁kn	-513
▁loc	-514
orth	-515
▁Sh	-516
inal	-517
▁United	-518
ames	-519
ince	-520
ck	-521
▁under	-522
▁serv	-523
▁ind	-524
▁Eng	-525
▁we	-526
▁Con	-527
ities	-528
ick	-529
▁rel	-530
aus	-531
▁me	-532
ween	-533
▁co	-534
ake	-535
oth	-536
▁would	-537
▁when	-538
ock	-539
▁such	-540
▁pr	-541
ins	-542
ix	-543
▁work	-544
▁References	-545
▁This	-546
rad	-547
az	-548
▁sec	-549
▁form	-550
▁lin	-551
▁only	-552
▁bu	-553
cent	-554
ual	-555
iversity	-556
ale	-557
ars	-558
att	-559
iel	-560
▁6	-561
▁Z	-562
cial	-563
▁him	-564
▁sub	-565
▁Sc	-566
lish	-567
▁publ	-568
▁On	-569
▁Cl	-570
▁ass	-571
▁between	-572
▁sup	-573
overn	-574
▁Ind	-575
ollow	-576
▁ear	-577
form	-578
ism	-579
ating	-580
▁est	-581
ative	-582
pro	-583
ason	-584
iet	-585
▁op	-586
▁num	-587
ced	-588
▁years	-589
ident	-590
ten	-591
▁than	-592
oun	-593
ily	-594
▁bo	-595
ific	-596
aj	-597
emb	-598
▁during	-599
ann	-600
▁am	-601
ife	-602
▁inter	-603
▁qu	-604
ier	-605
▁people	-606
▁Or	-607
erman	-608
▁where	-609
ll	-610
▁found	-611
▁so	-612
▁some	-613
▁through	-614
▁(1	-615
inn	-616
cc	-617
▁rem	-618
pr	-619
ern	-620
▁At	-621
▁ret	-622
▁stud	-623
▁194	-624
▁again	-625
▁195	-626
".	-627
▁there	-628
arg	-629
▁trans	-630
resent	-631
ve	-632
usic	-633
▁Brit	-634
▁7	-635
▁she	-636
▁about	-637
ternal	-638
pos	-639
▁ph	-640
▁University	-641
▁dist	-642
▁pop	-643
fore	-644
ootball	-645
▁Joh	-646
stem	-647
eries	-648
0,	-649
round	-650
",	-651
hen	-652
▁For	-653
▁fe	-654
▁def	-655
▁three	-656
raph	-657
velop	-658
air	-659
ever	-660
ss	-661
ject	-662
istory	-663
▁Aust	-664
ower	-665
any	-666
▁set	-667
bum	-668
▁end	-669
▁Te	-670
▁known	-671
▁call	-672
▁follow	-673
▁World	-674
ures	-675
mp	-676
ley	-677
1,	-678
▁team	-679
uro	-680
▁prov	-681
▁then	-682
▁ed	-683
▁Bl	-684
ution	-685
▁later	-686
▁17	-687
▁mod	-688
ments	-689
ield	-690
▁mov	-691
▁Is	-692
▁writ	-693
▁German	-694
2,	-695
▁Can	-696
▁inv	-697
▁count	-698
irect	-699
▁rele	-700
▁John	-701
els	-702
."	-703
000	-704
eb	-705
▁States	-706
▁sing	-707
ert	-708
▁links	-709
▁made	-710
eth	-711
ash	-712
▁Sp	-713
ium	-714
iam	-715
ike	-716
▁Ad	-717
ement	-718
▁pos	-719
▁many	-720
▁inc	-721
▁bl	-722
▁them	-723
ober	-724
▁film	-725
▁ter	-726
▁may	-727
▁Be	-728
▁do	-729
▁being	-730
▁acc	-731
enn	-732
▁ent	-733
▁fl	-734
ank	-735
▁became	-736
its	-737
iver	-738
5,	-739
ise	-740
▁2006	-741
ines	-742
uss	-743
erson	-744
▁8	-745
ague	-746
▁External	-747
▁school	-748
▁art	-749
▁mon	-750
very	-751
inist	-752
▁War	-753
▁inst	-754
▁well	-755
ature	-756
▁second	-757
▁record	-758
ived	-759
cy	-760
ina	-761
ouse	-762
owever	-763
rist	-764
ays	-765
▁Fran	-766
con	-767
▁Ph	-768
urch	-769
▁Q	-770
iew	-771
▁group	-772
▁album	-773
▁Comm	-774
ather	-775
▁Pl	-776
3,	-777
ys	-778
▁including	-779
▁add	-780
cept	-781
ians	-782
200	-783
▁system	-784
▁med	-785
▁develop	-786
ural	-787
other	-788
▁dif	-789
▁Car	-790
▁estab	-791
ctions	-792
▁high	-793
▁orig	-794
▁char	-795
▁appe	-796
ograph	-797
▁16	-798
ax	-799
▁sign	-800
▁lead	-801
ues	-802
▁dec	-803
▁British	-804
lev	-805
ered	-806
ional	-807
ract	-808
ient	-809
rict	-810
▁National	-811
4,	-812
▁while	-813
▁no	-814
eter	-815
▁sur	-816
▁main	-817
▁four	-818
▁gener	-819
▁193	-820
▁9	-821
▁var	-822
▁number	-823
▁both	-824
elf	-825
▁fam	-826
▁Am	-827
ute	-828
▁govern	-829
uth	-830
▁South	-831
ized	-832
▁use	-833
▁.	-834
▁Count	-835
til	-836
▁oper	-837
bs	-838
by	-839
ually	-840
ple	-841
▁season	-842
▁car	-843
7,	-844
ired	-845
ty	-846
led	-847
▁Euro	-848
8,	-849
▁cap	-850
▁series	-851
▁Me	-852
ology	-853
▁own	-854
ting	-855
▁Ge	-856
ternational	-857
ke	-858
▁English	-859
ause	-860
son	-861
ants	-862
gram	-863
▁Wh	-864
▁em	-865
▁School	-866
▁before	-867
▁bro	-868
ved	-869
ird	-870
▁Austral	-871
imes	-872
▁ext	-873
▁May	-874
▁against	-875
▁const	-876
rid	-877
une	-878
ven	-879
▁sm	-880
▁name	-881
▁15	-882
▁called	-883
▁10	-884
▁show	-885
oman	-886
ajor	-887
iving	-888
▁polit	-889
▁Jan	-890
hes	-891
▁direct	-892
▁until	-893
–1	-894
▁cre	-895
▁sever	-896
▁After	-897
my	-898
xt	-899
ages	-900
▁Pr	-901
▁She	-902
ible	-903
▁rep	-904
▁comple	-905
▁produ	-906
ives	-907
oci	-908
fl	-909
ene	-910
duced	-911
▁exp	-912
vent	-913
ained	-914
▁these	-915
▁Canad	-916
▁area	-917
aid	-918
▁back	-919
ically	-920
the	-921
ulation	-922
▁fin	-923
ruct	-924
ared	-925
▁gu	-926
ility	-927
ful	-928
eng	-929
▁music	-930
▁Bo	-931
▁design	-932
▁Europe	-933
angu	-934
▁Af	-935
amed	-936
▁century	-937
▁North	-938
▁offic	-939
▁Christ	-940
ross	-941
▁||	-942
ull	-943
▁early	-944
0.	-945
▁football	-946
▁Cent	-947
ott	-948
ai	-949
▁contin	-950
▁Man	-951
▁players	-952
ae	-953
▁long	-954
▁state	-955
▁build	-956
▁song	-957
▁York	-958
▁any	-959
embers	-960
arch	-961
ica	-962
rand	-963
▁Reg	-964
▁same	-965
ange	-966
▁result	-967
▁eff	-968
ets	-969
pect	-970
▁air	-971
ission	-972
▁Bar	-973
▁spec	-974
▁bel	-975
ital	-976
▁Par	-977
▁former	-978
▁All	-979
lege	-980
istor	-981
▁suc	-982
–19	-983
▁death	-984
▁dr	-985
▁Nov	-986
icip	-987
uary	-988
▁sim	-989
▁King	-990
▁several	-991
▁go	-992
▁Pol	-993
ugust	-994
▁&	-995
au	-996
▁city	-997
▁elect	-998
▁'	-999
▁II	-1000
to	-1001
aking	-1002
▁No	-1003
▁ele	-1004
ze	-1005
9,	-1006
▁Ju	-1007
yl	-1008
▁charact	-1009
▁Ass	-1010
omen	-1011
▁program	-1012
ths	-1013
▁Bro	-1014
ports	-1015
oint	-1016
▁192	-1017
ret	-1018
6,	-1019
▁will	-1020
▁open	-1021
ices	-1022
▁public	-1023
▁since	-1024
ains	-1025
ampions	-1026
▁game	-1027
por	-1028
▁August	-1029
chn	-1030
2.	-1031
erg	-1032
ior	-1033
▁run	-1034
isc	-1035
ony	-1036
▁world	-1037
ided	-1038
rent	-1039
1.	-1040
▁Co	-1041
ec	-1042
born	-1043
▁min	-1044
ris	-1045
▁organ	-1046
▁ann	-1047
▁cur	-1048
ilit	-1049
▁Pe	-1050
rop	-1051
ued	-1052
▁disc	-1053
▁Cal	-1054
ask	-1055
ator	-1056
▁life	-1057
ble	-1058
▁occ	-1059
▁dep	-1060
hem	-1061
▁commun	-1062
▁City	-1063
▁County	-1064
yp	-1065
▁Oct	-1066
▁They	-1067
▁pres	-1068
▁March	-1069
▁met	-1070
▁differ	-1071
ek	-1072
let	-1073
▁par	-1074
▁str	-1075
wards	-1076
ster	-1077
▁desc	-1078
levision	-1079
ised	-1080
ove	-1081
com	-1082
▁released	-1083
▁Gu	-1084
▁Ed	-1085
▁small	-1086
▁care	-1087
illion	-1088
▁start	-1089
af	-1090
▁won	-1091
▁2005	-1092
arm	-1093
▁near	-1094
yn	-1095
ped	-1096
▁Will	-1097
▁major	-1098
▁There	-1099
ham	-1100
▁each	-1101
▁191	-1102
▁played	-1103
▁January	-1104
ptember	-1105
▁See	-1106
▁And	-1107
▁202	-1108
ilt	-1109
ined	-1110
▁rece	-1111
ience	-1112
▁government	-1113
The	-1114
lished	-1115
▁return	-1116
atic	-1117
ane	-1118
3.	-1119
▁League	-1120
ode	-1121
▁land	-1122
▁head	-1123
▁mat	-1124
▁class	-1125
tle	-1126
▁12	-1127
▁Mon	-1128
rench	-1129
bo	-1130
mber	-1131
▁support	-1132
ended	-1133
▁could	-1134
▁tr	-1135
arge	-1136
▁Ab	-1137
▁following	-1138
▁However	-1139
▁law	-1140
ales	-1141
ling	-1142
▁town	-1143
ried	-1144
▁September	-1145
▁based	-1146
pril	-1147
▁West	-1148
▁pass	-1149
▁October	-1150
ality	-1151
▁mar	-1152
ung	-1153
ner	-1154
que	-1155
▁June	-1156
▁club	-1157
fess	-1158
ords	-1159
▁began	-1160
itions	-1161
cember	-1162
▁vers	-1163
▁band	-1164
ival	-1165
though	-1166
▁eng	-1167
lymp	-1168
▁did	-1169
▁player	-1170
amb	-1171
▁US	-1172
▁ins	-1173
201	-1174
▁members	-1175
▁along	-1176
▁Olymp	-1177
▁History	-1178
row	-1179
▁station	-1180
ights	-1181
med	-1182
orks	-1183
lo	-1184
▁games	-1185
..	-1186
apan	-1187
▁July	-1188
▁April	-1189
aving	-1190
4.	-1191
▁bir	-1192
▁success	-1193
▁French	-1194
ats	-1195
iety	-1196
inc	-1197
ides	-1198
▁rev	-1199
▁Ap	-1200
ography	-1201
iod	-1202
▁place	-1203
▁Har	-1204
▁prom	-1205
▁consid	-1206
▁larg	-1207
▁family	-1208
▁Afric	-1209
reen	-1210
aced	-1211
▁ref	-1212
▁State	-1213
ring	-1214
▁contro	-1215
▁(200	-1216
▁December	-1217
▁appro	-1218
▁His	-1219
▁,	-1220
▁child	-1221
uthor	-1222
▁war	-1223
▁November	-1224
2)	-1225
▁Med	-1226
ebru	-1227
▁ob	-1228
▁Geor	-1229
ebruary	-1230
▁around	-1231
ified	-1232
▁person	-1233
▁Sy	-1234
▁langu	-1235
ese	-1236
oss	-1237
ording	-1238
▁sk	-1239
▁Fl	-1240
ards	-1241
eg	-1242
▁because	-1243
▁now	-1244
urg	-1245
aster	-1246
century	-1247
▁Mus	-1248
▁established	-1249
▁Char	-1250
▁home	-1251
alth	-1252
▁Comp	-1253
sh	-1254
rem	-1255
▁Japan	-1256
▁11	-1257
▁po	-1258
▁leg	-1259
8.	-1260
▁Dav	-1261
rew	-1262
▁tit	-1263
ively	-1264
▁include	-1265
7.	-1266
▁February	-1267
▁line	-1268
▁Mc	-1269
▁High	-1270
▁Part	-1271
ries	-1272
▁En	-1273
▁Sw	-1274
▁Ear	-1275
▁often	-1276
ration	-1277
ald	-1278
▁power	-1279
▁Her	-1280
uck	-1281
estern	-1282
▁large	-1283
▁different	-1284
conom	-1285
orm	-1286
▁sl	-1287
▁soc	-1288
▁app	-1289
ery	-1290
omin	-1291
▁requ	-1292
▁College	-1293
▁you	-1294
aim	-1295
▁if	-1296
▁14	-1297
yle	-1298
▁single	-1299
ately	-1300
▁Ang	-1301
ampionship	-1302
▁13	-1303
▁Ro	-1304
ille	-1305
ches	-1306
▁national	-1307
▁local	-1308
▁bus	-1309
▁named	-1310
▁due	-1311
▁allow	-1312
oph	-1313
▁Air	-1314
▁compet	-1315
3)	-1316
▁population	-1317
iness	-1318
ization	-1319
▁lit	-1320
idd	-1321
▁stand	-1322
▁rest	-1323
hern	-1324
ivision	-1325
▁trad	-1326
▁last	-1327
▁Russ	-1328
iven	-1329
▁Act	-1330
▁Sec	-1331
1)	-1332
▁country	-1333
uman	-1334
▁manag	-1335
attle	-1336
▁refer	-1337
ourn	-1338
▁incre	-1339
▁order	-1340
▁common	-1341
ublic	-1342
ilitary	-1343
ently	-1344
▁mark	-1345
▁Rep	-1346
5.	-1347
▁Ag	-1348
▁old	-1349
▁held	-1350
vers	-1351
▁Rec	-1352
ounc	-1353
day	-1354
ness	-1355
ata	-1356
▁Dist	-1357
▁history	-1358
adem	-1359
▁El	-1360
▁list	-1361
4)	-1362
uk	-1363
raft	-1364
ourt	-1365
stit	-1366
ison	-1367
▁period	-1368
augh	-1369
ves	-1370
▁William	-1371
▁published	-1372
▁present	-1373
orthern	-1374
ample	-1375
▁equ	-1376
ored	-1377
▁X	-1378
▁within	-1379
ford	-1380
7)	-1381
ases	-1382
urther	-1383
ody	-1384
8)	-1385
▁cult	-1386
ief	-1387
▁built	-1388
par	-1389
▁left	-1390
▁television	-1391
▁Ital	-1392
▁hel	-1393
▁cor	-1394
▁like	-1395
eder	-1396
▁took	-1397
▁Cup	-1398
▁men	-1399
▁Order	-1400
6.	-1401
▁By	-1402
▁career	-1403
▁190	-1404
▁Phil	-1405
dom	-1406
ffic	-1407
ink	-1408
▁Br	-1409
▁located	-1410
▁character	-1411
5)	-1412
umb	-1413
▁(18	-1414
▁Not	-1415
lex	-1416
▁short	-1417
ially	-1418
itional	-1419
▁av	-1420
▁Park	-1421
ency	-1422
▁Soc	-1423
▁vill	-1424
▁ep	-1425
9.	-1426
▁Fil	-1427
▁Sup	-1428
ument	-1429
▁International	-1430
▁top	-1431
lands	-1432
▁repl	-1433
▁among	-1434
akes	-1435
▁dem	-1436
▁During	-1437
▁still	-1438
▁effect	-1439
aul	-1440
-1	-1441
▁non	-1442
▁north	-1443
▁event	-1444
▁though	-1445
ana	-1446
▁Ac	-1447
ript	-1448
▁import	-1449
uf	-1450
ondon	-1451
int	-1452
▁val	-1453
▁(199	-1454
6)	-1455
urs	-1456
▁camp	-1457
▁describ	-1458
▁those	-1459
▁rad	-1460
▁author	-1461
▁million	-1462
ius	-1463
▁included	-1464
▁company	-1465
▁very	-1466
▁said	-1467
▁even	-1468
▁water	-1469
▁down	-1470
aces	-1471
▁adv	-1472
▁Ne	-1473
▁Sch	-1474
▁final	-1475
▁educ	-1476
ugg	-1477
▁Tur	-1478
▁poss	-1479
ilar	-1480
alk	-1481
ox	-1482
anc	-1483
ler	-1484
▁ant	-1485
▁member	-1486
▁Art	-1487
▁term	-1488
▁five	-1489
ps	-1490
▁original	-1491
ridge	-1492
▁Roman	-1493
▁One	-1494
▁sol	-1495
▁just	-1496
line	-1497
oks	-1498
▁led	-1499
▁London	-1500
▁films	-1501
▁Tra	-1502
ense	-1503
▁six	-1504
inning	-1505
omet	-1506
ize	-1507
rick	-1508
▁represent	-1509
ether	-1510
cast	-1511
▁fun	-1512
▁stat	-1513
oon	-1514
▁Church	-1515
▁day	-1516
ander	-1517
▁England	-1518
ones	-1519
ino	-1520
reet	-1521
▁crit	-1522
▁resp	-1523
side	-1524
leg	-1525
epend	-1526
▁exper	-1527
tt	-1528
▁book	-1529
▁another	-1530
▁Cor	-1531
▁hand	-1532
ideo	-1533
vious	-1534
▁Gl	-1535
▁vis	-1536
tain	-1537
sp	-1538
▁arch	-1539
ouncil	-1540
lin	-1541
▁partic	-1542
alf	-1543
▁process	-1544
ruction	-1545
▁histor	-1546
▁much	-1547
▁$	-1548
tal	-1549
▁techn	-1550
▁origin	-1551
▁aff	-1552
unicip	-1553
read	-1554
▁Ant	-1555
▁south	-1556
▁es	-1557
▁third	-1558
▁Res	-1559
▁field	-1560
ning	-1561
▁Mich	-1562
ara	-1563
▁189	-1564
rag	-1565
▁port	-1566
▁la	-1567
▁infl	-1568
▁lo	-1569
ociation	-1570
▁Acc	-1571
ington	-1572
▁adm	-1573
▁current	-1574
▁expl	-1575
▁East	-1576
▁building	-1577
▁read	-1578
▁Ste	-1579
▁late	-1580
iber	-1581
ories	-1582
▁fre	-1583
▁example	-1584
▁iss	-1585
▁These	-1586
uted	-1587
.,	-1588
▁List	-1589
▁join	-1590
▁using	-1591
work	-1592
▁We	-1593
▁sold	-1594
▁conc	-1595
▁cr	-1596
▁appear	-1597
ured	-1598
▁21	-1599
▁deb	-1600
ining	-1601
▁Indian	-1602
co	-1603
empt	-1604
▁Canada	-1605
9)	-1606
▁mag	-1607
ivil	-1608
eneral	-1609
▁pat	-1610
astern	-1611
▁women	-1612
lear	-1613
▁La	-1614
roup	-1615
sc	-1616
▁Tr	-1617
▁Nor	-1618
▁When	-1619
▁European	-1620
▁San	-1621
de	-1622
▁level	-1623
▁Australia	-1624
▁service	-1625
▁popular	-1626
▁received	-1627
▁report	-1628
▁Pres	-1629
▁fore	-1630
▁kill	-1631
alt	-1632
▁beg	-1633
ering	-1634
▁what	-1635
▁served	-1636
▁David	-1637
▁Australian	-1638
▁general	-1639
▁Bra	-1640
be	-1641
▁chang	-1642
aint	-1643
▁Bel	-1644
iforn	-1645
ological	-1646
▁fact	-1647
sk	-1648
0)	-1649
▁People	-1650
▁Gree	-1651
pecial	-1652
olic	-1653
▁make	-1654
▁activ	-1655
▁profess	-1656
lection	-1657
▁Hol	-1658
ym	-1659
▁Des	-1660
na	-1661
▁births	-1662
▁version	-1663
iron	-1664
▁District	-1665
osp	-1666
ops	-1667
ours	-1668
▁Port	-1669
ole	-1670
▁various	-1671
itar	-1672
ban	-1673
▁With	-1674
posed	-1675
of	-1676
▁Californ	-1677
▁Per	-1678
▁produced	-1679
▁turn	-1680
rest	-1681
formation	-1682
li	-1683
ummer	-1684
riend	-1685
rian	-1686
▁win	-1687
▁intro	-1688
▁Govern	-1689
ots	-1690
▁House	-1691
▁become	-1692
▁prot	-1693
▁Ber	-1694
ael	-1695
▁perform	-1696
▁struct	-1697
▁invol	-1698
▁Football	-1699
▁tem	-1700
▁best	-1701
▁California	-1702
▁clos	-1703
reg	-1704
thern	-1705
▁given	-1706
omb	-1707
▁econom	-1708
▁children	-1709
▁similar	-1710
app	-1711
▁post	-1712
▁compos	-1713
irc	-1714
▁comb	-1715
ploy	-1716
▁great	-1717
▁sit	-1718
olution	-1719
▁came	-1720
▁Other	-1721
acks	-1722
▁Alex	-1723
▁Germany	-1724
▁every	-1725
▁died	-1726
▁River	-1727
▁role	-1728
men	-1729
outhern	-1730
▁claim	-1731
▁hig	-1732
▁way	-1733
▁el	-1734
ape	-1735
ray	-1736
▁side	-1737
▁Roy	-1738
▁Minist	-1739
ama	-1740
▁2000	-1741
▁born	-1742
ee	-1743
ched	-1744
▁considered	-1745
▁fac	-1746
▁nov	-1747
▁few	-1748
▁cover	-1749
▁engine	-1750
ivid	-1751
less	-1752
▁1,	-1753
▁del	-1754
▁establish	-1755
aff	-1756
eum	-1757
▁son	-1758
ming	-1759
▁Sm	-1760
▁gl	-1761
ta	-1762
ulations	-1763
▁Championship	-1764
▁previous	-1765
▁Rober	-1766
▁Union	-1767
▁language	-1768
▁district	-1769
▁Em	-1770
▁development	-1771
ls	-1772
ician	-1773
ination	-1774
▁188	-1775
▁influ	-1776
▁init	-1777
▁region	-1778
ention	-1779
▁modern	-1780
umn	-1781
▁Club	-1782
▁mult	-1783
▁Canadian	-1784
▁Christian	-1785
▁business	-1786
ead	-1787
▁Bu	-1788
▁typ	-1789
▁military	-1790
duct	-1791
▁(201	-1792
▁international	-1793
▁written	-1794
▁prim	-1795
ney	-1796
▁You	-1797
▁|-	-1798
ex	-1799
▁beh	-1800
▁site	-1801
▁production	-1802
▁having	-1803
ounced	-1804
▁project	-1805
▁host	-1806
▁George	-1807
ront	-1808
▁America	-1809
▁areas	-1810
▁bre	-1811
yd	-1812
▁Party	-1813
▁political	-1814
▁times	-1815
rote	-1816
sequ	-1817
▁mus	-1818
▁species	-1819
▁Trans	-1820
▁moved	-1821
abor	-1822
▁however	-1823
▁village	-1824
forman	-1825
▁feat	-1826
▁Award	-1827
ogn	-1828
ule	-1829
▁inf	-1830
BC	-1831
▁important	-1832
avy	-1833
▁need	-1834
▁186	-1835
off	-1836
▁point	-1837
▁Black	-1838
▁ident	-1839
50	-1840
▁special	-1841
▁Prov	-1842
▁Rich	-1843
▁produc	-1844
▁official	-1845
ateg	-1846
▁feature	-1847
▁bas	-1848
uel	-1849
▁sw	-1850
part	-1851
▁pract	-1852
▁title	-1853
▁Pal	-1854
▁conf	-1855
▁without	-1856
▁lim	-1857
▁house	-1858
▁works	-1859
view	-1860
▁indust	-1861
rap	-1862
anish	-1863
ources	-1864
▁Qu	-1865
▁particular	-1866
ither	-1867
▁created	-1868
▁broad	-1869
▁Music	-1870
ances	-1871
eal	-1872
▁male	-1873
▁Mor	-1874
aken	-1875
▁vol	-1876
▁less	-1877
▁Scott	-1878
▁Red	-1879
▁Turk	-1880
▁coach	-1881
▁30	-1882
ote	-1883
▁rail	-1884
ope	-1885
berg	-1886
▁Paul	-1887
||	-1888
▁ship	-1889
self	-1890
ators	-1891
▁James	-1892
▁rese	-1893
▁groups	-1894
▁Cath	-1895
ournal	-1896
apt	-1897
▁tri	-1898
ests	-1899
▁style	-1900
▁base	-1901
ico	-1902
▁attempt	-1903
ably	-1904
▁proper	-1905
ush	-1906
▁take	-1907
▁total	-1908
▁Some	-1909
▁sent	-1910
mon	-1911
ental	-1912
rab	-1913
ached	-1914
▁aut	-1915
▁Army	-1916
▁developed	-1917
▁epis	-1918
▁India	-1919
hel	-1920
rated	-1921
▁human	-1922
▁Que	-1923
hers	-1924
field	-1925
▁right	-1926
▁General	-1927
▁cond	-1928
▁Division	-1929
craft	-1930
▁bi	-1931
ertain	-1932
ma	-1933
ype	-1934
▁According	-1935
▁Kingdom	-1936
iddle	-1937
▁Lou	-1938
idence	-1939
most	-1940
▁tw	-1941
zer	-1942
▁next	-1943
▁father	-1944
ested	-1945
iction	-1946
▁wrote	-1947
▁2002	-1948
ids	-1949
raw	-1950
▁view	-1951
now	-1952
▁Val	-1953
iers	-1954
▁position	-1955
▁young	-1956
▁Dem	-1957
mit	-1958
era	-1959
▁students	-1960
val	-1961
▁caus	-1962
▁France	-1963
▁det	-1964
eh	-1965
ethod	-1966
nect	-1967
▁187	-1968
atter	-1969
▁(198	-1970
▁pri	-1971
▁From	-1972
ville	-1973
▁gen	-1974
▁real	-1975
▁community	-1976
▁age	-1977
▁Street	-1978
acy	-1979
▁div	-1980
bor	-1981
▁half	-1982
▁Thom	-1983
aper	-1984
▁Road	-1985
▁went	-1986
▁su	-1987
etwork	-1988
▁municip	-1989
▁defe	-1990
istic	-1991
ream	-1992
▁Jew	-1993
ett	-1994
iol	-1995
▁control	-1996
ising	-1997
▁1980	-1998
asket	-1999
utes	-2000
▁exist	-2001
▁Dr	-2002
▁appl	-2003
▁anim	-2004
ago	-2005
uter	-2006
ston	-2007
cer	-2008
aining	-2009
ication	-2010
▁dest	-2011
▁Rail	-2012
▁independ	-2013
▁mater	-2014
▁low	-2015
▁Association	-2016
▁First	-2017
▁rul	-2018
ways	-2019
▁gr	-2020
ged	-2021
itive	-2022
▁Pri	-2023
▁road	-2024
van	-2025
▁continued	-2026
wh	-2027
▁relig	-2028
▁Ire	-2029
▁phys	-2030
▁Mag	-2031
aur	-2032
rie	-2033
ware	-2034
ensive	-2035
itor	-2036
▁case	-2037
▁video	-2038
ending	-2039
▁offer	-2040
▁Stud	-2041
▁[	-2042
▁individ	-2043
icle	-2044
rain	-2045
▁described	-2046
▁poin	-2047
▁award	-2048
▁body	-2049
▁announced	-2050
atural	-2051
udd	-2052
ential	-2053
▁Hall	-2054
▁grow	-2055
▁attack	-2056
used	-2057
ergy	-2058
▁Council	-2059
▁relations	-2060
▁performan	-2061
▁Cont	-2062
iation	-2063
ements	-2064
▁Arch	-2065
▁does	-2066
lected	-2067
▁Year	-2068
▁Great	-2069
▁Cro	-2070
▁ide	-2071
wood	-2072
▁1990	-2073
ha	-2074
▁To	-2075
▁Mart	-2076
▁African	-2077
▁Records	-2078
▁belie	-2079
play	-2080
▁Western	-2081
▁My	-2082
▁opened	-2083
▁Sk	-2084
▁der	-2085
me	-2086
,000	-2087
▁imp	-2088
▁formed	-2089
▁largest	-2090
uation	-2091
inter	-2092
▁25	-2093
ification	-2094
▁Royal	-2095
▁although	-2096
▁events	-2097
▁full	-2098
▁Sl	-2099
▁BC	-2100
▁Best	-2101
ows	-2102
="	-2103
▁addition	-2104
▁Ireland	-2105
▁Pat	-2106
istan	-2107
▁24	-2108
▁hold	-2109
▁started	-2110
▁Academ	-2111
ificant	-2112
▁further	-2113
▁separ	-2114
aut	-2115
viron	-2116
▁President	-2117
ari	-2118
▁anal	-2119
asketball	-2120
▁UK	-2121
▁schools	-2122
ills	-2123
ying	-2124
▁story	-2125
▁Olympics	-2126
itect	-2127
ibr	-2128
▁should	-2129
▁Law	-2130
▁my	-2131
right	-2132
▁league	-2133
hib	-2134
▁others	-2135
▁grad	-2136
oor	-2137
▁decl	-2138
liam	-2139
▁Mark	-2140
▁light	-2141
▁surv	-2142
▁guitar	-2143
oe	-2144
▁Sal	-2145
▁voc	-2146
ability	-2147
▁Mal	-2148
▁Press	-2149
oms	-2150
▁days	-2151
arent	-2152
ister	-2153
▁Commun	-2154
▁ground	-2155
▁100	-2156
▁find	-2157
atin	-2158
▁avail	-2159
▁returned	-2160
liament	-2161
here	-2162
writ	-2163
ference	-2164
▁strong	-2165
▁product	-2166
▁Michael	-2167
▁administ	-2168
▁good	-2169
▁dev	-2170
▁rock	-2171
bert	-2172
mpire	-2173
ger	-2174
arn	-2175
▁significant	-2176
▁Japanese	-2177
aries	-2178
▁social	-2179
ades	-2180
▁Zeal	-2181
▁education	-2182
▁material	-2183
▁ren	-2184
▁Serv	-2185
-19	-2186
▁Charles	-2187
ipp	-2188
▁While	-2189
oll	-2190
burg	-2191
▁founded	-2192
▁friend	-2193
▁Central	-2194
▁2019	-2195
▁appeared	-2196
ude	-2197
30	-2198
▁Hen	-2199
▁proble	-2200
▁cross	-2201
odes	-2202
anies	-2203
▁Je	-2204
▁obs	-2205
▁Zealand	-2206
▁anc	-2207
▁never	-2208
▁China	-2209
▁et	-2210
▁God	-2211
▁priv	-2212
▁Ser	-2213
▁Robert	-2214
▁church	-2215
imately	-2216
ishing	-2217
▁Instit	-2218
ened	-2219
▁usually	-2220
year	-2221
▁Catholic	-2222
▁Bay	-2223
▁Rad	-2224
▁liter	-2225
▁ke	-2226
▁Ter	-2227
▁2010	-2228
ctor	-2229
▁must	-2230
▁live	-2231
▁mean	-2232
▁states	-2233
arian	-2234
▁east	-2235
▁()	-2236
ien	-2237
▁making	-2238
▁services	-2239
▁election	-2240
ula	-2241
▁2020	-2242
ges	-2243
▁Gr	-2244
▁black	-2245
▁Mex	-2246
duction	-2247
▁Greek	-2248
▁himself	-2249
▁squ	-2250
▁fail	-2251
imate	-2252
oviet	-2253
▁TV	-2254
▁research	-2255
▁round	-2256
ria	-2257
▁recorded	-2258
aches	-2259
▁mid	-2260
utions	-2261
gen	-2262
▁tro	-2263
pite	-2264
▁lost	-2265
▁Sam	-2266
ij	-2267
▁becom	-2268
▁—	-2269
▁recogn	-2270
▁politician	-2271
▁countries	-2272
vironment	-2273
▁president	-2274
▁cell	-2275
▁sugg	-2276
iqu	-2277
▁(197	-2278
▁track	-2279
▁Kh	-2280
▁associ	-2281
▁Olympic	-2282
▁Sim	-2283
▁Africa	-2284
ications	-2285
▁2007	-2286
▁radio	-2287
▁circ	-2288
▁space	-2289
▁2004	-2290
▁mot	-2291
▁Republic	-2292
▁arg	-2293
▁how	-2294
cks	-2295
ump	-2296
▁laun	-2297
▁Court	-2298
ique	-2299
ume	-2300
▁vict	-2301
▁available	-2302
▁doc	-2303
▁stations	-2304
atch	-2305
iting	-2306
▁Italian	-2307
▁novel	-2308
▁key	-2309
▁hon	-2310
incip	-2311
▁Wash	-2312
itch	-2313
▁Vir	-2314
▁webs	-2315
▁free	-2316
▁Im	-2317
▁Wil	-2318
▁points	-2319
▁fem	-2320
CA	-2321
▁tog	-2322
▁bar	-2323
▁Inter	-2324
sy	-2325
▁treat	-2326
▁function	-2327
▁director	-2328
▁Don	-2329
▁Although	-2330
ership	-2331
▁ten	-2332
nel	-2333
ilities	-2334
▁systems	-2335
▁west	-2336
ament	-2337
▁Mary	-2338
▁together	-2339
mar	-2340
anted	-2341
gy	-2342
▁brother	-2343
▁Bur	-2344
▁either	-2345
▁sym	-2346
▁model	-2347
ceed	-2348
▁deg	-2349
▁Frank	-2350
▁forces	-2351
▁cost	-2352
anding	-2353
▁Che	-2354
▁see	-2355
▁/	-2356
▁z	-2357
▁joined	-2358
ili	-2359
▁2001	-2360
▁across	-2361
▁albums	-2362
▁cast	-2363
▁Day	-2364
▁promot	-2365
▁red	-2366
▁(2	-2367
ulated	-2368
ites	-2369
▁invest	-2370
▁market	-2371
▁Mount	-2372
▁worked	-2373
ele	-2374
▁deaths	-2375
▁Film	-2376
▁constit	-2377
▁party	-2378
▁followed	-2379
▁Washington	-2380
▁help	-2381
▁=	-2382
▁("	-2383
▁Russian	-2384
▁study	-2385
▁Gold	-2386
ida	-2387
▁miss	-2388
▁Angel	-2389
▁Living	-2390
▁Ir	-2391
▁star	-2392
▁Cap	-2393
▁Ham	-2394
▁Vol	-2395
▁Treat	-2396
atory	-2397
▁Histor	-2398
ev	-2399
▁agre	-2400
▁tour	-2401
▁di	-2402
▁particip	-2403
ground	-2404
▁seen	-2405
▁wid	-2406
▁successful	-2407
▁Sing	-2408
▁Met	-2409
▁medal	-2410
▁taken	-2411
aign	-2412
▁Mac	-2413
▁employ	-2414
gin	-2415
▁Louis	-2416
lim	-2417
▁Tex	-2418
iles	-2419
ocr	-2420
▁fire	-2421
▁Group	-2422
ometimes	-2423
▁once	-2424
▁impro	-2425
bour	-2426
asons	-2427
–0	-2428
order	-2429
▁assist	-2430
▁week	-2431
▁Vict	-2432
▁Minister	-2433
▁Grand	-2434
▁Spanish	-2435
▁Arab	-2436
▁Leg	-2437
▁Play	-2438
pecially	-2439
oice	-2440
▁songs	-2441
▁method	-2442
▁Soviet	-2443
▁enc	-2444
▁0	-2445
▁phot	-2446
vert	-2447
▁Peter	-2448
omm	-2449
▁press	-2450
ointed	-2451
▁Town	-2452
asing	-2453
▁release	-2454
▁Educ	-2455
▁Rh	-2456
▁Lit	-2457
▁Bill	-2458
▁Company	-2459
▁information	-2460
▁Society	-2461
10	-2462
gress	-2463
▁fund	-2464
▁mass	-2465
▁Island	-2466
▁transl	-2467
icles	-2468
▁exec	-2469
▁arr	-2470
▁throughout	-2471
▁king	-2472
ya	-2473
▁includes	-2474
▁1970	-2475
▁Richard	-2476
▁Spe	-2477
ource	-2478
▁consist	-2479
II	-2480
▁access	-2481
enc	-2482
isl	-2483
St	-2484
▁Since	-2485
▁Fin	-2486
fic	-2487
▁test	-2488
▁entire	-2489
▁Second	-2490
▁Thomas	-2491
▁website	-2492
▁contrib	-2493
aves	-2494
▁married	-2495
▁2008	-2496
icro	-2497
▁introduced	-2498
ought	-2499
cle	-2500
▁Mer	-2501
▁Museum	-2502
▁object	-2503
alls	-2504
▁fig	-2505
SI	-2506
chie	-2507
▁meet	-2508
hest	-2509
roy	-2510
inese	-2511
aker	-2512
▁parts	-2513
▁plan	-2514
igned	-2515
itte	-2516
azine	-2517
time	-2518
ockey	-2519
aughter	-2520
▁Most	-2521
icated	-2522
▁range	-2523
erous	-2524
ishop	-2525
▁Columb	-2526
ores	-2527
▁construction	-2528
▁teams	-2529
▁Cong	-2530
▁tre	-2531
▁sound	-2532
▁Franc	-2533
estival	-2534
▁Center	-2535
ka	-2536
▁aver	-2537
▁lab	-2538
▁Empire	-2539
▁features	-2540
face	-2541
▁Scot	-2542
▁Early	-2543
min	-2544
▁civil	-2545
▁review	-2546
tra	-2547
▁completed	-2548
▁22	-2549
▁acqu	-2550
▁away	-2551
ederal	-2552
▁reported	-2553
▁184	-2554
▁Sen	-2555
▁gold	-2556
▁Super	-2557
ranch	-2558
13	-2559
▁above	-2560
▁Bi	-2561
▁Dan	-2562
▁pred	-2563
arily	-2564
▁Fore	-2565
annel	-2566
cript	-2567
▁office	-2568
▁instit	-2569
▁23	-2570
")	-2571
west	-2572
▁least	-2573
▁Up	-2574
▁Atl	-2575
▁coll	-2576
▁Its	-2577
▁frequ	-2578
▁Mod	-2579
▁remained	-2580
▁1999	-2581
▁discover	-2582
elling	-2583
▁occur	-2584
unk	-2585
ems	-2586
▁contract	-2587
▁phil	-2588
iment	-2589
–18	-2590
▁Cast	-2591
▁sil	-2592
▁dou	-2593
▁playing	-2594
▁Tom	-2595
ugby	-2596
▁architect	-2597
ples	-2598
▁put	-2599
ception	-2600
▁change	-2601
mercial	-2602
lam	-2603
rup	-2604
bon	-2605
▁data	-2606
etic	-2607
▁ser	-2608
utive	-2609
▁Jose	-2610
▁performance	-2611
▁But	-2612
▁respect	-2613
▁185	-2614
▁companies	-2615
FL	-2616
▁conduct	-2617
.)	-2618
▁park	-2619
▁pur	-2620
▁pot	-2621
▁Regulations	-2622
ees	-2623
▁Pop	-2624
▁far	-2625
–2	-2626
▁capt	-2627
▁originally	-2628
▁Flor	-2629
▁mount	-2630
▁rather	-2631
ving	-2632
▁2003	-2633
▁mix	-2634
▁express	-2635
▁sch	-2636
rial	-2637
▁27	-2638
▁sports	-2639
▁professional	-2640
▁fight	-2641
thlet	-2642
TV	-2643
▁territ	-2644
▁singer	-2645
▁Cur	-2646
oys	-2647
airs	-2648
▁foc	-2649
olf	-2650
▁Bow	-2651
go	-2652
atal	-2653
▁regular	-2654
▁hous	-2655
▁cop	-2656
iding	-2657
▁culture	-2658
▁mother	-2659
▁designed	-2660
not	-2661
▁26	-2662
utch	-2663
och	-2664
uments	-2665
▁Tor	-2666
▁cal	-2667
rd	-2668
▁books	-2669
▁possible	-2670
▁Academy	-2671
▁months	-2672
rael	-2673
▁Mel	-2674
▁working	-2675
ste	-2676
anded	-2677
▁observ	-2678
cher	-2679
▁1960	-2680
▁deter	-2681
▁viol	-2682
ror	-2683
ply	-2684
head	-2685
▁connect	-2686
▁km	-2687
▁meas	-2688
oral	-2689
▁wife	-2690
aps	-2691
▁Chinese	-2692
▁Pet	-2693
ands	-2694
▁type	-2695
▁capital	-2696
▁performed	-2697
▁broadcast	-2698
▁eight	-2699
▁subject	-2700
▁upon	-2701
▁especially	-2702
▁cour	-2703
▁Government	-2704
▁reb	-2705
icy	-2706
▁pain	-2707
▁aircraft	-2708
▁vot	-2709
put	-2710
▁stri	-2711
▁Dis	-2712
aching	-2713
▁Texas	-2714
▁replaced	-2715
bit	-2716
medi	-2717
edy	-2718
▁2009	-2719
oul	-2720
het	-2721
▁Institute	-2722
olk	-2723
▁Rob	-2724
▁Op	-2725
▁Ben	-2726
▁Rev	-2727
▁Sports	-2728
▁central	-2729
nder	-2730
▁past	-2731
▁Pre	-2732
▁Awards	-2733
▁eventually	-2734
▁account	-2735
▁Kn	-2736
▁2011	-2737
▁race	-2738
atre	-2739
▁get	-2740
ios	-2741
chan	-2742
▁leading	-2743
iff	-2744
▁:	-2745
▁ge	-2746
▁Cons	-2747
▁characters	-2748
,"	-2749
▁Ev	-2750
hood	-2751
▁ill	-2752
▁Go	-2753
▁cy	-2754
▁elected	-2755
ont	-2756
▁mem	-2757
NA	-2758
zil	-2759
▁Mad	-2760
back	-2761
atives	-2762
▁Games	-2763
▁jud	-2764
adium	-2765
▁appointed	-2766
▁accept	-2767
▁theory	-2768
anta	-2769
-2	-2770
str	-2771
0,000	-2772
align	-2773
urity	-2774
▁episode	-2775
▁rights	-2776
rought	-2777
▁Smith	-2778
▁gave	-2779
▁White	-2780
▁signed	-2781
unt	-2782
▁Def	-2783
▁respons	-2784
umni	-2785
▁natural	-2786
▁28	-2787
▁killed	-2788
▁campaign	-2789
▁Victor	-2790
ellow	-2791
▁Green	-2792
asc	-2793
bers	-2794
▁Old	-2795
▁Offic	-2796
▁court	-2797
▁Public	-2798
lor	-2799
▁results	-2800
▁front	-2801
▁sometimes	-2802
▁added	-2803
▁almost	-2804
▁Del	-2805
▁critic	-2806
SA	-2807
▁lower	-2808
▁subsequ	-2809
▁Lake	-2810
▁battle	-2811
▁Henry	-2812
like	-2813
ena	-2814
▁multip	-2815
uns	-2816
▁trib	-2817
▁word	-2818
ux	-2819
▁complex	-2820
▁seven	-2821
▁lik	-2822
▁Depart	-2823
▁instead	-2824
idents	-2825
▁standard	-2826
ires	-2827
inary	-2828
▁generally	-2829
▁able	-2830
position	-2831
▁coast	-2832
▁1.	-2833
▁Class	-2834
▁white	-2835
▁provided	-2836
▁shows	-2837
▁neigh	-2838
▁know	-2839
rel	-2840
▁hard	-2841
▁debut	-2842
▁Kar	-2843
▁force	-2844
▁Northern	-2845
▁Brown	-2846
▁scient	-2847
▁approx	-2848
▁princip	-2849
ota	-2850
▁opt	-2851
▁depart	-2852
▁health	-2853
▁certain	-2854
rol	-2855
▁itself	-2856
rim	-2857
▁aud	-2858
▁achie	-2859
▁close	-2860
▁Los	-2861
ona	-2862
▁Mur	-2863
▁whose	-2864
ufact	-2865
▁featured	-2866
rey	-2867
▁match	-2868
▁fav	-2869
▁network	-2870
▁establishments	-2871
▁Oper	-2872
elt	-2873
▁Just	-2874
▁actor	-2875
▁regard	-2876
▁abs	-2877
ked	-2878
▁rank	-2879
ibrary	-2880
▁occup	-2881
▁hit	-2882
▁“	-2883
ittee	-2884
▁che	-2885
▁means	-2886
▁Mass	-2887
▁places	-2888
▁#	-2889
▁Winter	-2890
ends	-2891
12	-2892
▁2,	-2893
▁buildings	-2894
▁Swed	-2895
itz	-2896
▁energy	-2897
▁Chic	-2898
ected	-2899
action	-2900
ulture	-2901
▁footballer	-2902
▁Many	-2903
▁food	-2904
▁50	-2905
▁Brazil	-2906
▁movement	-2907
▁Two	-2908
uit	-2909
▁provide	-2910
▁Italy	-2911
▁Further	-2912
bl	-2913
▁neg	-2914
clus	-2915
▁saw	-2916
▁journal	-2917
uture	-2918
▁thus	-2919
▁higher	-2920
aged	-2921
lier	-2922
Amer	-2923
▁Sir	-2924
▁2012	-2925
▁schol	-2926
based	-2927
ension	-2928
▁via	-2929
▁Battle	-2930
▁northern	-2931
abit	-2932
▁Miss	-2933
▁Department	-2934
▁den	-2935
▁Hill	-2936
▁structure	-2937
▁private	-2938
▁Men	-2939
▁Georg	-2940
enced	-2941
▁commercial	-2942
▁pers	-2943
▁average	-2944
aught	-2945
▁Er	-2946
porary	-2947
kn	-2948
▁ste	-2949
board	-2950
▁sem	-2951
▁eth	-2952
oid	-2953
▁island	-2954
endment	-2955
▁dam	-2956
BA	-2957
▁Virgin	-2958
▁basketball	-2959
▁Ann	-2960
▁Education	-2961
▁according	-2962
▁Penn	-2963
▁nuc	-2964
istics	-2965
▁writer	-2966
▁inj	-2967
hi	-2968
▁Carol	-2969
▁Parliament	-2970
▁Rock	-2971
▁traditional	-2972
anks	-2973
▁center	-2974
▁distrib	-2975
▁prote	-2976
▁languages	-2977
▁super	-2978
▁(196	-2979
▁Alexander	-2980
▁stre	-2981
▁Den	-2982
▁Britain	-2983
▁involved	-2984
▁southern	-2985
▁interest	-2986
Am	-2987
▁1998	-2988
▁Life	-2989
eleb	-2990
isions	-2991
▁brought	-2992
▁transfer	-2993
arter	-2994
▁Force	-2995
▁Min	-2996
▁training	-2997
▁philos	-2998
sec	-2999
▁manager	-3000
▁Kore	-3001
▁Gra	-3002
yr	-3003
ingu	-3004
aval	-3005
vention	-3006
▁finished	-3007
sych	-3008
antic	-3009
▁uses	-3010
▁winn	-3011
nes	-3012
18	-3013
embly	-3014
▁army	-3015
▁ball	-3016
▁chem	-3017
▁Chicago	-3018
▁action	-3019
▁industry	-3020
▁fall	-3021
▁Railway	-3022
▁artists	-3023
ani	-3024
▁reached	-3025
▁flow	-3026
▁media	-3027
oz	-3028
...	-3029
orial	-3030
▁allowed	-3031
▁ancient	-3032
▁Israel	-3033
uz	-3034
▁If	-3035
▁board	-3036
▁outside	-3037
▁river	-3038
ises	-3039
press	-3040
American	-3041
uated	-3042
▁soft	-3043
▁transport	-3044
▁birth	-3045
Ch	-3046
ounter	-3047
ros	-3048
▁hom	-3049
▁placed	-3050
▁Bul	-3051
▁Sub	-3052
ala	-3053
▁academ	-3054
▁Book	-3055
hire	-3056
▁Ver	-3057
alled	-3058
▁daughter	-3059
ength	-3060
▁terms	-3061
▁Province	-3062
ersey	-3063
▁Bas	-3064
rang	-3065
▁document	-3066
▁text	-3067
▁loss	-3068
eds	-3069
aters	-3070
▁determ	-3071
40	-3072
▁Jim	-3073
▁1997	-3074
oke	-3075
▁imm	-3076
▁forms	-3077
▁Saint	-3078
ny	-3079
▁Hon	-3080
▁actress	-3081
ola	-3082
▁Latin	-3083
▁science	-3084
▁Land	-3085
▁Song	-3086
iences	-3087
▁changed	-3088
▁newsp	-3089
▁settle	-3090
▁conv	-3091
▁associated	-3092
▁creat	-3093
▁183	-3094
▁40	-3095
▁environment	-3096
ibility	-3097
stra	-3098
▁stage	-3099
▁veh	-3100
ender	-3101
▁Mil	-3102
▁Gall	-3103
▁related	-3104
oper	-3105
asion	-3106
ection	-3107
▁directed	-3108
▁self	-3109
▁religious	-3110
▁arm	-3111
ping	-3112
60	-3113
▁producer	-3114
ky	-3115
▁Fre	-3116
▁Liber	-3117
▁Cam	-3118
▁adop	-3119
reme	-3120
▁Paris	-3121
ancial	-3122
▁stated	-3123
▁plant	-3124
road	-3125
▁goal	-3126
ospital	-3127
ado	-3128
▁2014	-3129
▁writers	-3130
▁individual	-3131
▁Squ	-3132
▁Camp	-3133
▁Commission	-3134
▁college	-3135
▁Bob	-3136
▁concern	-3137
▁Scottish	-3138
▁Du	-3139
▁dram	-3140
▁Florida	-3141
▁numbers	-3142
ficult	-3143
▁Portug	-3144
▁Columbia	-3145
▁economic	-3146
▁Fam	-3147
▁Tim	-3148
elled	-3149
▁leader	-3150
▁manufact	-3151
▁trade	-3152
▁section	-3153
▁instr	-3154
▁relationship	-3155
▁er	-3156
▁say	-3157
anned	-3158
known	-3159
▁currently	-3160
▁Dutch	-3161
▁quest	-3162
bur	-3163
▁Off	-3164
ulf	-3165
ned	-3166
▁Martin	-3167
itan	-3168
▁Pak	-3169
▁effort	-3170
▁Camb	-3171
▁Earth	-3172
▁bank	-3173
▁minist	-3174
ette	-3175
inct	-3176
ties	-3177
▁Angeles	-3178
▁colon	-3179
▁1996	-3180
▁Radio	-3181
▁required	-3182
▁cut	-3183
▁29	-3184
–200	-3185
▁reading	-3186
▁Direct	-3187
▁Mont	-3188
▁computer	-3189
15	-3190
▁units	-3191
▁let	-3192
ultural	-3193
▁Democr	-3194
▁travel	-3195
▁decided	-3196
▁Star	-3197
▁evidence	-3198
▁Asia	-3199
▁independent	-3200
▁integ	-3201
▁sex	-3202
▁Dou	-3203
▁pay	-3204
▁difficult	-3205
ols	-3206
▁Notes	-3207
▁competition	-3208
▁Islam	-3209
itt	-3210
▁Care	-3211
change	-3212
▁2013	-3213
▁remov	-3214
▁Eastern	-3215
heast	-3216
▁thought	-3217
ada	-3218
▁percent	-3219
▁ever	-3220
ils	-3221
▁awarded	-3222
ye	-3223
▁primary	-3224
▁elements	-3225
▁2006,	-3226
mark	-3227
lying	-3228
▁2.	-3229
▁Techn	-3230
▁fourth	-3231
▁highest	-3232
▁towards	-3233
ients	-3234
▁Do	-3235
▁Jewish	-3236
▁Inc	-3237
ini	-3238
▁altern	-3239
▁names	-3240
▁beginning	-3241
▁hor	-3242
▁Wales	-3243
▁vocals	-3244
▁Sol	-3245
▁Women	-3246
▁operations	-3247
▁meaning	-3248
▁Mill	-3249
rast	-3250
▁poet	-3251
▁Middle	-3252
▁railway	-3253
▁wind	-3254
▁Build	-3255
▁prob	-3256
▁univers	-3257
▁increased	-3258
well	-3259
▁personal	-3260
▁Follow	-3261
▁little	-3262
▁too	-3263
▁III	-3264
▁Health	-3265
▁remains	-3266
▁Southern	-3267
▁deal	-3268
▁Out	-3269
▁mur	-3270
▁hum	-3271
itiz	-3272
▁minor	-3273
plement	-3274
ify	-3275
▁Rel	-3276
ysis	-3277
▁alumni	-3278
▁concept	-3279
▁Fred	-3280
▁Big	-3281
▁Irish	-3282
▁Series	-3283
▁Base	-3284
▁complete	-3285
▁exam	-3286
▁Russia	-3287
uals	-3288
ras	-3289
▁centre	-3290
la	-3291
▁behind	-3292
ready	-3293
▁cou	-3294
▁Joseph	-3295
▁rate	-3296
▁Budd	-3297
▁Bre	-3298
▁purch	-3299
▁earlier	-3300
earch	-3301
▁Turkey	-3302
rig	-3303
▁Ma	-3304
▁come	-3305
ura	-3306
▁Service	-3307
ita	-3308
▁emer	-3309
▁particularly	-3310
▁wood	-3311
▁previously	-3312
▁Mexico	-3313
aled	-3314
▁bur	-3315
▁collection	-3316
▁Pan	-3317
▁Sun	-3318
▁sequ	-3319
▁estim	-3320
▁cand	-3321
▁cred	-3322
▁stop	-3323
▁ast	-3324
elves	-3325
▁Over	-3326
25	-3327
▁Av	-3328
▁Treaties	-3329
▁size	-3330
▁night	-3331
itors	-3332
▁Jer	-3333
▁esc	-3334
▁Prem	-3335
▁gra	-3336
gypt	-3337
▁amount	-3338
▁Congress	-3339
▁saf	-3340
▁Sil	-3341
▁Polit	-3342
▁writing	-3343
▁chart	-3344
80	-3345
▁tax	-3346
▁Sur	-3347
▁living	-3348
▁Sea	-3349
▁Following	-3350
▁changes	-3351
11	-3352
atively	-3353
▁screen	-3354
▁temper	-3355
▁winning	-3356
▁Civil	-3357
▁clear	-3358
▁referred	-3359
roll	-3360
▁staff	-3361
▁female	-3362
▁Mos	-3363
▁sat	-3364
▁mission	-3365
▁fif	-3366
▁pen	-3367
▁police	-3368
▁Scotland	-3369
▁box	-3370
▁disp	-3371
▁prop	-3372
wer	-3373
aring	-3374
▁ver	-3375
▁approximately	-3376
▁0.	-3377
▁division	-3378
iant	-3379
▁destroy	-3380
▁Found	-3381
▁crick	-3382
▁active	-3383
uries	-3384
za	-3385
irit	-3386
▁Person	-3387
ift	-3388
▁surround	-3389
gar	-3390
urban	-3391
▁closed	-3392
▁today	-3393
▁Summer	-3394
▁dig	-3395
▁anti	-3396
▁cases	-3397
▁mostly	-3398
▁Arts	-3399
▁Major	-3400
▁magazine	-3401
▁larger	-3402
▁Spain	-3403
▁edition	-3404
▁location	-3405
cing	-3406
▁championship	-3407
hold	-3408
▁mer	-3409
itted	-3410
▁celeb	-3411
▁longer	-3412
▁1994	-3413
▁majority	-3414
▁1992	-3415
▁move	-3416
▁nar	-3417
▁How	-3418
FA	-3419
▁future	-3420
22	-3421
▁fa	-3422
▁construct	-3423
gian	-3424
gl	-3425
acing	-3426
▁Di	-3427
▁Pakistan	-3428
▁Lab	-3429
▁consider	-3430
▁log	-3431
▁limited	-3432
ali	-3433
▁1995	-3434
▁Egypt	-3435
70	-3436
bra	-3437
▁Muslim	-3438
▁Tro	-3439
oking	-3440
▁runs	-3441
▁Ke	-3442
▁1950	-3443
▁lay	-3444
▁sen	-3445
▁caused	-3446
▁specific	-3447
ipl	-3448
14	-3449
▁Science	-3450
stein	-3451
▁whom	-3452
oo	-3453
▁cities	-3454
▁practice	-3455
▁municipality	-3456
▁Social	-3457
▁mach	-3458
▁soon	-3459
▁sett	-3460
rative	-3461
▁Bus	-3462
erve	-3463
▁already	-3464
ares	-3465
▁source	-3466
▁ended	-3467
▁dom	-3468
▁break	-3469
▁additional	-3470
▁studies	-3471
bed	-3472
▁value	-3473
ylvan	-3474
▁Jersey	-3475
writer	-3476
▁qual	-3477
ophy	-3478
▁oil	-3479
▁Jud	-3480
▁Secret	-3481
▁influence	-3482
ato	-3483
uffer	-3484
spe	-3485
mond	-3486
mselves	-3487
omer	-3488
▁lack	-3489
▁underst	-3490
▁draw	-3491
▁believed	-3492
ón	-3493
enth	-3494
▁Sar	-3495
▁degree	-3496
igr	-3497
▁som	-3498
▁sum	-3499
venue	-3500
anguage	-3501
▁3,	-3502
▁Sa	-3503
▁Under	-3504
▁themselves	-3505
ydro	-3506
▁ord	-3507
ano	-3508
stant	-3509
▁news	-3510
▁Jun	-3511
▁artist	-3512
▁Ill	-3513
▁sus	-3514
▁musical	-3515
▁vir	-3516
▁keep	-3517
▁Jack	-3518
cel	-3519
ells	-3520
▁Elect	-3521
▁2016	-3522
isk	-3523
use	-3524
ship	-3525
isation	-3526
band	-3527
▁31	-3528
▁indic	-3529
▁parent	-3530
▁numerous	-3531
▁Prize	-3532
▁below	-3533
reater	-3534
▁equip	-3535
cul	-3536
bury	-3537
igan	-3538
▁Vill	-3539
▁ess	-3540
▁System	-3541
▁Armen	-3542
▁Carl	-3543
▁2015	-3544
▁prior	-3545
▁summer	-3546
fit	-3547
▁Championships	-3548
obal	-3549
▁prem	-3550
irm	-3551
iance	-3552
▁bass	-3553
▁lines	-3554
▁forest	-3555
▁prison	-3556
▁More	-3557
▁Tour	-3558
▁route	-3559
with	-3560
▁Young	-3561
▁farm	-3562
▁Mo	-3563
▁might	-3564
▁Valley	-3565
▁Conf	-3566
▁So	-3567
▁ens	-3568
–201	-3569
va	-3570
▁union	-3571
▁Mu	-3572
left	-3573
▁Loc	-3574
oring	-3575
den	-3576
▁tradition	-3577
orpor	-3578
▁ded	-3579
▁Wood	-3580
▁unit	-3581
▁mention	-3582
▁(20	-3583
▁municipal	-3584
▁issues	-3585
▁words	-3586
▁align	-3587
▁Po	-3588
▁Bet	-3589
irl	-3590
▁Later	-3591
▁Love	-3592
▁seasons	-3593
ounds	-3594
▁reve	-3595
▁western	-3596
▁Fort	-3597
▁legal	-3598
ER	-3599
▁Cr	-3600
▁McC	-3601
▁taking	-3602
▁investig	-3603
▁domin	-3604
▁hockey	-3605
cont	-3606
izing	-3607
▁contains	-3608
▁Lord	-3609
▁rap	-3610
▁That	-3611
▁baseball	-3612
sen	-3613
azz	-3614
▁Festival	-3615
onse	-3616
▁Television	-3617
oma	-3618
▁Lee	-3619
izations	-3620
emporary	-3621
iter	-3622
center	-3623
▁Ak	-3624
▁variety	-3625
▁Jo	-3626
▁owned	-3627
▁always	-3628
▁programs	-3629
▁Blue	-3630
ider	-3631
▁separate	-3632
▁Times	-3633
▁mechan	-3634
▁CD	-3635
▁grand	-3636
ables	-3637
▁norm	-3638
▁require	-3639
▁2007,	-3640
▁News	-3641
▁cust	-3642
▁Ott	-3643
▁Haw	-3644
▁Are	-3645
▁Queen	-3646
▁noted	-3647
▁famous	-3648
▁Ol	-3649
▁Ox	-3650
▁foreign	-3651
▁surface	-3652
▁i	-3653
▁multiple	-3654
▁Arg	-3655
pir	-3656
▁big	-3657
ledge	-3658
▁Wind	-3659
1),	-3660
▁Sat	-3661
▁money	-3662
met	-3663
rif	-3664
▁Mr	-3665
bre	-3666
▁plat	-3667
▁Cle	-3668
omp	-3669
▁suffer	-3670
▁Bank	-3671
▁represented	-3672
isco	-3673
▁give	-3674
▁immedi	-3675
▁Mem	-3676
▁metal	-3677
log	-3678
itude	-3679
▁Oh	-3680
▁Pac	-3681
ylvania	-3682
▁better	-3683
anda	-3684
▁Fe	-3685
rief	-3686
▁clubs	-3687
▁continu	-3688
axim	-3689
▁remain	-3690
▁appears	-3691
▁increase	-3692
anning	-3693
▁inh	-3694
▁Hel	-3695
▁issue	-3696
▁sources	-3697
uan	-3698
▁scored	-3699
▁Official	-3700
ams	-3701
resp	-3702
▁Another	-3703
▁becoming	-3704
ety	-3705
▁Cub	-3706
▁Navy	-3707
▁Broad	-3708
▁rule	-3709
▁recent	-3710
AR	-3711
▁Bor	-3712
akers	-3713
▁bound	-3714
▁nomin	-3715
▁Virginia	-3716
▁pie	-3717
90	-3718
▁Lad	-3719
rich	-3720
▁ven	-3721
overs	-3722
▁2008,	-3723
▁Univers	-3724
▁Jul	-3725
▁discuss	-3726
▁ang	-3727
▁Ros	-3728
rying	-3729
▁spent	-3730
▁spl	-3731
ricts	-3732
pre	-3733
▁Profess	-3734
ua	-3735
▁Bat	-3736
▁rugby	-3737
▁(195	-3738
▁Pers	-3739
▁products	-3740
▁Hot	-3741
asy	-3742
▁Main	-3743
▁Ep	-3744
▁bene	-3745
▁shot	-3746
▁Films	-3747
▁opening	-3748
▁symb	-3749
▁Long	-3750
▁Rout	-3751
▁passed	-3752
▁1986	-3753
▁Research	-3754
tained	-3755
▁studio	-3756
▁candid	-3757
▁Mat	-3758
▁step	-3759
omy	-3760
▁wide	-3761
iro	-3762
▁Cross	-3763
▁lived	-3764
▁1979	-3765
▁exhib	-3766
chester	-3767
▁1993	-3768
▁Tri	-3769
itation	-3770
▁status	-3771
pected	-3772
▁elev	-3773
▁speed	-3774
irds	-3775
▁Card	-3776
▁organization	-3777
▁Islands	-3778
win	-3779
▁sea	-3780
▁code	-3781
▁date	-3782
enes	-3783
▁ice	-3784
icians	-3785
▁2010,	-3786
▁historical	-3787
▁likely	-3788
▁command	-3789
BS	-3790
▁growth	-3791
▁increasing	-3792
▁Add	-3793
▁activities	-3794
▁2009,	-3795
16	-3796
▁appearance	-3797
▁problems	-3798
▁double	-3799
▁Hung	-3800
▁1991	-3801
▁Wall	-3802
▁dise	-3803
▁focus	-3804
17	-3805
▁Berlin	-3806
▁exc	-3807
anced	-3808
▁latter	-3809
▁annual	-3810
▁Ur	-3811
▁property	-3812
ensus	-3813
heim	-3814
▁Top	-3815
In	-3816
riage	-3817
incial	-3818
▁effects	-3819
▁shown	-3820
▁length	-3821
);	-3822
▁necess	-3823
"|	-3824
▁conditions	-3825
tion	-3826
▁Adm	-3827
▁dire	-3828
▁threat	-3829
▁Sund	-3830
▁victory	-3831
▁nature	-3832
▁defeated	-3833
▁financial	-3834
onic	-3835
▁Tre	-3836
▁extended	-3837
adel	-3838
hens	-3839
▁Cy	-3840
▁seat	-3841
▁Their	-3842
▁BBC	-3843
ublican	-3844
nic	-3845
▁mainly	-3846
▁Prot	-3847
▁Organ	-3848
▁Chief	-3849
▁troops	-3850
▁eastern	-3851
▁whether	-3852
▁supported	-3853
▁NA	-3854
▁Mid	-3855
ronze	-3856
▁proposed	-3857
rown	-3858
▁targ	-3859
▁commonly	-3860
▁technology	-3861
amm	-3862
house	-3863
▁fle	-3864
▁1920	-3865
wide	-3866
▁create	-3867
▁Lu	-3868
arden	-3869
▁Kent	-3870
▁Edward	-3871
▁murder	-3872
▁Four	-3873
▁forced	-3874
more	-3875
▁table	-3876
ansas	-3877
▁listed	-3878
▁Ca	-3879
▁running	-3880
ario	-3881
▁prevent	-3882
▁tourn	-3883
war	-3884
ampion	-3885
▁mathem	-3886
▁hot	-3887
▁don	-3888
▁launched	-3889
▁decision	-3890
ca	-3891
pose	-3892
▁batt	-3893
ums	-3894
▁Members	-3895
▁drop	-3896
ips	-3897
▁Bost	-3898
▁directly	-3899
▁Committee	-3900
ih	-3901
▁2011,	-3902
▁behav	-3903
▁Game	-3904
▁du	-3905
▁month	-3906
burgh	-3907
▁Orig	-3908
▁makes	-3909
▁quick	-3910
velopment	-3911
▁claimed	-3912
eks	-3913
▁sal	-3914
▁produce	-3915
inent	-3916
8),	-3917
ously	-3918
23	-3919
▁cause	-3920
▁chief	-3921
apers	-3922
▁train	-3923
4),	-3924
▁Gar	-3925
▁types	-3926
▁Tod	-3927
▁crew	-3928
▁Econom	-3929
col	-3930
▁categ	-3931
inem	-3932
▁belong	-3933
▁typically	-3934
ech	-3935
▁widely	-3936
▁Bab	-3937
kins	-3938
▁Post	-3939
ken	-3940
▁Gal	-3941
▁course	-3942
icted	-3943
▁Mot	-3944
oir	-3945
▁Theatre	-3946
▁Bell	-3947
iano	-3948
▁student	-3949
peror	-3950
▁2012,	-3951
▁secret	-3952
▁Spr	-3953
▁2017	-3954
▁confl	-3955
aska	-3956
▁Fer	-3957
▁initially	-3958
▁Penns	-3959
▁detail	-3960
ologist	-3961
inet	-3962
▁Est	-3963
mentary	-3964
▁Special	-3965
▁academic	-3966
▁structures	-3967
▁Bos	-3968
▁1985	-3969
▁remaining	-3970
▁ox	-3971
▁2018	-3972
▁Bal	-3973
▁offered	-3974
▁response	-3975
▁)	-3976
▁diss	-3977
▁Medal	-3978
▁reason	-3979
▁dyn	-3980
▁Corn	-3981
forms	-3982
▁policy	-3983
▁Military	-3984
astic	-3985
respond	-3986
▁Despite	-3987
▁Transport	-3988
▁interview	-3989
▁Ul	-3990
▁carried	-3991
▁attended	-3992
ela	-3993
▁4,	-3994
nam	-3995
▁blood	-3996
▁software	-3997
iana	-3998
▁Death	-3999
▁citiz	-4000
▁Int	-4001
▁discovered	-4002
▁Johnson	-4003
▁except	-4004
▁problem	-4005
▁(193	-4006
▁Matt	-4007
▁Bern	-4008
▁done	-4009
▁concent	-4010
▁Disc	-4011
▁Pennsylvania	-4012
▁Family	-4013
7),	-4014
down	-4015
▁takes	-4016
place	-4017
ropol	-4018
ograp	-4019
▁Good	-4020
owers	-4021
75	-4022
TA	-4023
▁woman	-4024
▁university	-4025
▁Bang	-4026
▁cultural	-4027
▁Boston	-4028
▁dial	-4029
zech	-4030
▁entered	-4031
Amendment	-4032
uff	-4033
▁Bir	-4034
▁society	-4035
▁Line	-4036
yer	-4037
irls	-4038
▁Board	-4039
inals	-4040
ollo	-4041
▁Water	-4042
▁Wal	-4043
▁Coast	-4044
▁Jones	-4045
ki	-4046
▁Both	-4047
▁records	-4048
▁Stat	-4049
dis	-4050
▁Arm	-4051
▁collect	-4052
uge	-4053
▁smaller	-4054
45	-4055
▁3:	-4056
▁Ash	-4057
▁Dar	-4058
▁ran	-4059
▁alleg	-4060
▁rules	-4061
▁silver	-4062
▁nearly	-4063
2),	-4064
▁happ	-4065
acher	-4066
▁territory	-4067
▁heavy	-4068
onia	-4069
encies	-4070
▁1984	-4071
▁1988	-4072
▁Alf	-4073
▁Prince	-4074
▁AD	-4075
▁Assembly	-4076
ias	-4077
▁era	-4078
▁1989	-4079
▁literature	-4080
▁electron	-4081
class	-4082
▁poor	-4083
▁levels	-4084
ella	-4085
▁Ele	-4086
▁divided	-4087
▁psych	-4088
ault	-4089
▁Die	-4090
6),	-4091
▁lic	-4092
▁primarily	-4093
▁Time	-4094
▁foot	-4095
▁Human	-4096
▁hours	-4097
▁Step	-4098
▁Governor	-4099
▁operated	-4100
orship	-4101
▁2005,	-4102
▁conver	-4103
▁Child	-4104
▁actors	-4105
▁legisl	-4106
alle	-4107
▁+	-4108
▁AC	-4109
aily	-4110
▁Hor	-4111
ivity	-4112
▁Mah	-4113
▁gas	-4114
▁whole	-4115
▁overall	-4116
obile	-4117
▁Back	-4118
3),	-4119
fect	-4120
mission	-4121
▁leaving	-4122
▁nuclear	-4123
▁fort	-4124
▁laws	-4125
▁Turkish	-4126
▁middle	-4127
▁consists	-4128
▁adj	-4129
ić	-4130
▁rat	-4131
ns	-4132
▁arrest	-4133
▁Baseball	-4134
▁physical	-4135
▁agric	-4136
▁block	-4137
▁60	-4138
▁Croat	-4139
aya	-4140
▁here	-4141
▁management	-4142
SP	-4143
▁Jac	-4144
▁provides	-4145
▁Common	-4146
▁Band	-4147
▁Georgia	-4148
▁idea	-4149
ads	-4150
▁Of	-4151
▁nine	-4152
hy	-4153
ackson	-4154
agn	-4155
▁god	-4156
▁border	-4157
▁council	-4158
▁Czech	-4159
▁commission	-4160
▁initial	-4161
oud	-4162
acter	-4163
▁soldiers	-4164
▁communities	-4165
▁demon	-4166
▁Bib	-4167
▁resist	-4168
orph	-4169
▁cer	-4170
▁Francisco	-4171
▁von	-4172
acity	-4173
▁brief	-4174
▁paper	-4175
▁failed	-4176
▁address	-4177
▁despite	-4178
▁Team	-4179
AA	-4180
▁Ha	-4181
cean	-4182
▁coaches	-4183
▁Os	-4184
▁plants	-4185
):	-4186
▁defin	-4187
▁regions	-4188
▁subsequently	-4189
urt	-4190
▁Web	-4191
▁Route	-4192
▁programming	-4193
iga	-4194
▁acid	-4195
yan	-4196
ür	-4197
aka	-4198
wan	-4199
▁Way	-4200
▁Carolina	-4201
▁brand	-4202
umed	-4203
▁Naz	-4204
▁Stan	-4205
add	-4206
▁implement	-4207
▁Journal	-4208
5%	-4209
▁weeks	-4210
▁Athlet	-4211
▁billion	-4212
▁Premier	-4213
ga	-4214
▁Little	-4215
▁officer	-4216
▁Library	-4217
▁score	-4218
▁Ari	-4219
▁Dev	-4220
▁card	-4221
▁Andrew	-4222
no	-4223
awa	-4224
adron	-4225
▁kind	-4226
▁chall	-4227
ba	-4228
ilies	-4229
▁display	-4230
▁3.	-4231
vement	-4232
▁Jackson	-4233
▁federal	-4234
▁estimated	-4235
▁ult	-4236
▁enough	-4237
▁Album	-4238
▁Ah	-4239
▁tracks	-4240
Th	-4241
▁autom	-4242
▁highly	-4243
▁Republican	-4244
▁operation	-4245
ean	-4246
iring	-4247
▁Rome	-4248
ora	-4249
cles	-4250
ully	-4251
▁recording	-4252
▁Enter	-4253
▁Apollo	-4254
▁online	-4255
▁Gh	-4256
▁Power	-4257
▁minutes	-4258
▁turned	-4259
▁Aut	-4260
▁Lim	-4261
▁color	-4262
▁medical	-4263
▁presented	-4264
▁Iran	-4265
▁hydro	-4266
▁goals	-4267
illed	-4268
umber	-4269
▁path	-4270
▁Three	-4271
▁treatment	-4272
▁scholars	-4273
▁Charl	-4274
uate	-4275
▁unc	-4276
undred	-4277
▁Engine	-4278
▁Joe	-4279
▁Jeff	-4280
▁Ohio	-4281
▁Night	-4282
▁Also	-4283
▁bring	-4284
▁pil	-4285
▁correspond	-4286
▁figure	-4287
▁Home	-4288
▁weap	-4289
▁label	-4290
500	-4291
▁selected	-4292
oles	-4293
▁Pacific	-4294
▁stay	-4295
iger	-4296
▁basis	-4297
▁Rog	-4298
▁merg	-4299
▁passeng	-4300
▁experience	-4301
24	-4302
▁(194	-4303
▁Development	-4304
▁newspaper	-4305
inated	-4306
akh	-4307
▁prec	-4308
▁Writ	-4309
RA	-4310
SC	-4311
▁2014,	-4312
▁regional	-4313
unc	-4314
▁heav	-4315
▁End	-4316
▁vari	-4317
adelph	-4318
▁finally	-4319
iy	-4320
ishes	-4321
wa	-4322
▁acquired	-4323
onn	-4324
imal	-4325
▁2013,	-4326
–199	-4327
ennis	-4328
eld	-4329
▁becomes	-4330
▁singles	-4331
ja	-4332
riate	-4333
▁coin	-4334
ervation	-4335
▁dra	-4336
▁pit	-4337
▁Ira	-4338
▁br	-4339
▁Cop	-4340
▁editor	-4341
▁love	-4342
▁letter	-4343
35	-4344
▁Show	-4345
▁sister	-4346
▁1981	-4347
▁Jews	-4348
▁(17	-4349
▁1983	-4350
▁starting	-4351
ging	-4352
▁1982	-4353
phy	-4354
▁Tem	-4355
olved	-4356
▁intended	-4357
▁Justice	-4358
▁composed	-4359
illa	-4360
▁deliver	-4361
▁therefore	-4362
▁responsible	-4363
▁micro	-4364
▁adopted	-4365
▁combined	-4366
▁Det	-4367
stitution	-4368
▁bridge	-4369
adelphia	-4370
osh	-4371
▁Program	-4372
formed	-4373
▁Tw	-4374
ellig	-4375
▁drug	-4376
▁analysis	-4377
lav	-4378
▁MP	-4379
isher	-4380
▁ships	-4381
▁Field	-4382
▁protect	-4383
duce	-4384
otic	-4385
▁Van	-4386
▁Modern	-4387
▁heart	-4388
▁controll	-4389
án	-4390
urb	-4391
▁inn	-4392
▁Ba	-4393
▁Ray	-4394
▁job	-4395
▁los	-4396
▁largely	-4397
▁incorpor	-4398
text	-4399
odies	-4400
▁Williams	-4401
CC	-4402
▁repe	-4403
▁Mov	-4404
teen	-4405
▁rare	-4406
▁Jr	-4407
bro	-4408
inger	-4409
arters	-4410
▁going	-4411
▁Syd	-4412
▁Bad	-4413
poration	-4414
▁houses	-4415
thur	-4416
▁succeed	-4417
ulpt	-4418
▁Conference	-4419
ati	-4420
ira	-4421
▁distinct	-4422
▁Uk	-4423
range	-4424
▁potential	-4425
▁Polish	-4426
▁helped	-4427
▁museum	-4428
rier	-4429
▁Prime	-4430
▁flight	-4431
▁Revolution	-4432
king	-4433
mann	-4434
▁Michigan	-4435
▁continue	-4436
▁dance	-4437
▁plans	-4438
▁episodes	-4439
29	-4440
▁strateg	-4441
ulty	-4442
▁Mike	-4443
present	-4444
▁Democratic	-4445
▁quarter	-4446
▁question	-4447
▁1976	-4448
▁format	-4449
▁retired	-4450
▁Victoria	-4451
▁controvers	-4452
▁blue	-4453
opher	-4454
reek	-4455
thing	-4456
▁county	-4457
▁movie	-4458
▁nation	-4459
▁Color	-4460
light	-4461
▁Philadelphia	-4462
▁180	-4463
▁comedy	-4464
▁models	-4465
▁Ken	-4466
▁compl	-4467
▁province	-4468
▁Far	-4469
▁learn	-4470
▁Bol	-4471
▁urban	-4472
▁plays	-4473
▁compil	-4474
▁neighbor	-4475
urches	-4476
▁economy	-4477
▁Str	-4478
ansion	-4479
ko	-4480
▁...	-4481
▁shoot	-4482
▁ability	-4483
▁Der	-4484
chen	-4485
icine	-4486
▁charg	-4487
▁astron	-4488
ef	-4489
chestra	-4490
▁native	-4491
▁compared	-4492
uting	-4493
▁sens	-4494
abeth	-4495
▁Oxford	-4496
▁settlement	-4497
▁electric	-4498
▁share	-4499
▁split	-4500
▁serving	-4501
▁direction	-4502
▁slow	-4503
▁centuries	-4504
▁Office	-4505
▁defined	-4506
gr	-4507
▁Norway	-4508
21	-4509
▁Philipp	-4510
▁activity	-4511
▁constructed	-4512
▁conne	-4513
▁individuals	-4514
▁1930	-4515
▁FI	-4516
▁Hal	-4517
▁our	-4518
▁assistant	-4519
ption	-4520
▁Kir	-4521
▁presence	-4522
iced	-4523
▁Cat	-4524
▁Us	-4525
emy	-4526
▁Chap	-4527
▁replace	-4528
▁association	-4529
etts	-4530
▁Jean	-4531
ederation	-4532
▁Ret	-4533
stone	-4534
which	-4535
agon	-4536
igen	-4537
▁Sand	-4538
▁thous	-4539
▁branch	-4540
▁impact	-4541
▁article	-4542
▁voice	-4543
▁Bah	-4544
▁Manag	-4545
▁Centre	-4546
▁counter	-4547
EC	-4548
▁Ly	-4549
rice	-4550
▁gun	-4551
achus	-4552
▁2015,	-4553
agh	-4554
ners	-4555
–3	-4556
▁studied	-4557
▁older	-4558
▁room	-4559
▁Boy	-4560
▁Sydney	-4561
▁Country	-4562
▁meeting	-4563
▁progress	-4564
LA	-4565
▁Steve	-4566
▁Pen	-4567
▁arms	-4568
▁beat	-4569
▁5,	-4570
▁Ger	-4571
▁yet	-4572
▁Viet	-4573
▁prin	-4574
▁greater	-4575
▁collabor	-4576
▁Anth	-4577
▁2006.	-4578
▁Nations	-4579
▁paint	-4580
oln	-4581
▁1978	-4582
▁industrial	-4583
▁Tam	-4584
oration	-4585
▁senior	-4586
▁covered	-4587
▁tournament	-4588
ube	-4589
▁Ast	-4590
▁bomb	-4591
ibly	-4592
ixed	-4593
▁operating	-4594
▁NFL	-4595
cluding	-4596
onent	-4597
▁Career	-4598
▁Municip	-4599
▁Books	-4600
ening	-4601
ession	-4602
▁carbon	-4603
▁needed	-4604
47	-4605
▁planned	-4606
▁Gen	-4607
▁Work	-4608
ST	-4609
▁Ok	-4610
ador	-4611
▁versions	-4612
ook	-4613
▁Head	-4614
▁Avenue	-4615
▁removed	-4616
▁raised	-4617
▁stadium	-4618
▁properties	-4619
▁dead	-4620
people	-4621
ero	-4622
iated	-4623
▁matches	-4624
▁streng	-4625
▁ec	-4626
edom	-4627
▁Hind	-4628
▁Cambridge	-4629
▁face	-4630
▁2017,	-4631
▁channel	-4632
▁£	-4633
force	-4634
▁Kenn	-4635
▁search	-4636
▁1975	-4637
▁told	-4638
▁animals	-4639
▁Historic	-4640
▁officers	-4641
uls	-4642
enant	-4643
▁sport	-4644
aplog	-4645
▁deep	-4646
▁1987	-4647
▁nearby	-4648
▁notable	-4649
▁Kong	-4650
▁asked	-4651
▁leaders	-4652
▁equipment	-4653
▁ut	-4654
▁target	-4655
▁Ell	-4656
▁Inf	-4657
ented	-4658
▁Wild	-4659
▁capacity	-4660
▁Forest	-4661
▁probably	-4662
een	-4663
perial	-4664
ayer	-4665
aplogroup	-4666
izes	-4667
▁tele	-4668
▁tree	-4669
▁2016,	-4670
▁Anton	-4671
ambig	-4672
▁Beng	-4673
bourne	-4674
illy	-4675
▁comes	-4676
▁medalists	-4677
▁resulting	-4678
onents	-4679
mitted	-4680
uese	-4681
▁adult	-4682
▁cat	-4683
▁Albert	-4684
▁administration	-4685
▁Sym	-4686
ternet	-4687
▁institutions	-4688
icks	-4689
▁sites	-4690
▁instrument	-4691
▁leave	-4692
▁wanted	-4693
track	-4694
▁security	-4695
9),	-4696
state	-4697
▁contact	-4698
▁mountain	-4699
▁respectively	-4700
wick	-4701
rate	-4702
▁Video	-4703
▁Ball	-4704
▁(3	-4705
▁Sever	-4706
▁Argent	-4707
▁officially	-4708
▁fell	-4709
▁Nether	-4710
▁Community	-4711
26	-4712
da	-4713
▁inside	-4714
▁quickly	-4715
yt	-4716
▁Jon	-4717
▁har	-4718
▁graph	-4719
▁Asian	-4720
▁spread	-4721
▁campus	-4722
▁descent	-4723
▁magn	-4724
▁dedicated	-4725
inois	-4726
▁fifth	-4727
▁Station	-4728
▁pattern	-4729
▁Aud	-4730
▁serve	-4731
▁Former	-4732
▁organizations	-4733
mas	-4734
–9	-4735
▁etc	-4736
▁cannot	-4737
unct	-4738
▁Rod	-4739
▁2006/	-4740
ading	-4741
▁facilities	-4742
isms	-4743
▁Mir	-4744
itage	-4745
achusetts	-4746
▁musicians	-4747
▁quant	-4748
▁upper	-4749
▁managed	-4750
vis	-4751
yal	-4752
▁look	-4753
rence	-4754
ocks	-4755
oned	-4756
gor	-4757
▁Att	-4758
▁2018,	-4759
▁chair	-4760
▁cars	-4761
▁1977	-4762
incoln	-4763
▁script	-4764
mad	-4765
get	-4766
▁Jes	-4767
rical	-4768
▁Harv	-4769
▁creation	-4770
▁elections	-4771
▁dark	-4772
▁mentioned	-4773
aded	-4774
▁Luc	-4775
ifying	-4776
▁2004,	-4777
▁Manchester	-4778
▁!	-4779
▁pp	-4780
▁renamed	-4781
▁relatively	-4782
▁resulted	-4783
imb	-4784
▁Lew	-4785
▁got	-4786
▁recon	-4787
▁Illinois	-4788
amin	-4789
▁bra	-4790
inson	-4791
urd	-4792
istry	-4793
▁true	-4794
asty	-4795
▁sac	-4796
▁agreement	-4797
▁issued	-4798
▁distance	-4799
rics	-4800
aging	-4801
▁Highway	-4802
▁quality	-4803
▁pressure	-4804
▁knowledge	-4805
▁Massachusetts	-4806
car	-4807
▁citizens	-4808
▁marriage	-4809
ucky	-4810
▁Queens	-4811
▁Federal	-4812
▁Supreme	-4813
▁families	-4814
▁defeat	-4815
▁Foundation	-4816
▁stories	-4817
enty	-4818
▁hyp	-4819
▁synt	-4820
Ar	-4821
struction	-4822
▁cle	-4823
▁lif	-4824
▁extra	-4825
ropolitan	-4826
▁withd	-4827
rect	-4828
▁Stand	-4829
▁spirit	-4830
phas	-4831
▁Live	-4832
28	-4833
ambiguation	-4834
▁Portuguese	-4835
65	-4836
▁1972	-4837
▁methods	-4838
▁Netherlands	-4839
FC	-4840
▁amb	-4841
▁Balt	-4842
▁Les	-4843
▁uns	-4844
▁cerem	-4845
▁Gallery	-4846
▁parents	-4847
alo	-4848
water	-4849
rog	-4850
',	-4851
▁positive	-4852
Al	-4853
estab	-4854
▁peak	-4855
▁cells	-4856
▁Notable	-4857
▁approach	-4858
osis	-4859
▁aim	-4860
ething	-4861
▁peace	-4862
uts	-4863
▁suggested	-4864
estic	-4865
▁favor	-4866
AC	-4867
ww	-4868
see	-4869
ultan	-4870
▁accepted	-4871
▁identified	-4872
▁Es	-4873
ographic	-4874
▁Personal	-4875
zz	-4876
▁signal	-4877
▁attract	-4878
▁destroyed	-4879
▁functions	-4880
▁Sel	-4881
▁mess	-4882
▁Buddh	-4883
▁contain	-4884
▁classical	-4885
27	-4886
sey	-4887
▁Iraq	-4888
atics	-4889
▁scene	-4890
▁Lincoln	-4891
▁recover	-4892
▁pal	-4893
rance	-4894
▁Bec	-4895
rone	-4896
ighter	-4897
▁alongside	-4898
▁jun	-4899
ghan	-4900
▁hosted	-4901
▁4:	-4902
▁1940	-4903
▁sculpt	-4904
hew	-4905
itzer	-4906
▁tun	-4907
▁Santa	-4908
▁reach	-4909
▁marked	-4910
▁Barb	-4911
▁Micro	-4912
▁immediately	-4913
▁stra	-4914
portun	-4915
▁drama	-4916
-3	-4917
mun	-4918
▁hundred	-4919
iques	-4920
tters	-4921
▁Arthur	-4922
▁chemical	-4923
anth	-4924
▁conducted	-4925
▁actually	-4926
▁featuring	-4927
found	-4928
▁Korea	-4929
▁Bridge	-4930
▁Ottoman	-4931
ione	-4932
▁corn	-4933
▁green	-4934
▁affili	-4935
▁sched	-4936
▁charge	-4937
▁reduced	-4938
▁6,	-4939
pass	-4940
▁think	-4941
disambiguation	-4942
▁Ram	-4943
▁Secretary	-4944
▁Fair	-4945
vin	-4946
fficient	-4947
▁condition	-4948
▁Sab	-4949
▁Media	-4950
▁mixed	-4951
ima	-4952
wegian	-4953
▁spect	-4954
▁follows	-4955
▁Minn	-4956
▁climate	-4957
▁dog	-4958
▁materials	-4959
▁Project	-4960
ooth	-4961
▁appearances	-4962
▁pick	-4963
▁Region	-4964
▁Director	-4965
▁machine	-4966
▁ordered	-4967
▁personnel	-4968
▁subs	-4969
▁disease	-4970
▁Rem	-4971
▁residents	-4972
language	-4973
▁master	-4974
▁35	-4975
▁bott	-4976
nia	-4977
▁4.	-4978
▁susp	-4979
▁independence	-4980
ighth	-4981
▁Publ	-4982
▁fully	-4983
▁liber	-4984
▁weight	-4985
▁prominent	-4986
▁arrived	-4987
hat	-4988
▁Ont	-4989
▁agreed	-4990
▁awards	-4991
▁fast	-4992
▁grew	-4993
cluded	-4994
▁friends	-4995
▁journalist	-4996
▁net	-4997
pret	-4998
▁Chris	-4999
▁illust	-5000
▁contemporary	-5001
ski	-5002
▁memory	-5003
▁minister	-5004
▁scientific	-5005
gu	-5006
▁CO	-5007
▁consum	-5008
▁overs	-5009
ictional	-5010
orning	-5011
▁Nic	-5012
▁Wilson	-5013
▁parties	-5014
▁districts	-5015
oli	-5016
▁Fox	-5017
gal	-5018
▁bronze	-5019
inity	-5020
cription	-5021
pired	-5022
–8	-5023
▁ir	-5024
▁religion	-5025
▁vote	-5026
▁composer	-5027
▁expansion	-5028
▁Atlantic	-5029
aped	-5030
▁allows	-5031
▁athlet	-5032
bu	-5033
hol	-5034
▁Abb	-5035
▁Ven	-5036
▁lies	-5037
▁Indust	-5038
▁ly	-5039
▁Daniel	-5040
uther	-5041
-0	-5042
▁measure	-5043
▁distribution	-5044
▁bal	-5045
ova	-5046
▁Id	-5047
▁500	-5048
▁Independ	-5049
▁Bru	-5050
▁eas	-5051
▁hus	-5052
omers	-5053
▁Eliz	-5054
ID	-5055
▁Hy	-5056
▁Sher	-5057
▁Swedish	-5058
jan	-5059
▁Aff	-5060
▁complet	-5061
▁honor	-5062
▁Colorado	-5063
▁Crit	-5064
eral	-5065
▁react	-5066
ordin	-5067
usion	-5068
▁giving	-5069
▁continues	-5070
▁1974	-5071
▁2021	-5072
▁Tal	-5073
▁earned	-5074
▁towns	-5075
▁Freder	-5076
▁Americans	-5077
sky	-5078
▁Before	-5079
▁Serb	-5080
▁oldest	-5081
uct	-5082
ects	-5083
▁2019,	-5084
▁occurred	-5085
"),	-5086
▁Cas	-5087
▁expanded	-5088
▁hop	-5089
▁ethnic	-5090
▁parish	-5091
▁USA	-5092
▁temperature	-5093
mes	-5094
▁Network	-5095
▁suggest	-5096
eding	-5097
▁Sweden	-5098
▁perman	-5099
▁alternative	-5100
▁mill	-5101
ensity	-5102
▁Poland	-5103
▁Stadium	-5104
▁attacks	-5105
▁inhabit	-5106
▁Norwegian	-5107
▁Hay	-5108
itness	-5109
▁Light	-5110
antry	-5111
▁Short	-5112
▁MD	-5113
▁Because	-5114
onto	-5115
▁connected	-5116
▁vac	-5117
▁Test	-5118
▁Mexican	-5119
wing	-5120
▁Lie	-5121
▁page	-5122
▁allowing	-5123
▁maintain	-5124
ogue	-5125
▁formation	-5126
enz	-5127
▁Corps	-5128
▁letters	-5129
MA	-5130
uty	-5131
alty	-5132
▁seg	-5133
▁joint	-5134
▁constitution	-5135
arc	-5136
oted	-5137
▁pan	-5138
▁compar	-5139
▁element	-5140
▁workers	-5141
▁recently	-5142
▁cam	-5143
▁Each	-5144
▁Track	-5145
ais	-5146
▁Free	-5147
▁Hong	-5148
▁efforts	-5149
▁declared	-5150
▁hospital	-5151
▁Final	-5152
▁emb	-5153
▁claims	-5154
▁Well	-5155
▁attend	-5156
▁serious	-5157
▁Su	-5158
▁stars	-5159
▁governor	-5160
▁surrounding	-5161
ancy	-5162
aven	-5163
▁youth	-5164
nce	-5165
▁saying	-5166
outheast	-5167
▁derived	-5168
▁Moon	-5169
▁rapid	-5170
▁van	-5171
▁walk	-5172
▁pra	-5173
pton	-5174
Northern	-5175
liography	-5176
▁Greece	-5177
▁opportun	-5178
▁Slov	-5179
▁Ontario	-5180
▁applied	-5181
▁80	-5182
▁Tay	-5183
edd	-5184
▁ax	-5185
▁winners	-5186
ker	-5187
ez	-5188
aph	-5189
oured	-5190
▁mom	-5191
▁Alexand	-5192
▁digital	-5193
▁constitu	-5194
▁frequently	-5195
▁attention	-5196
esh	-5197
▁179	-5198
iplom	-5199
▁Space	-5200
▁historian	-5201
▁Dor	-5202
▁2003,	-5203
▁Alber	-5204
▁lives	-5205
▁semi	-5206
▁Corporation	-5207
▁Golden	-5208
▁Works	-5209
▁Dick	-5210
▁Business	-5211
▁secondary	-5212
▁Brad	-5213
▁comment	-5214
▁pict	-5215
▁x	-5216
ears	-5217
▁Chile	-5218
erved	-5219
▁Sem	-5220
▁Form	-5221
▁Baron	-5222
▁maxim	-5223
▁pet	-5224
▁pun	-5225
▁Fame	-5226
▁adapt	-5227
▁slight	-5228
▁executive	-5229
▁aband	-5230
▁figures	-5231
book	-5232
▁syn	-5233
standing	-5234
▁Ministry	-5235
▁projects	-5236
▁Marc	-5237
▁feel	-5238
▁moving	-5239
liest	-5240
▁store	-5241
▁titles	-5242
▁purs	-5243
▁2002/	-5244
▁image	-5245
▁reference	-5246
▁tim	-5247
▁refers	-5248
ilton	-5249
▁7,	-5250
▁Stephen	-5251
ifications	-5252
▁fish	-5253
▁launch	-5254
▁platform	-5255
enh	-5256
life	-5257
▁bor	-5258
▁contrast	-5259
▁pack	-5260
▁Afghan	-5261
▁aspect	-5262
Sc	-5263
▁folk	-5264
▁professor	-5265
▁Cre	-5266
▁Dun	-5267
▁portion	-5268
▁transferred	-5269
▁Stone	-5270
▁simply	-5271
ashion	-5272
▁Apple	-5273
▁promoted	-5274
▁gives	-5275
dam	-5276
▁Duke	-5277
▁Bh	-5278
▁CE	-5279
itled	-5280
▁positions	-5281
▁2020,	-5282
iform	-5283
▁2001,	-5284
▁gained	-5285
works	-5286
▁Tony	-5287
▁risk	-5288
org	-5289
▁motor	-5290
▁fighting	-5291
lers	-5292
ructure	-5293
aria	-5294
▁2002,	-5295
▁matter	-5296
ervative	-5297
▁safety	-5298
▁Like	-5299
▁stone	-5300
ji	-5301
▁Rom	-5302
poses	-5303
▁sense	-5304
▁mis	-5305
▁Holy	-5306
▁authority	-5307
▁enter	-5308
▁UN	-5309
▁Police	-5310
▁Bishop	-5311
▁Ker	-5312
claim	-5313
5),	-5314
ila	-5315
ancing	-5316
▁supply	-5317
▁winner	-5318
▁Run	-5319
▁Sant	-5320
▁Airport	-5321
▁islands	-5322
▁wild	-5323
▁Brian	-5324
▁Indiana	-5325
esota	-5326
ryst	-5327
▁highway	-5328
▁engineer	-5329
ava	-5330
▁sales	-5331
▁arts	-5332
▁1968	-5333
▁husband	-5334
▁Biography	-5335
▁purchased	-5336
▁Prim	-5337
▁basic	-5338
▁newly	-5339
▁Castle	-5340
file	-5341
from	-5342
▁Fle	-5343
▁Labour	-5344
▁captured	-5345
▁Wat	-5346
ieval	-5347
▁Greg	-5348
osa	-5349
▁mut	-5350
▁Today	-5351
▁Elizabeth	-5352
▁completely	-5353
OS	-5354
▁Bowl	-5355
▁encou	-5356
▁engineering	-5357
▁33	-5358
▁formerly	-5359
inus	-5360
eline	-5361
enna	-5362
▁labor	-5363
▁recognized	-5364
▁hy	-5365
quarters	-5366
▁Born	-5367
atures	-5368
▁10,	-5369
▁2022	-5370
▁global	-5371
▁architecture	-5372
67	-5373
▁15,	-5374
▁1964	-5375
▁things	-5376
▁conflict	-5377
▁virt	-5378
▁Administ	-5379
▁Ç	-5380
▁Third	-5381
▁Senate	-5382
▁granted	-5383
aron	-5384
▁suppl	-5385
▁belief	-5386
▁expected	-5387
▁revealed	-5388
▁effective	-5389
▁pair	-5390
▁rang	-5391
▁Austria	-5392
▁vehicles	-5393
▁necessary	-5394
▁influenced	-5395
omot	-5396
▁square	-5397
▁Minnesota	-5398
can	-5399
orter	-5400
▁kept	-5401
▁royal	-5402
ifically	-5403
▁Abd	-5404
▁alt	-5405
▁cart	-5406
olid	-5407
▁decre	-5408
kes	-5409
osen	-5410
▁1973	-5411
▁Winn	-5412
ogen	-5413
▁Lewis	-5414
▁Islamic	-5415
▁solo	-5416
▁Creek	-5417
▁Gro	-5418
yes	-5419
actions	-5420
▁Brother	-5421
▁Conc	-5422
▁unique	-5423
▁roles	-5424
▁Kel	-5425
▁suffered	-5426
▁Basketball	-5427
▁Fire	-5428
▁coming	-5429
asure	-5430
▁Labor	-5431
▁champion	-5432
inth	-5433
▁ranked	-5434
▁critical	-5435
Un	-5436
fort	-5437
▁novels	-5438
worth	-5439
▁apart	-5440
ules	-5441
hesis	-5442
▁begins	-5443
▁prep	-5444
rip	-5445
resh	-5446
▁Dam	-5447
▁Open	-5448
▁vehicle	-5449
▁Raj	-5450
▁says	-5451
IA	-5452
▁Week	-5453
▁Review	-5454
gg	-5455
edia	-5456
eman	-5457
also	-5458
▁Several	-5459
▁inters	-5460
▁Services	-5461
▁rise	-5462
▁Maria	-5463
▁objects	-5464
iary	-5465
▁Cost	-5466
▁Pass	-5467
▁politics	-5468
64	-5469
▁wa	-5470
▁Mun	-5471
▁chap	-5472
▁sets	-5473
arry	-5474
utenant	-5475
▁1969	-5476
▁column	-5477
▁fiction	-5478
▁reject	-5479
▁strugg	-5480
▁purpose	-5481
▁leadership	-5482
yo	-5483
▁8,	-5484
▁Hun	-5485
▁Constitution	-5486
▁Beach	-5487
▁Studies	-5488
grad	-5489
miss	-5490
▁rot	-5491
▁1971	-5492
▁opposition	-5493
rons	-5494
iate	-5495
▁Among	-5496
igrants	-5497
▁forward	-5498
▁suit	-5499
▁attrib	-5500
▁Champions	-5501
▁containing	-5502
vest	-5503
▁unknown	-5504
fe	-5505
ext	-5506
▁Cra	-5507
▁traffic	-5508
▁FA	-5509
▁Han	-5510
▁racing	-5511
▁values	-5512
▁department	-5513
▁Through	-5514
▁Lev	-5515
▁2021,	-5516
▁Guard	-5517
▁mole	-5518
▁Lo	-5519
▁Bon	-5520
▁Ren	-5521
▁street	-5522
▁Technology	-5523
ii	-5524
▁notes	-5525
▁advert	-5526
▁constant	-5527
▁Sources	-5528
▁Master	-5529
▁offers	-5530
▁content	-5531
▁IV	-5532
rupt	-5533
ivals	-5534
igration	-5535
▁earth	-5536
▁simple	-5537
enness	-5538
▁accomp	-5539
▁powers	-5540
onym	-5541
▁12,	-5542
▁background	-5543
orders	-5544
aling	-5545
▁Area	-5546
▁firm	-5547
▁Marsh	-5548
▁bad	-5549
▁burn	-5550
▁Mountain	-5551
▁Age	-5552
▁Dig	-5553
▁tal	-5554
▁Coll	-5555
▁growing	-5556
▁Batt	-5557
▁behavior	-5558
erc	-5559
▁ple	-5560
▁Hart	-5561
▁harm	-5562
▁2000,	-5563
▁Colon	-5564
aints	-5565
▁distingu	-5566
48	-5567
ogy	-5568
▁administrative	-5569
coh	-5570
▁swim	-5571
▁Foreign	-5572
▁inhabitants	-5573
olis	-5574
▁showed	-5575
▁earliest	-5576
▁Lady	-5577
▁AM	-5578
▁flag	-5579
▁stor	-5580
▁Channel	-5581
▁assigned	-5582
▁Kim	-5583
▁conqu	-5584
▁existing	-5585
▁Oak	-5586
▁hands	-5587
--	-5588
omic	-5589
▁Sport	-5590
▁meant	-5591
33	-5592
je	-5593
wise	-5594
▁Junior	-5595
▁2:	-5596
▁Nap	-5597
▁mind	-5598
VD	-5599
▁178	-5600
▁seem	-5601
▁11,	-5602
athan	-5603
▁roll	-5604
▁(),	-5605
▁32	-5606
▁descript	-5607
▁ring	-5608
▁Anc	-5609
▁Down	-5610
ocated	-5611
▁receive	-5612
▁70	-5613
former	-5614
odox	-5615
▁Tok	-5616
▁Melbourne	-5617
▁Bibliography	-5618
▁seats	-5619
▁inspired	-5620
una	-5621
▁Due	-5622
▁spok	-5623
▁tried	-5624
▁Ta	-5625
▁2007.	-5626
▁missing	-5627
umes	-5628
▁Clark	-5629
▁Eth	-5630
▁rain	-5631
▁losing	-5632
▁Represent	-5633
▁extensive	-5634
anes	-5635
umin	-5636
▁Circ	-5637
▁Earl	-5638
ivalent	-5639
▁environmental	-5640
▁cab	-5641
iants	-5642
▁comput	-5643
enge	-5644
▁faith	-5645
▁cricket	-5646
DP	-5647
–7	-5648
yst	-5649
▁anth	-5650
▁consec	-5651
imens	-5652
▁emphas	-5653
▁1999,	-5654
▁churches	-5655
▁parliament	-5656
rator	-5657
▁owner	-5658
▁protection	-5659
bi	-5660
bec	-5661
ailed	-5662
ieties	-5663
▁Batman	-5664
onds	-5665
ocese	-5666
▁principal	-5667
▁municipalities	-5668
lines	-5669
▁twice	-5670
▁exclus	-5671
▁retire	-5672
bell	-5673
pool	-5674
▁sides	-5675
▁exchange	-5676
amber	-5677
▁argued	-5678
▁something	-5679
ulate	-5680
under	-5681
▁taught	-5682
▁Ot	-5683
▁Design	-5684
▁sexual	-5685
▁Toronto	-5686
▁animal	-5687
▁FC	-5688
ographer	-5689
▁Wars	-5690
▁trees	-5691
olished	-5692
▁providing	-5693
▁wall	-5694
▁rob	-5695
▁opposed	-5696
▁regist	-5697
▁ce	-5698
▁Sus	-5699
▁convers	-5700
▁occasion	-5701
▁Pit	-5702
▁2005.	-5703
▁experim	-5704
idae	-5705
▁fans	-5706
▁acting	-5707
aug	-5708
▁situation	-5709
55	-5710
kin	-5711
▁Ban	-5712
▁felt	-5713
▁politicians	-5714
▁fair	-5715
▁Colomb	-5716
Eng	-5717
▁Cape	-5718
▁Regional	-5719
▁Harris	-5720
TS	-5721
▁Max	-5722
▁Kansas	-5723
▁symbol	-5724
▁Ross	-5725
igenous	-5726
▁Arabic	-5727
▁subsequent	-5728
▁doub	-5729
ressed	-5730
▁Holly	-5731
▁winter	-5732
▁attempts	-5733
song	-5734
irmed	-5735
▁concert	-5736
▁Lat	-5737
amples	-5738
▁nob	-5739
▁1965	-5740
▁wins	-5741
▁trains	-5742
aud	-5743
'.	-5744
▁Liter	-5745
▁Forces	-5746
▁formal	-5747
bach	-5748
▁castle	-5749
▁observed	-5750
▁serves	-5751
▁1967	-5752
▁fields	-5753
elligence	-5754
▁resident	-5755
ression	-5756
▁recomm	-5757
oto	-5758
▁Ho	-5759
▁spring	-5760
▁theme	-5761
▁90	-5762
▁Cow	-5763
▁Brig	-5764
▁coal	-5765
▁Between	-5766
68	-5767
▁equal	-5768
wich	-5769
▁drums	-5770
▁Alan	-5771
▁lear	-5772
▁Adam	-5773
aki	-5774
▁Var	-5775
leges	-5776
▁wear	-5777
▁Pu	-5778
▁Taylor	-5779
▁venues	-5780
▁Political	-5781
▁sevent	-5782
▁shared	-5783
ão	-5784
elsh	-5785
aming	-5786
shire	-5787
▁Sunday	-5788
▁fr	-5789
▁Burn	-5790
▁humans	-5791
law	-5792
▁Trust	-5793
▁reaction	-5794
▁poll	-5795
lyn	-5796
▁rural	-5797
▁portray	-5798
▁RA	-5799
▁poly	-5800
▁Entertain	-5801
▁interpret	-5802
ée	-5803
▁ancest	-5804
▁volume	-5805
▁settled	-5806
").	-5807
oes	-5808
▁bul	-5809
▁Walk	-5810
▁authorities	-5811
▁resources	-5812
hr	-5813
ader	-5814
▁elim	-5815
▁fuel	-5816
–198	-5817
aceae	-5818
▁titled	-5819
▁nor	-5820
▁Khan	-5821
▁auth	-5822
▁Korean	-5823
▁oppos	-5824
kh	-5825
▁Thus	-5826
▁Hospital	-5827
▁effic	-5828
illery	-5829
▁Philip	-5830
▁officials	-5831
ipe	-5832
▁Miller	-5833
▁Current	-5834
▁critics	-5835
▁sn	-5836
▁boy	-5837
▁habit	-5838
▁organized	-5839
▁philosophy	-5840
osm	-5841
–20	-5842
phony	-5843
▁Davis	-5844
▁combat	-5845
▁classes	-5846
▁Gre	-5847
▁tend	-5848
thodox	-5849
▁crime	-5850
▁decades	-5851
▁refused	-5852
hips	-5853
▁Armenian	-5854
New	-5855
rage	-5856
▁avoid	-5857
▁lands	-5858
▁restaur	-5859
▁powerful	-5860
zona	-5861
▁DNA	-5862
▁Ron	-5863
▁1919	-5864
▁impl	-5865
▁Front	-5866
▁Ec	-5867
▁Even	-5868
▁iron	-5869
▁Songs	-5870
ymn	-5871
▁Alab	-5872
▁holds	-5873
▁Shah	-5874
▁Alban	-5875
▁177	-5876
▁floor	-5877
▁Pope	-5878
▁vocal	-5879
kee	-5880
▁Vi	-5881
▁hero	-5882
ante	-5883
▁Tai	-5884
▁achieved	-5885
▁examples	-5886
▁glass	-5887
49	-5888
▁enj	-5889
▁rough	-5890
▁damage	-5891
▁diplom	-5892
▁Brook	-5893
▁determined	-5894
▁Lind	-5895
rete	-5896
▁reports	-5897
mers	-5898
▁Six	-5899
▁nort	-5900
▁normal	-5901
▁Emperor	-5902
▁apparent	-5903
▁multi	-5904
rum	-5905
▁Son	-5906
▁founder	-5907
▁teaching	-5908
point	-5909
related	-5910
▁arrang	-5911
▁Windows	-5912
greg	-5913
▁Memorial	-5914
▁spons	-5915
zant	-5916
▁beaut	-5917
▁5.	-5918
▁9,	-5919
▁Domin	-5920
▁Security	-5921
▁internal	-5922
rac	-5923
ithm	-5924
iling	-5925
▁Lt	-5926
▁vess	-5927
anna	-5928
▁bishop	-5929
▁propos	-5930
▁situated	-5931
▁birds	-5932
▁chosen	-5933
▁festival	-5934
▁historic	-5935
ni	-5936
pa	-5937
▁Non	-5938
▁sand	-5939
▁trial	-5940
▁Author	-5941
▁converted	-5942
▁crim	-5943
▁bey	-5944
▁ideas	-5945
▁estate	-5946
▁fellow	-5947
▁Heart	-5948
▁stock	-5949
▁attempted	-5950
▁Alb	-5951
▁yards	-5952
▁cricketer	-5953
43	-5954
▁Plan	-5955
▁succeeded	-5956
▁1945	-5957
▁brain	-5958
▁touch	-5959
▁Vietnam	-5960
▁promotion	-5961
▁ban	-5962
▁Local	-5963
room	-5964
ateur	-5965
▁rein	-5966
▁cancer	-5967
▁Angl	-5968
rec	-5969
▁Win	-5970
western	-5971
▁Alfred	-5972
▁audience	-5973
66	-5974
▁Gil	-5975
▁Kild	-5976
▁2022,	-5977
▁occupied	-5978
SR	-5979
isted	-5980
▁Low	-5981
▁beyond	-5982
iat	-5983
agen	-5984
▁Neb	-5985
▁Ark	-5986
▁Div	-5987
▁Rang	-5988
▁survey	-5989
lan	-5990
uing	-5991
▁Vis	-5992
▁Austrian	-5993
▁Environment	-5994
▁Entertainment	-5995
Sh	-5996
ruit	-5997
▁theore	-5998
▁advance	-5999
▁consequ	-6000
▁existence	-6001
▁SI	-6002
inema	-6003
▁ways	-6004
▁designated	-6005
OR	-6006
▁leaves	-6007
aks	-6008
▁seek	-6009
lov	-6010
▁Internet	-6011
▁advant	-6012
▁depend	-6013
▁actions	-6014
▁13,	-6015
achel	-6016
▁solid	-6017
▁schem	-6018
ennessee	-6019
▁advanced	-6020
including	-6021
ragon	-6022
▁Alabama	-6023
▁resistance	-6024
vo	-6025
▁Orchestra	-6026
rine	-6027
urer	-6028
oster	-6029
▁Nob	-6030
▁Pier	-6031
▁mm	-6032
▁Jos	-6033
▁speech	-6034
▁defense	-6035
▁applications	-6036
▁Sciences	-6037
▁Hard	-6038
▁candidate	-6039
▁Pot	-6040
▁1966	-6041
▁Ford	-6042
lections	-6043
No	-6044
▁listing	-6045
▁documentary	-6046
icit	-6047
▁(190	-6048
▁reflect	-6049
pet	-6050
▁ends	-6051
▁onto	-6052
▁Schools	-6053
▁Hou	-6054
illing	-6055
eller	-6056
▁paid	-6057
▁Sound	-6058
▁Marg	-6059
isf	-6060
cious	-6061
▁Medical	-6062
▁Sultan	-6063
100	-6064
▁Jacob	-6065
▁Tennessee	-6066
▁negative	-6067
haps	-6068
lades	-6069
weight	-6070
active	-6071
▁drive	-6072
▁Kentucky	-6073
▁challeng	-6074
▁regarded	-6075
▁techniques	-6076
▁Ale	-6077
▁Sav	-6078
▁Mand	-6079
▁Arizona	-6080
▁learning	-6081
▁expressed	-6082
▁Queensland	-6083
ito	-6084
▁1962	-6085
▁Welsh	-6086
▁census	-6087
▁occurs	-6088
▁translation	-6089
aret	-6090
▁14,	-6091
▁Nazi	-6092
▁identity	-6093
▁EP	-6094
▁commander	-6095
mat	-6096
orney	-6097
hedral	-6098
▁exact	-6099
▁facility	-6100
outs	-6101
▁2008.	-6102
▁setting	-6103
▁Az	-6104
▁Buff	-6105
▁Stock	-6106
▁races	-6107
▁Christmas	-6108
▁bit	-6109
rations	-6110
▁Building	-6111
iot	-6112
▁Origin	-6113
▁creating	-6114
▁ABC	-6115
▁vary	-6116
▁buried	-6117
▁paralle	-6118
▁combination	-6119
▁web	-6120
▁Eric	-6121
▁reign	-6122
▁unable	-6123
rell	-6124
▁daily	-6125
▁steel	-6126
▁Member	-6127
▁stream	-6128
ographical	-6129
▁contained	-6130
//	-6131
▁bow	-6132
▁locations	-6133
▁teacher	-6134
zy	-6135
▁Federation	-6136
▁application	-6137
gest	-6138
▁mel	-6139
real	-6140
▁Mas	-6141
▁Rugby	-6142
entially	-6143
▁villages	-6144
prise	-6145
▁Chart	-6146
isa	-6147
▁Byzant	-6148
▁weapons	-6149
▁obtained	-6150
▁generation	-6151
▁Ocean	-6152
▁extrem	-6153
▁proceed	-6154
▁Convention	-6155
▁45	-6156
▁Dark	-6157
▁valley	-6158
▁literary	-6159
▁musician	-6160
▁sequence	-6161
▁Leon	-6162
▁Real	-6163
▁tower	-6164
99	-6165
▁38	-6166
▁slightly	-6167
▁kingdom	-6168
equ	-6169
▁1963	-6170
BT	-6171
nership	-6172
▁archae	-6173
▁sought	-6174
▁Captain	-6175
▁Banglades	-6176
stream	-6177
▁Atlanta	-6178
▁lawyer	-6179
▁Confeder	-6180
▁publication	-6181
▁ending	-6182
▁journ	-6183
▁1900	-6184
▁visit	-6185
▁importance	-6186
arus	-6187
▁Simon	-6188
▁younger	-6189
▁Trib	-6190
agues	-6191
▁bodies	-6192
▁Francis	-6193
▁Od	-6194
▁hun	-6195
inder	-6196
▁sector	-6197
▁greatest	-6198
38	-6199
icts	-6200
▁cho	-6201
iller	-6202
▁Bruce	-6203
▁Command	-6204
▁calc	-6205
▁Portugal	-6206
▁Prin	-6207
▁talk	-6208
▁scale	-6209
▁Places	-6210
risis	-6211
▁ultimately	-6212
://	-6213
oen	-6214
ials	-6215
▁ones	-6216
▁Connect	-6217
Is	-6218
▁Ut	-6219
▁Dal	-6220
hetic	-6221
ducing	-6222
▁Hamilton	-6223
▁accident	-6224
▁piano	-6225
▁performances	-6226
bar	-6227
▁Sum	-6228
▁Mach	-6229
▁Turn	-6230
▁hall	-6231
iny	-6232
rees	-6233
▁Dall	-6234
▁visited	-6235
▁Information	-6236
SO	-6237
▁Belg	-6238
inch	-6239
32	-6240
orus	-6241
ques	-6242
▁monarch	-6243
▁reviews	-6244
aved	-6245
▁Children	-6246
▁Professor	-6247
▁Stra	-6248
▁Albums	-6249
▁Brazilian	-6250
▁Cab	-6251
▁Hans	-6252
▁2010.	-6253
▁closely	-6254
▁SA	-6255
▁Log	-6256
▁tons	-6257
anga	-6258
▁Morris	-6259
▁possess	-6260
uration	-6261
▁driver	-6262
▁toward	-6263
▁possibly	-6264
gn	-6265
key	-6266
emic	-6267
organ	-6268
▁library	-6269
▁standards	-6270
▁Berg	-6271
▁fashion	-6272
usal	-6273
▁map	-6274
mouth	-6275
▁alcoh	-6276
▁Frederick	-6277
4%	-6278
▁Rol	-6279
▁cycl	-6280
▁Harry	-6281
▁device	-6282
▁introduction	-6283
▁Fa	-6284
agan	-6285
▁flu	-6286
39	-6287
gow	-6288
▁Mit	-6289
▁vent	-6290
▁Bible	-6291
▁lyrics	-6292
▁moment	-6293
▁Alberta	-6294
▁compris	-6295
pan	-6296
▁DVD	-6297
▁Populated	-6298
▁specifically	-6299
▁write	-6300
▁Indones	-6301
▁neighborhood	-6302
▁Hit	-6303
cies	-6304
▁25,	-6305
▁employed	-6306
set	-6307
angel	-6308
▁dropped	-6309
wealth	-6310
▁shape	-6311
uccess	-6312
▁carry	-6313
▁Jam	-6314
▁phase	-6315
igation	-6316
▁Legisl	-6317
▁footballers	-6318
-5	-6319
▁Record	-6320
▁approved	-6321
–5	-6322
▁Kal	-6323
▁tex	-6324
stead	-6325
▁Aber	-6326
▁judge	-6327
▁believe	-6328
rm	-6329
pson	-6330
▁injury	-6331
▁victim	-6332
▁rear	-6333
▁Comics	-6334
▁begin	-6335
▁rival	-6336
▁wealth	-6337
▁dynasty	-6338
▁heavily	-6339
▁Gram	-6340
▁narrow	-6341
▁Gord	-6342
raction	-6343
▁copies	-6344
▁opp	-6345
▁Ob	-6346
▁cas	-6347
▁wing	-6348
achers	-6349
emeter	-6350
▁limit	-6351
▁reduce	-6352
▁causing	-6353
TC	-6354
ía	-6355
▁1998,	-6356
▁Spring	-6357
▁evolution	-6358
ager	-6359
iled	-6360
▁acts	-6361
▁shop	-6362
▁Method	-6363
▁kil	-6364
▁2009.	-6365
▁Dougl	-6366
▁algor	-6367
emetery	-6368
elve	-6369
▁entirely	-6370
▁Johann	-6371
▁causes	-6372
▁Roberts	-6373
ika	-6374
▁aired	-6375
▁fought	-6376
▁Squadron	-6377
iversary	-6378
▁Croatia	-6379
▁Mic	-6380
▁spot	-6381
▁headquarters	-6382
▁Ian	-6383
ector	-6384
▁Ty	-6385
▁gar	-6386
▁lat	-6387
itic	-6388
gebra	-6389
▁myth	-6390
▁phen	-6391
lı	-6392
ois	-6393
▁AP	-6394
▁Kl	-6395
erto	-6396
▁Fac	-6397
▁adap	-6398
▁broke	-6399
▁negot	-6400
▁bottom	-6401
▁technical	-6402
▁reasons	-6403
Cl	-6404
lem	-6405
▁convent	-6406
▁concluded	-6407
▁significantly	-6408
▁nick	-6409
▁calls	-6410
▁entry	-6411
▁Finland	-6412
▁Provincial	-6413
uled	-6414
▁dang	-6415
▁failure	-6416
▁Finn	-6417
▁Relig	-6418
▁finish	-6419
▁Roger	-6420
▁Athens	-6421
▁notably	-6422
▁strength	-6423
▁worldwide	-6424
agu	-6425
▁Liberal	-6426
78	-6427
CD	-6428
NT	-6429
▁Danish	-6430
▁theatre	-6431
bal	-6432
▁Walter	-6433
▁Orthodox	-6434
▁competed	-6435
eler	-6436
▁Anthony	-6437
▁connection	-6438
||13	-6439
▁Key	-6440
▁Brand	-6441
arp	-6442
▁1997,	-6443
▁enemy	-6444
▁enjoy	-6445
gers	-6446
▁16,	-6447
▁killing	-6448
▁definition	-6449
pha	-6450
rowd	-6451
▁guest	-6452
▁Mult	-6453
▁Affairs	-6454
▁participated	-6455
▁DC	-6456
▁Ts	-6457
▁Palace	-6458
▁airport	-6459
⁄2	-6460
stan	-6461
▁san	-6462
▁proved	-6463
2%	-6464
▁jur	-6465
▁thr	-6466
level	-6467
▁girl	-6468
▁arrested	-6469
mont	-6470
▁McG	-6471
▁Hockey	-6472
▁factors	-6473
▁disestab	-6474
onsin	-6475
▁goes	-6476
▁horse	-6477
cell	-6478
term	-6479
▁aid	-6480
▁Malays	-6481
▁choice	-6482
uses	-6483
▁Ali	-6484
▁Ern	-6485
▁prefer	-6486
restling	-6487
▁confirmed	-6488
sex	-6489
▁Ten	-6490
▁piece	-6491
isconsin	-6492
mosp	-6493
▁Silver	-6494
6%	-6495
▁Tar	-6496
▁Azer	-6497
▁actual	-6498
▁instruments	-6499
fall	-6500
▁sixth	-6501
▁invasion	-6502
▁straight	-6503
We	-6504
appe	-6505
▁Territ	-6506
▁Mountains	-6507
An	-6508
acent	-6509
bai	-6510
iner	-6511
lets	-6512
opes	-6513
ugos	-6514
▁18,	-6515
▁draft	-6516
1%	-6517
burn	-6518
alion	-6519
ishops	-6520
▁Commonwealth	-6521
IC	-6522
▁proced	-6523
▁faculty	-6524
▁domestic	-6525
iah	-6526
arks	-6527
roit	-6528
▁Only	-6529
▁sons	-6530
▁Jesus	-6531
▁Liver	-6532
▁Ancient	-6533
▁scoring	-6534
aver	-6535
ologies	-6536
▁playoff	-6537
▁permanent	-6538
▁equivalent	-6539
69	-6540
PS	-6541
agle	-6542
▁2004.	-6543
;"|	-6544
racy	-6545
▁Gib	-6546
ronic	-6547
▁neighbour	-6548
▁37	-6549
▁Glas	-6550
▁deploy	-6551
▁scholar	-6552
Bl	-6553
orf	-6554
crib	-6555
itionally	-6556
itzerland	-6557
▁conference	-6558
▁revolution	-6559
hing	-6560
onian	-6561
while	-6562
▁Hell	-6563
▁Sche	-6564
▁Diego	-6565
▁comic	-6566
44	-6567
▁Pict	-6568
▁prepar	-6569
▁consisting	-6570
urance	-6571
▁polic	-6572
▁maximum	-6573
▁attacked	-6574
▁developing	-6575
ouns	-6576
▁zone	-6577
▁supporting	-6578
▁Moh	-6579
obe	-6580
unte	-6581
▁Dec	-6582
▁Wolf	-6583
▁income	-6584
▁alleged	-6585
▁captain	-6586
▁Dave	-6587
▁want	-6588
▁minim	-6589
▁needs	-6590
▁articles	-6591
▁temple	-6592
▁institution	-6593
apore	-6594
▁solution	-6595
▁champions	-6596
▁consisted	-6597
▁returning	-6598
▁Management	-6599
▁heat	-6600
▁quite	-6601
▁couple	-6602
▁experien	-6603
▁Wisconsin	-6604
▁Rights	-6605
▁Maryland	-6606
3%	-6607
OM	-6608
▁defensive	-6609
▁swe	-6610
▁Fried	-6611
▁agent	-6612
▁founding	-6613
▁Rab	-6614
▁recognition	-6615
▁Clin	-6616
ridges	-6617
▁Douglas	-6618
osed	-6619
insula	-6620
▁mayor	-6621
▁contributed	-6622
Se	-6623
issance	-6624
▁pieces	-6625
▁twenty	-6626
▁educational	-6627
▁Muham	-6628
▁divers	-6629
▁encourag	-6630
▁Geography	-6631
▁17,	-6632
atriate	-6633
▁defend	-6634
▁graduated	-6635
▁Las	-6636
▁Nick	-6637
▁Disney	-6638
ré	-6639
▁cert	-6640
▁dates	-6641
▁opera	-6642
▁height	-6643
▁passing	-6644
▁agricultural	-6645
EA	-6646
▁wor	-6647
▁bought	-6648
▁easily	-6649
▁Denmark	-6650
▁guitarist	-6651
▁translated	-6652
▁cool	-6653
▁difference	-6654
IT	-6655
oples	-6656
▁orders	-6657
▁Historical	-6658
▁Though	-6659
▁contest	-6660
uda	-6661
▁Om	-6662
▁Phys	-6663
▁tells	-6664
Le	-6665
fully	-6666
raska	-6667
▁Culture	-6668
▁typical	-6669
aga	-6670
ordan	-6671
evin	-6672
▁1959	-6673
▁views	-6674
▁correct	-6675
▁Christianity	-6676
hard	-6677
▁1948	-6678
▁Rand	-6679
▁hired	-6680
▁visual	-6681
▁guns	-6682
stic	-6683
▁Mayor	-6684
▁votes	-6685
▁morning	-6686
▁abandoned	-6687
ctic	-6688
▁1956	-6689
▁absor	-6690
▁guard	-6691
▁Hu	-6692
▁alone	-6693
▁partner	-6694
▁(,	-6695
phal	-6696
▁Sin	-6697
▁1958	-6698
▁maintained	-6699
▁hour	-6700
▁describes	-6701
▁20,	-6702
▁seems	-6703
fits	-6704
–197	-6705
▁sle	-6706
▁Story	-6707
bound	-6708
▁bacter	-6709
▁shortly	-6710
▁150	-6711
▁Now	-6712
▁passes	-6713
udget	-6714
▁miles	-6715
ologists	-6716
▁respond	-6717
▁Metropolitan	-6718
eget	-6719
irty	-6720
▁core	-6721
▁Musical	-6722
▁Protest	-6723
▁storage	-6724
▁Lang	-6725
▁substant	-6726
▁Philos	-6727
▁retirement	-6728
imore	-6729
▁Switzerland	-6730
DA	-6731
▁regarding	-6732
▁Whit	-6733
▁fixed	-6734
style	-6735
▁backing	-6736
▁controlled	-6737
▁lot	-6738
▁devices	-6739
▁violence	-6740
thm	-6741
▁vs	-6742
▁Azerbai	-6743
▁Bron	-6744
▁Bulgar	-6745
▁images	-6746
▁AT	-6747
rome	-6748
▁lie	-6749
▁Bosnia	-6750
▁Luther	-6751
▁ruled	-6752
▁select	-6753
▁Dream	-6754
unction	-6755
icut	-6756
▁Amaz	-6757
▁Food	-6758
▁Years	-6759
▁Belgium	-6760
▁operate	-6761
▁strip	-6762
▁Native	-6763
▁purposes	-6764
cha	-6765
▁Staff	-6766
▁pages	-6767
aux	-6768
▁Ins	-6769
▁Kat	-6770
▁somew	-6771
▁Advent	-6772
▁Symphony	-6773
▁Singapore	-6774
▁walls	-6775
37	-6776
SM	-6777
▁Amb	-6778
▁pron	-6779
▁Honor	-6780
▁holding	-6781
utt	-6782
▁Na	-6783
▁snow	-6784
▁Hungarian	-6785
po	-6786
▁engines	-6787
▁(5	-6788
▁universities	-6789
–4	-6790
▁impr	-6791
▁Muhammad	-6792
oly	-6793
unch	-6794
▁Dur	-6795
▁rom	-6796
asters	-6797
▁Lawrence	-6798
▁popularity	-6799
▁successfully	-6800
jo	-6801
ownt	-6802
▁Tax	-6803
▁Report	-6804
▁Hand	-6805
▁brothers	-6806
iti	-6807
zen	-6808
▁PA	-6809
▁edge	-6810
▁300	-6811
▁housing	-6812
▁involving	-6813
▁provincial	-6814
It	-6815
odia	-6816
icate	-6817
▁instance	-6818
IV	-6819
han	-6820
▁bands	-6821
▁request	-6822
gency	-6823
▁sale	-6824
▁selection	-6825
▁Production	-6826
ouri	-6827
▁task	-6828
▁Call	-6829
▁doct	-6830
ranged	-6831
▁pilot	-6832
▁squad	-6833
▁Dallas	-6834
▁producing	-6835
▁FM	-6836
▁prime	-6837
▁advent	-6838
▁category	-6839
▁chairman	-6840
▁Kevin	-6841
▁incorporated	-6842
iful	-6843
▁Detroit	-6844
▁Broadcast	-6845
come	-6846
▁bear	-6847
▁fleet	-6848
▁entitled	-6849
▁improved	-6850
▁Afghanistan	-6851
-4	-6852
▁Tot	-6853
▁copy	-6854
ourses	-6855
▁Billboard	-6856
veland	-6857
▁heard	-6858
owned	-6859
▁1996,	-6860
▁Bengal	-6861
▁locomot	-6862
▁populations	-6863
rat	-6864
▁Phill	-6865
uscript	-6866
61	-6867
amic	-6868
soft	-6869
ublin	-6870
▁sust	-6871
7%	-6872
vey	-6873
▁cra	-6874
▁franch	-6875
uv	-6876
cow	-6877
vements	-6878
▁entertain	-6879
▁Philippines	-6880
▁Box	-6881
▁Constant	-6882
▁22,	-6883
▁Anne	-6884
▁Boys	-6885
▁Murray	-6886
oa	-6887
hus	-6888
▁output	-6889
▁Kam	-6890
▁Howard	-6891
▁Temple	-6892
▁Operation	-6893
▁Gri	-6894
▁Harvard	-6895
▁vo	-6896
▁21,	-6897
▁Buck	-6898
▁resemb	-6899
▁Glasgow	-6900
III	-6901
▁(4	-6902
▁Gi	-6903
▁user	-6904
▁singers	-6905
▁Register	-6906
▁incident	-6907
▁suggests	-6908
iser	-6909
▁catal	-6910
▁motion	-6911
▁Nebraska	-6912
▁400	-6913
▁feet	-6914
▁armed	-6915
▁focused	-6916
▁(;	-6917
vens	-6918
contin	-6919
stances	-6920
▁colonial	-6921
63	-6922
Con	-6923
▁Bak	-6924
▁painter	-6925
▁competitions	-6926
▁establishment	-6927
don	-6928
adow	-6929
▁2011.	-6930
▁Austin	-6931
▁Knight	-6932
ygen	-6933
▁NBA	-6934
ceived	-6935
PA	-6936
▁Catal	-6937
General	-6938
▁density	-6939
ori	-6940
eland	-6941
clusion	-6942
▁spoken	-6943
ci	-6944
▁BA	-6945
▁Priv	-6946
▁plot	-6947
▁exped	-6948
88	-6949
▁182	-6950
▁Once	-6951
▁frequency	-6952
othing	-6953
▁Camer	-6954
▁trust	-6955
▁experiment	-6956
▁2003.	-6957
▁representing	-6958
▁34	-6959
▁Rick	-6960
▁Muslims	-6961
IN	-6962
inces	-6963
▁Haplogroup	-6964
▁performing	-6965
▁communication	-6966
run	-6967
▁Tun	-6968
▁aer	-6969
▁documents	-6970
enny	-6971
▁24,	-6972
▁Hig	-6973
after	-6974
enses	-6975
▁Ever	-6976
▁neut	-6977
▁shall	-6978
▁Defense	-6979
▁improve	-6980
sea	-6981
▁fer	-6982
▁lake	-6983
▁Square	-6984
▁context	-6985
▁6.	-6986
raine	-6987
▁Kildare	-6988
▁Regiment	-6989
▁Ice	-6990
▁Fund	-6991
▁Allen	-6992
▁Point	-6993
▁;	-6994
▁Sac	-6995
▁goods	-6996
▁Gordon	-6997
▁isol	-6998
▁Carib	-6999
▁Cleveland	-7000
▁Connecticut	-7001
wall	-7002
▁alter	-7003
▁Liverpool	-7004
▁residence	-7005
▁27,	-7006
▁1961	-7007
▁compounds	-7008
MS	-7009
gov	-7010
▁diam	-7011
▁flat	-7012
▁Norman	-7013
▁offices	-7014
▁committee	-7015
▁CR	-7016
elle	-7017
such	-7018
ranean	-7019
▁advantage	-7020
ho	-7021
iami	-7022
▁(189	-7023
▁escape	-7024
▁statement	-7025
har	-7026
▁Bapt	-7027
▁Nich	-7028
▁territories	-7029
DF	-7030
▁Lith	-7031
ailand	-7032
▁1994,	-7033
▁print	-7034
▁texts	-7035
ellect	-7036
▁drink	-7037
▁Baltimore	-7038
▁19,	-7039
▁Kings	-7040
▁Houston	-7041
▁passenger	-7042
▁arc	-7043
▁Da	-7044
azines	-7045
rastructure	-7046
▁Dog	-7047
▁Sri	-7048
▁Every	-7049
▁chain	-7050
▁covers	-7051
ista	-7052
▁Crown	-7053
▁7.	-7054
atur	-7055
phone	-7056
rates	-7057
▁Last	-7058
▁Trad	-7059
leased	-7060
▁Alaska	-7061
▁processes	-7062
olas	-7063
ami	-7064
then	-7065
▁23,	-7066
▁Upon	-7067
▁Prior	-7068
▁Jordan	-7069
di	-7070
idden	-7071
▁your	-7072
▁Magazine	-7073
ache	-7074
▁Bry	-7075
▁Gener	-7076
▁Engineering	-7077
▁*	-7078
▁Set	-7079
olt	-7080
▁49	-7081
season	-7082
▁roads	-7083
utation	-7084
▁Imperial	-7085
▁patients	-7086
cycl	-7087
osaur	-7088
▁users	-7089
▁What	-7090
▁1995,	-7091
▁merged	-7092
▁Who	-7093
▁Jane	-7094
▁legend	-7095
▁newspapers	-7096
▁understanding	-7097
Don	-7098
apes	-7099
bean	-7100
▁liqu	-7101
▁Anglican	-7102
▁1944	-7103
▁recordings	-7104
)"	-7105
▁AR	-7106
▁adjacent	-7107
bane	-7108
iders	-7109
▁descend	-7110
uous	-7111
▁Dom	-7112
▁wound	-7113
▁Garden	-7114
▁receiving	-7115
lah	-7116
▁row	-7117
▁installed	-7118
aine	-7119
▁Agric	-7120
▁reserv	-7121
erts	-7122
ocal	-7123
▁Hills	-7124
▁Swiss	-7125
▁genus	-7126
▁designs	-7127
▁weather	-7128
▁Franklin	-7129
▁relative	-7130
iang	-7131
▁decor	-7132
▁releg	-7133
▁rejected	-7134
yles	-7135
▁dry	-7136
▁Chem	-7137
▁Samuel	-7138
▁courts	-7139
▁adapted	-7140
▁painting	-7141
▁Christians	-7142
▁Let	-7143
etime	-7144
▁Mean	-7145
▁Pitts	-7146
▁differences	-7147
▁Heb	-7148
▁nominated	-7149
62	-7150
rypt	-7151
ropical	-7152
▁poetry	-7153
Re	-7154
▁pup	-7155
▁gall	-7156
▁tank	-7157
▁description	-7158
▁wave	-7159
enberg	-7160
▁atmosp	-7161
▁30,	-7162
▁Anderson	-7163
▁Bulgaria	-7164
▁Russell	-7165
▁repeated	-7166
▁directors	-7167
▁spiritual	-7168
▁Ka	-7169
uties	-7170
▁Rose	-7171
▁2000.	-7172
▁crown	-7173
▁doing	-7174
inburgh	-7175
▁Natural	-7176
▁authors	-7177
▁offering	-7178
▁ceremony	-7179
▁Bangladesh	-7180
hu	-7181
▁Kr	-7182
arat	-7183
▁Nik	-7184
▁ago	-7185
anton	-7186
▁1955	-7187
ective	-7188
▁promote	-7189
lon	-7190
▁Chad	-7191
▁Here	-7192
▁scenes	-7193
lu	-7194
▁SR	-7195
aren	-7196
▁Speed	-7197
▁medicine	-7198
▁Transportation	-7199
–17	-7200
▁Bed	-7201
▁Stew	-7202
▁Tele	-7203
▁hair	-7204
ET	-7205
▁Nord	-7206
▁pros	-7207
▁shut	-7208
▁gain	-7209
▁Miami	-7210
▁rich	-7211
▁medium	-7212
▁reaching	-7213
oyd	-7214
▁vert	-7215
▁Barry	-7216
▁sample	-7217
▁Ra	-7218
▁Ori	-7219
▁1957	-7220
▁circum	-7221
▁Belarus	-7222
▁degrees	-7223
▁medieval	-7224
eless	-7225
▁1947	-7226
▁2012.	-7227
▁milit	-7228
▁price	-7229
▁Patrick	-7230
▁colleges	-7231
▁Hollywood	-7232
▁consecutive	-7233
▁Doc	-7234
inner	-7235
scape	-7236
▁rivers	-7237
▁CP	-7238
▁McK	-7239
▁occas	-7240
31	-7241
▁Trade	-7242
▁Thailand	-7243
Man	-7244
▁Male	-7245
▁revers	-7246
▁×	-7247
▁recip	-7248
▁doctor	-7249
▁managers	-7250
▁Christopher	-7251
unar	-7252
▁waters	-7253
▁yellow	-7254
▁requires	-7255
cons	-7256
dale	-7257
ocracy	-7258
▁160	-7259
uster	-7260
▁mand	-7261
redited	-7262
▁Dublin	-7263
▁181	-7264
▁Girls	-7265
59	-7266
ikh	-7267
▁Fal	-7268
▁briefly	-7269
▁divisions	-7270
▁Il	-7271
▁hypot	-7272
▁stands	-7273
▁landing	-7274
8%	-7275
▁NY	-7276
▁fram	-7277
▁finds	-7278
▁pione	-7279
▁aspects	-7280
▁practices	-7281
zero	-7282
▁Dak	-7283
antly	-7284
▁items	-7285
▁reform	-7286
▁opin	-7287
▁Andre	-7288
ushed	-7289
rix	-7290
▁mobile	-7291
ES	-7292
▁coordin	-7293
rama	-7294
▁tur	-7295
▁rates	-7296
▁assault	-7297
▁flood	-7298
▁throw	-7299
▁parallel	-7300
▁representative	-7301
abet	-7302
izon	-7303
elson	-7304
▁batter	-7305
▁charts	-7306
34	-7307
ión	-7308
▁Inn	-7309
▁Then	-7310
▁accur	-7311
▁Equ	-7312
tery	-7313
antasy	-7314
▁cards	-7315
ugoslav	-7316
▁Edinburgh	-7317
▁sail	-7318
commun	-7319
▁girls	-7320
pective	-7321
''	-7322
idel	-7323
▁Hop	-7324
▁Matthew	-7325
US	-7326
▁Fu	-7327
▁Li	-7328
▁Tig	-7329
▁About	-7330
▁Moscow	-7331
▁factor	-7332
heastern	-7333
▁affected	-7334
▁39	-7335
▁string	-7336
▁funding	-7337
▁install	-7338
▁testing	-7339
iterranean	-7340
iler	-7341
▁Niger	-7342
▁Contin	-7343
▁Energy	-7344
▁statistics	-7345
▁nations	-7346
▁technique	-7347
esc	-7348
pur	-7349
▁Lyn	-7350
▁leads	-7351
resents	-7352
ás	-7353
irt	-7354
▁Bou	-7355
▁Cooper	-7356
▁grounds	-7357
owa	-7358
▁peoples	-7359
▁composition	-7360
lete	-7361
▁Bowie	-7362
▁hotel	-7363
▁coastal	-7364
BM	-7365
cular	-7366
power	-7367
▁shell	-7368
▁capture	-7369
▁animated	-7370
▁offensive	-7371
▁Bris	-7372
▁clean	-7373
▁freedom	-7374
▁cru	-7375
▁1946	-7376
▁rebu	-7377
▁2013.	-7378
▁demand	-7379
▁Buffalo	-7380
▁electronic	-7381
ture	-7382
▁1993,	-7383
▁exerc	-7384
▁inaug	-7385
▁demonstr	-7386
▁Louisiana	-7387
▁ille	-7388
▁laid	-7389
▁mort	-7390
▁tall	-7391
bishop	-7392
ranches	-7393
▁entrance	-7394
▁Byzantine	-7395
▁1943	-7396
▁weak	-7397
De	-7398
▁Tokyo	-7399
▁Quebec	-7400
▁Persian	-7401
▁experienced	-7402
emen	-7403
▁Ext	-7404
▁priest	-7405
▁corpor	-7406
▁battles	-7407
▁modified	-7408
▁suff	-7409
isd	-7410
rav	-7411
▁ans	-7412
▁trav	-7413
▁decade	-7414
lock	-7415
▁Pir	-7416
onder	-7417
▁Gard	-7418
▁crop	-7419
▁Upper	-7420
▁extension	-7421
uma	-7422
▁sort	-7423
▁roughly	-7424
▁retained	-7425
die	-7426
▁Exec	-7427
▁veget	-7428
ensions	-7429
▁planning	-7430
▁thousands	-7431
▁36	-7432
▁Nar	-7433
▁nickn	-7434
▁perhaps	-7435
:00	-7436
▁roof	-7437
▁Brothers	-7438
▁household	-7439
cht	-7440
West	-7441
▁stret	-7442
▁worship	-7443
▁movements	-7444
▁components	-7445
riot	-7446
▁Saf	-7447
ensed	-7448
▁Ryan	-7449
usalem	-7450
▁influential	-7451
▁Organization	-7452
▁(188	-7453
▁Express	-7454
▁scientists	-7455
▁transition	-7456
58	-7457
yard	-7458
icide	-7459
▁Ruth	-7460
▁crowd	-7461
▁heads	-7462
ictions	-7463
rik	-7464
▁tail	-7465
▁persons	-7466
seud	-7467
ello	-7468
▁mist	-7469
▁Municipal	-7470
▁determine	-7471
▁expression	-7472
olar	-7473
pers	-7474
▁cycle	-7475
▁1954	-7476
▁ment	-7477
▁edited	-7478
▁trying	-7479
54	-7480
▁bill	-7481
▁2001.	-7482
▁Eston	-7483
▁Heritage	-7484
▁26,	-7485
▁Egyptian	-7486
▁Row	-7487
▁Farm	-7488
▁2002.	-7489
▁approp	-7490
▁programme	-7491
▁Professional	-7492
ti	-7493
rane	-7494
▁sole	-7495
▁fresh	-7496
▁describe	-7497
▁otherwise	-7498
▁represents	-7499
▁Dol	-7500
▁htt	-7501
ouses	-7502
inding	-7503
▁Never	-7504
▁Donald	-7505
Sp	-7506
▁frag	-7507
▁nucle	-7508
▁Marine	-7509
▁alcohol	-7510
songwriter	-7511
▁foundation	-7512
ders	-7513
iral	-7514
▁vice	-7515
▁Scient	-7516
▁consult	-7517
▁Mediterranean	-7518
ters	-7519
▁Hur	-7520
▁resc	-7521
▁(2000	-7522
▁Hungary	-7523
▁criminal	-7524
▁compilation	-7525
awn	-7526
rin	-7527
site	-7528
▁classic	-7529
▁Lam	-7530
▁Your	-7531
▁costs	-7532
▁accompan	-7533
▁exception	-7534
▁extremely	-7535
died	-7536
idge	-7537
iley	-7538
▁Gran	-7539
▁medals	-7540
atically	-7541
▁Anglo	-7542
▁parks	-7543
▁algebra	-7544
-8	-7545
iable	-7546
▁jazz	-7547
ando	-7548
star	-7549
▁cooper	-7550
▁Pittsburgh	-7551
▁agriculture	-7552
▁Sky	-7553
▁Yugoslav	-7554
▁Buildings	-7555
▁increasingly	-7556
oria	-7557
▁Kaz	-7558
▁Cuba	-7559
▁Comple	-7560
▁nothing	-7561
▁whereas	-7562
▁Missouri	-7563
▁committed	-7564
des	-7565
▁fine	-7566
▁candidates	-7567
top	-7568
▁dim	-7569
▁assess	-7570
▁tennis	-7571
▁passengers	-7572
▁1⁄2	-7573
▁Doctor	-7574
▁demonst	-7575
▁showing	-7576
bat	-7577
▁Mission	-7578
▁compete	-7579
▁Caribbean	-7580
▁sufficient	-7581
iva	-7582
▁Dod	-7583
going	-7584
▁2023	-7585
▁subsid	-7586
ugar	-7587
▁sell	-7588
borough	-7589
▁opportunity	-7590
Pro	-7591
udi	-7592
▁28,	-7593
▁Beg	-7594
rystal	-7595
▁Antonio	-7596
▁accused	-7597
▁Lov	-7598
grade	-7599
ourse	-7600
▁feed	-7601
▁hill	-7602
▁proport	-7603
▁convention	-7604
▁1:	-7605
▁BCE	-7606
▁sun	-7607
▁Pear	-7608
▁finishing	-7609
iph	-7610
▁phr	-7611
▁pul	-7612
▁Anim	-7613
▁Laure	-7614
▁voted	-7615
▁Romanian	-7616
HL	-7617
night	-7618
▁stable	-7619
▁Colombia	-7620
▁2)	-7621
▁preced	-7622
▁coverage	-7623
▁educated	-7624
▁separated	-7625
abled	-7626
▁details	-7627
▁depending	-7628
lad	-7629
▁ski	-7630
ommod	-7631
▁Fact	-7632
ogether	-7633
▁crossing	-7634
▁CBS	-7635
▁1952	-7636
▁pitch	-7637
▁Computer	-7638
OC	-7639
oker	-7640
verse	-7641
bridge	-7642
▁invent	-7643
acc	-7644
▁fal	-7645
▁Motor	-7646
▁monaster	-7647
▁Gab	-7648
▁die	-7649
▁try	-7650
itals	-7651
▁Gulf	-7652
▁link	-7653
▁renew	-7654
▁employees	-7655
aman	-7656
▁Ped	-7657
▁Vik	-7658
lahoma	-7659
aro	-7660
▁Ky	-7661
▁Alt	-7662
▁Again	-7663
inations	-7664
zo	-7665
▁imag	-7666
▁Puerto	-7667
▁Brisbane	-7668
▁Microsoft	-7669
▁partnership	-7670
▁Plot	-7671
▁indicate	-7672
▁DJ	-7673
▁corner	-7674
▁soccer	-7675
▁Administration	-7676
▁Global	-7677
▁Bernard	-7678
▁credited	-7679
▁manuscript	-7680
olo	-7681
aked	-7682
▁tor	-7683
▁Friend	-7684
▁calling	-7685
▁protein	-7686
mb	-7687
5,000	-7688
▁1939	-7689
▁1953	-7690
▁Dead	-7691
▁Sign	-7692
long	-7693
▁cited	-7694
box	-7695
▁Bav	-7696
▁Ltd	-7697
▁ped	-7698
▁Moore	-7699
▁wides	-7700
▁premier	-7701
▁Additionally	-7702
abil	-7703
feld	-7704
▁Beat	-7705
▁wine	-7706
inction	-7707
eed	-7708
vant	-7709
▁hits	-7710
▁Senior	-7711
▁concerns	-7712
▁purchase	-7713
▁standing	-7714
▁businessman	-7715
-7	-7716
obi	-7717
▁ib	-7718
▁Vin	-7719
▁Athletics	-7720
▁investigation	-7721
aza	-7722
chell	-7723
▁José	-7724
▁1992,	-7725
▁Architect	-7726
▁successor	-7727
struct	-7728
aste	-7729
▁Treaty	-7730
9%	-7731
▁gene	-7732
called	-7733
▁tribes	-7734
▁Princess	-7735
▁operates	-7736
EE	-7737
▁Ay	-7738
▁Wol	-7739
▁lect	-7740
▁Place	-7741
atab	-7742
pine	-7743
▁Mes	-7744
▁Late	-7745
boards	-7746
▁engaged	-7747
▁Jerusalem	-7748
poss	-7749
▁fly	-7750
▁1949	-7751
▁Gene	-7752
pread	-7753
▁garden	-7754
eo	-7755
▁Girl	-7756
▁Billy	-7757
▁dating	-7758
▁twelve	-7759
▁assembly	-7760
vi	-7761
▁Karl	-7762
▁Grant	-7763
owntown	-7764
▁prohib	-7765
IS	-7766
olia	-7767
Wales	-7768
▁Peace	-7769
▁Support	-7770
▁assumed	-7771
▁Cultural	-7772
ahn	-7773
▁restrict	-7774
▁paintings	-7775
▁CA	-7776
▁PC	-7777
▁1941	-7778
▁1942	-7779
ellite	-7780
▁Vienna	-7781
dd	-7782
non	-7783
▁Tit	-7784
▁Benj	-7785
▁Lanc	-7786
mod	-7787
▁Thor	-7788
▁cold	-7789
▁owners	-7790
▁criticism	-7791
600	-7792
asts	-7793
▁Sax	-7794
keley	-7795
▁2014.	-7796
▁opposite	-7797
▁collected	-7798
otes	-7799
▁Cru	-7800
▁Burg	-7801
▁Juan	-7802
▁mouth	-7803
▁Standard	-7804
▁classified	-7805
▁64	-7806
▁Gun	-7807
▁why	-7808
cules	-7809
isters	-7810
▁1991,	-7811
▁Language	-7812
▁48	-7813
▁Cay	-7814
▁Rest	-7815
▁Deput	-7816
▁obtain	-7817
▁ign	-7818
▁Player	-7819
▁appoint	-7820
▁charged	-7821
▁existed	-7822
▁resigned	-7823
▁artillery	-7824
▁É	-7825
know	-7826
▁Arsen	-7827
▁Dance	-7828
▁Naval	-7829
▁innov	-7830
▁Germans	-7831
▁Lithuan	-7832
▁Stewart	-7833
▁railroad	-7834
SW	-7835
oba	-7836
▁soil	-7837
▁Season	-7838
▁budget	-7839
▁reality	-7840
▁stating	-7841
▁commissioned	-7842
▁upd	-7843
▁delay	-7844
▁strike	-7845
▁Studios	-7846
▁interior	-7847
▁Kelly	-7848
▁turns	-7849
▁Oklahoma	-7850
▁actresses	-7851
▁transmission	-7852
▁alk	-7853
chang	-7854
▁Iron	-7855
▁jump	-7856
▁warm	-7857
▁Wright	-7858
▁broken	-7859
▁commit	-7860
▁forests	-7861
pen	-7862
▁Crick	-7863
57	-7864
TO	-7865
▁Dyn	-7866
▁Lank	-7867
▁plate	-7868
▁repro	-7869
▁Control	-7870
▁seconds	-7871
adi	-7872
bel	-7873
ocol	-7874
▁aware	-7875
▁Similar	-7876
▁starring	-7877
▁synd	-7878
▁Pruss	-7879
▁Economic	-7880
▁Gor	-7881
▁NBC	-7882
▁Fall	-7883
▁emot	-7884
▁faced	-7885
▁biggest	-7886
▁Argentina	-7887
▁Unt	-7888
▁boat	-7889
▁naval	-7890
▁sympt	-7891
▁adding	-7892
▁factory	-7893
▁Gary	-7894
▁fest	-7895
▁unus	-7896
▁colour	-7897
▁discip	-7898
▁imprison	-7899
▁delivered	-7900
▁UE	-7901
▁fan	-7902
▁affect	-7903
▁capable	-7904
▁northeast	-7905
▁Pa	-7906
hill	-7907
▁Hindu	-7908
▁oxygen	-7909
▁references	-7910
▁check	-7911
▁Palest	-7912
▁Trophy	-7913
▁useful	-7914
▁universe	-7915
53	-7916
lig	-7917
span	-7918
▁kid	-7919
▁bond	-7920
▁mart	-7921
atical	-7922
▁measures	-7923
iency	-7924
▁Vers	-7925
▁seventh	-7926
▁northwest	-7927
He	-7928
ME	-7929
▁vow	-7930
▁renov	-7931
claimed	-7932
▁phenomen	-7933
2).	-7934
net	-7935
cribed	-7936
father	-7937
▁worth	-7938
rapy	-7939
▁drawn	-7940
▁homes	-7941
▁lingu	-7942
mo	-7943
▁Bush	-7944
▁Flight	-7945
▁stores	-7946
▁Wallace	-7947
▁profile	-7948
▁accounts	-7949
▁regularly	-7950
▁LG	-7951
▁Arn	-7952
▁Celt	-7953
estyle	-7954
▁linked	-7955
▁external	-7956
▁relation	-7957
▁somewhat	-7958
▁Lieutenant	-7959
▁Commander	-7960
▁ownership	-7961
▁advoc	-7962
▁sections	-7963
▁distributed	-7964
▁1999.	-7965
▁2016.	-7966
300	-7967
▁Ze	-7968
▁Pra	-7969
▁antib	-7970
▁survived	-7971
öy	-7972
boys	-7973
▁Pap	-7974
▁Whe	-7975
▁funds	-7976
▁Father	-7977
▁theories	-7978
▁producers	-7979
▁Independent	-7980
▁Bulg	-7981
▁policies	-7982
▁legislation	-7983
▁Communications	-7984
SU	-7985
eta	-7986
avel	-7987
▁plus	-7988
elaide	-7989
▁concrete	-7990
▁withdraw	-7991
▁),	-7992
icon	-7993
oked	-7994
▁Tel	-7995
▁Brew	-7996
ivated	-7997
▁1990,	-7998
▁hosts	-7999
▁favour	-8000
▁Writers	-8001
town	-8002
▁cable	-8003
sterdam	-8004
▁assass	-8005
▁really	-8006
▁widespread	-8007
▁Wy	-8008
▁mountains	-8009
▁Hug	-8010
▁Roc	-8011
▁pure	-8012
mingham	-8013
▁accommod	-8014
▁thousand	-8015
▁intelligence	-8016
▁concentration	-8017
-200	-8018
▁Nag	-8019
annels	-8020
▁banks	-8021
▁visitors	-8022
▁sed	-8023
▁Background	-8024
▁anniversary	-8025
▁doll	-8026
MP	-8027
illes	-8028
▁Mess	-8029
▁Buddhist	-8030
ör	-8031
▁Tan	-8032
▁inner	-8033
▁teach	-8034
uran	-8035
▁eye	-8036
▁Youth	-8037
▁Publishing	-8038
but	-8039
▁Anal	-8040
▁Graham	-8041
▁courses	-8042
▁restored	-8043
▁requirements	-8044
gie	-8045
ounce	-8046
▁boys	-8047
▁watch	-8048
▁Adrian	-8049
▁Taiwan	-8050
▁crisis	-8051
▁exists	-8052
▁routes	-8053
▁principle	-8054
▁Fem	-8055
▁skating	-8056
ompl	-8057
41	-8058
ayan	-8059
▁aged	-8060
apolis	-8061
▁Volume	-8062
FM	-8063
onso	-8064
ellows	-8065
▁anthrop	-8066
▁nom	-8067
▁Five	-8068
placement	-8069
▁Arist	-8070
theless	-8071
▁Alliance	-8072
▁controversy	-8073
▁comed	-8074
▁satisf	-8075
▁Benjamin	-8076
leton	-8077
▁Maur	-8078
▁2023,	-8079
tenance	-8080
▁Hitler	-8081
▁Aqu	-8082
▁nit	-8083
aneous	-8084
▁Wayne	-8085
▁Goth	-8086
▁kick	-8087
▁Singles	-8088
▁intellect	-8089
▁Azerbaijan	-8090
where	-8091
▁Yank	-8092
aughters	-8093
▁Armenia	-8094
aby	-8095
▁ML	-8096
▁fear	-8097
▁poem	-8098
▁protected	-8099
▁replacing	-8100
-20	-8101
▁MA	-8102
▁Ess	-8103
▁franchise	-8104
sch	-8105
utor	-8106
▁none	-8107
▁valid	-8108
▁branches	-8109
Ph	-8110
apping	-8111
▁Round	-8112
▁displ	-8113
▁lists	-8114
▁Politics	-8115
▁coaching	-8116
▁occupation	-8117
▁Gw	-8118
abul	-8119
▁Obl	-8120
enburg	-8121
▁achieve	-8122
boy	-8123
▁Kon	-8124
raham	-8125
▁Bart	-8126
▁plane	-8127
▁picture	-8128
▁witness	-8129
akia	-8130
▁Nort	-8131
▁Seven	-8132
▁Prote	-8133
▁inher	-8134
▁Adelaide	-8135
▁Broadway	-8136
who	-8137
fare	-8138
▁junior	-8139
▁Margaret	-8140
▁Phoen	-8141
▁brown	-8142
▁fired	-8143
▁markets	-8144
▁Arkansas	-8145
▁criticized	-8146
ults	-8147
▁Lib	-8148
etary	-8149
▁invited	-8150
▁interests	-8151
▁occasionally	-8152
ouver	-8153
regon	-8154
▁surg	-8155
ussion	-8156
▁spaces	-8157
▁looking	-8158
▁computers	-8159
uis	-8160
▁Rhe	-8161
▁Anat	-8162
▁loan	-8163
▁Unlike	-8164
▁emerged	-8165
▁shooting	-8166
avalry	-8167
▁chlor	-8168
▁Municipality	-8169
▁considerable	-8170
▁Representatives	-8171
Ind	-8172
▁veter	-8173
▁decline	-8174
▁periods	-8175
▁responsibility	-8176
▁Ko	-8177
▁Andy	-8178
▁Ward	-8179
▁clin	-8180
▁Buddha	-8181
ML	-8182
ui	-8183
ın	-8184
▁29,	-8185
▁marg	-8186
▁learned	-8187
▁indigenous	-8188
yg	-8189
▁Jay	-8190
▁Assy	-8191
▁initi	-8192
▁stood	-8193
▁Ukrain	-8194
▁manner	-8195
▁segment	-8196
▁normally	-8197
▁encounter	-8198
otte	-8199
andom	-8200
▁Appl	-8201
▁Jazz	-8202
▁Chair	-8203
▁Jimmy	-8204
▁rooms	-8205
▁attached	-8206
▁supposed	-8207
▁Cart	-8208
▁2015.	-8209
▁input	-8210
▁merch	-8211
▁prisoners	-8212
asi	-8213
arsh	-8214
rong	-8215
▁Ara	-8216
▁Syn	-8217
▁tact	-8218
▁vast	-8219
fish	-8220
▁Fern	-8221
▁Horn	-8222
▁giant	-8223
▁induct	-8224
▁expos	-8225
▁streets	-8226
▁profession	-8227
ohn	-8228
▁Aj	-8229
ović	-8230
▁Lud	-8231
▁Hotel	-8232
";	-8233
▁Obs	-8234
▁ham	-8235
▁Prom	-8236
ussels	-8237
▁Online	-8238
▁justice	-8239
▁soldier	-8240
▁Berkeley	-8241
▁membership	-8242
▁Dakota	-8243
▁Rivers	-8244
▁severe	-8245
▁Primary	-8246
▁particles	-8247
▁residential	-8248
▁eval	-8249
▁extent	-8250
▁geomet	-8251
▁mining	-8252
▁Digital	-8253
▁dismiss	-8254
▁herself	-8255
▁prepared	-8256
▁Bulgarian	-8257
harm	-8258
olly	-8259
udes	-8260
▁Compet	-8261
▁designer	-8262
▁hydrogen	-8263
do	-8264
▁170	-8265
▁ESP	-8266
▁Chel	-8267
▁UEFA	-8268
▁depos	-8269
amental	-8270
▁skills	-8271
▁carrying	-8272
▁Protestant	-8273
▁photograph	-8274
▁5:	-8275
uble	-8276
ishment	-8277
▁starts	-8278
▁electoral	-8279
▁fictional	-8280
▁attributed	-8281
36	-8282
▁Merc	-8283
CAA	-8284
uclear	-8285
▁networks	-8286
▁historians	-8287
▁egg	-8288
▁surre	-8289
▁Amsterdam	-8290
▁scheduled	-8291
▁Ach	-8292
▁file	-8293
▁Guide	-8294
▁ratio	-8295
▁simpl	-8296
▁custom	-8297
▁Belgian	-8298
▁formally	-8299
▁Ga	-8300
▁Theod	-8301
▁message	-8302
▁representation	-8303
42	-8304
stad	-8305
▁().	-8306
▁Ald	-8307
cyclop	-8308
▁speak	-8309
emor	-8310
▁Chall	-8311
ippi	-8312
inian	-8313
▁Full	-8314
▁Side	-8315
▁Walker	-8316
▁Players	-8317
▁genetic	-8318
▁singing	-8319
lease	-8320
▁Costa	-8321
▁Tamil	-8322
▁grade	-8323
▁Archae	-8324
▁accompanied	-8325
▁Blood	-8326
▁forming	-8327
▁greatly	-8328
▁door	-8329
▁util	-8330
▁Urban	-8331
▁males	-8332
▁Israeli	-8333
iki	-8334
▁accompl	-8335
–6	-8336
oca	-8337
▁chose	-8338
▁Hebrew	-8339
▁Market	-8340
▁debate	-8341
▁stress	-8342
▁Cemetery	-8343
lar	-8344
othy	-8345
sect	-8346
▁enh	-8347
▁Ship	-8348
▁shel	-8349
52	-8350
▁ha	-8351
▁Ent	-8352
ivation	-8353
▁stopped	-8354
abilities	-8355
▁Croatian	-8356
▁(7	-8357
▁Defence	-8358
▁emperor	-8359
▁uniform	-8360
dr	-8361
▁10.	-8362
▁yield	-8363
istical	-8364
▁charges	-8365
forcement	-8366
▁Birmingham	-8367
▁celebrated	-8368
▁ere	-8369
▁diagn	-8370
▁Oregon	-8371
▁partly	-8372
gressive	-8373
▁questions	-8374
▁Vo	-8375
hatt	-8376
▁Gon	-8377
▁flo	-8378
▁Vice	-8379
▁usage	-8380
▁businesses	-8381
▁replacement	-8382
▁characteristics	-8383
rors	-8384
alism	-8385
rolled	-8386
▁weekly	-8387
▁arranged	-8388
▁squadron	-8389
▁processing	-8390
?"	-8391
▁dies	-8392
▁Associ	-8393
▁assemb	-8394
▁domain	-8395
▁duties	-8396
▁inform	-8397
▁fishing	-8398
▁da	-8399
ester	-8400
▁(9	-8401
▁Abu	-8402
count	-8403
▁eyes	-8404
▁Alger	-8405
▁dress	-8406
ductions	-8407
NC	-8408
▁Salv	-8409
▁colony	-8410
▁arrival	-8411
▁Legislative	-8412
▁effectively	-8413
chi	-8414
▁Som	-8415
agles	-8416
▁Amendment	-8417
dist	-8418
ifer	-8419
▁buy	-8420
▁Soft	-8421
▁exhibition	-8422
▁participate	-8423
▁hal	-8424
atern	-8425
▁ensure	-8426
▁Medicine	-8427
▁presidential	-8428
dess	-8429
hered	-8430
▁Nelson	-8431
▁Mississ	-8432
-18	-8433
enger	-8434
▁pool	-8435
ancouver	-8436
▁Romania	-8437
▁drivers	-8438
▁Iv	-8439
▁Arc	-8440
▁Net	-8441
▁mode	-8442
rehens	-8443
▁ahead	-8444
▁signs	-8445
▁Collection	-8446
▁Ku	-8447
▁af	-8448
onom	-8449
▁Sud	-8450
▁note	-8451
coming	-8452
▁tribe	-8453
▁secretary	-8454
▁Originally	-8455
▁continuous	-8456
▁Conservative	-8457
door	-8458
▁Ages	-8459
▁conj	-8460
▁Satur	-8461
▁returns	-8462
▁rhy	-8463
▁1938	-8464
achelor	-8465
▁appeal	-8466
▁changing	-8467
▁subjects	-8468
IP	-8469
▁Antar	-8470
▁Johnny	-8471
▁metres	-8472
▁penalty	-8473
▁starred	-8474
▁declined	-8475
▁strongly	-8476
mir	-8477
iscop	-8478
▁perfect	-8479
apse	-8480
▁Spirit	-8481
▁behavi	-8482
▁Princip	-8483
▁disappe	-8484
▁adaptation	-8485
haus	-8486
▁Hend	-8487
▁anch	-8488
▁liquid	-8489
▁Ukraine	-8490
▁massive	-8491
▁Athletic	-8492
HS	-8493
uin	-8494
▁alph	-8495
friend	-8496
▁Agency	-8497
▁Reception	-8498
▁southeast	-8499
▁infrastructure	-8500
▁{	-8501
▁Griff	-8502
▁therm	-8503
▁Authority	-8504
▁Medalists	-8505
▁traditionally	-8506
▁mir	-8507
▁rif	-8508
▁fled	-8509
▁Communist	-8510
▁categories	-8511
▁investment	-8512
▁(8	-8513
▁8.	-8514
iece	-8515
▁Kit	-8516
▁Pur	-8517
ategory	-8518
▁Hum	-8519
▁Bull	-8520
▁Jama	-8521
▁Mans	-8522
▁Rena	-8523
▁Saturday	-8524
▁executed	-8525
lic	-8526
▁Athen	-8527
▁pitcher	-8528
▁mathematics	-8529
away	-8530
prus	-8531
▁LGBT	-8532
▁jurisd	-8533
▁mental	-8534
▁recept	-8535
▁journey	-8536
▁identify	-8537
▁interpre	-8538
din	-8539
lik	-8540
▁1918	-8541
atters	-8542
▁resign	-8543
–194	-8544
▁Pun	-8545
▁Rain	-8546
▁zero	-8547
▁Cricket	-8548
▁dialect	-8549
▁settlements	-8550
▁contributions	-8551
asm	-8552
lie	-8553
ucks	-8554
▁120	-8555
▁Emer	-8556
oustic	-8557
▁formula	-8558
▁advertising	-8559
-9	-8560
iac	-8561
wig	-8562
urers	-8563
▁skin	-8564
▁Hawai	-8565
▁Tower	-8566
▁stages	-8567
▁trained	-8568
▁ster	-8569
writers	-8570
▁session	-8571
OL	-8572
argo	-8573
erted	-8574
▁Fitz	-8575
▁orbit	-8576
▁export	-8577
▁colonies	-8578
▁1989,	-8579
ophical	-8580
▁expect	-8581
▁explained	-8582
▁expedition	-8583
▁Gö	-8584
ardo	-8585
▁Ton	-8586
▁getting	-8587
▁composers	-8588
▁surviving	-8589
és	-8590
eenth	-8591
▁Mort	-8592
▁Snow	-8593
stance	-8594
▁Maced	-8595
▁missions	-8596
▁symptoms	-8597
▁teachers	-8598
▁Confederate	-8599
▁publications	-8600
▁shif	-8601
ruption	-8602
▁Arsenal	-8603
▁Mitchell	-8604
▁provinces	-8605
▁assistance	-8606
▁ori	-8607
▁Iowa	-8608
▁terror	-8609
ructions	-8610
▁mathematic	-8611
▁Broadcasting	-8612
▁Bey	-8613
▁Hem	-8614
▁ibn	-8615
▁1923	-8616
▁reun	-8617
▁Movement	-8618
MI	-8619
▁nav	-8620
▁Diam	-8621
▁pric	-8622
Ne	-8623
6).	-8624
▁Cyprus	-8625
▁styles	-8626
▁Borough	-8627
▁Village	-8628
▁Fig	-8629
▁Larry	-8630
▁disorder	-8631
▁strategy	-8632
▁Indonesia	-8633
▁Victorian	-8634
▁gradually	-8635
ün	-8636
roke	-8637
xual	-8638
amine	-8639
▁damaged	-8640
▁predomin	-8641
▁Elementary	-8642
▁Tak	-8643
▁Mind	-8644
▁Lions	-8645
▁circuit	-8646
▁Electric	-8647
enez	-8648
▁flying	-8649
▁Clinton	-8650
▁activist	-8651
▁speakers	-8652
izz	-8653
rot	-8654
▁EU	-8655
▁Blues	-8656
▁lasted	-8657
▁rapidly	-8658
▁theater	-8659
▁treated	-8660
▁visible	-8661
▁Vancouver	-8662
ewhere	-8663
▁2017.	-8664
ificial	-8665
▁strict	-8666
▁dominant	-8667
▁component	-8668
osy	-8669
▁grown	-8670
▁Aberde	-8671
▁superv	-8672
▁affairs	-8673
▁traditions	-8674
▁protest	-8675
▁Racing	-8676
▁skaters	-8677
▁discovery	-8678
▁Ran	-8679
ingly	-8680
▁1922	-8681
▁Bure	-8682
▁explos	-8683
▁throne	-8684
▁hunting	-8685
▁joining	-8686
aly	-8687
ishers	-8688
▁thick	-8689
▁Brussels	-8690
hop	-8691
▁Lan	-8692
▁1936	-8693
▁Fight	-8694
▁recre	-8695
released	-8696
▁characterized	-8697
▁Zh	-8698
zegov	-8699
▁1997.	-8700
▁chance	-8701
▁extreme	-8702
▁praised	-8703
▁Executive	-8704
▁Meanwhile	-8705
RI	-8706
oque	-8707
▁volunte	-8708
▁involves	-8709
3).	-8710
anny	-8711
aware	-8712
▁NASA	-8713
▁unsuccess	-8714
▁(187	-8715
▁Such	-8716
otland	-8717
▁acknow	-8718
▁filled	-8719
▁linear	-8720
▁longest	-8721
▁essential	-8722
▁southwest	-8723
ugs	-8724
east	-8725
▁Rap	-8726
▁drugs	-8727
▁neuro	-8728
▁steam	-8729
▁agency	-8730
▁NI	-8731
mund	-8732
▁Our	-8733
▁Rud	-8734
▁mos	-8735
▁venue	-8736
▁Crim	-8737
▁dated	-8738
orer	-8739
arked	-8740
▁magazines	-8741
▁manufacturing	-8742
ín	-8743
orig	-8744
▁Race	-8745
▁Atari	-8746
▁Lower	-8747
▁Capital	-8748
▁Holland	-8749
▁portrayed	-8750
▁mor	-8751
▁Code	-8752
▁Cond	-8753
▁tools	-8754
ocation	-8755
▁Richmond	-8756
avia	-8757
▁Rat	-8758
▁spr	-8759
▁Frid	-8760
▁surn	-8761
▁Jason	-8762
▁tempor	-8763
▁bapt	-8764
mediate	-8765
▁Saints	-8766
formance	-8767
zegovina	-8768
▁Kennedy	-8769
▁balance	-8770
▁finding	-8771
▁expatriate	-8772
▁Cou	-8773
▁Say	-8774
▁switch	-8775
▁Literature	-8776
▁publishing	-8777
▁reputation	-8778
ilk	-8779
rod	-8780
▁Guy	-8781
▁beach	-8782
▁tests	-8783
▁Abraham	-8784
▁boundary	-8785
▁defeating	-8786
osph	-8787
▁Bod	-8788
▁unf	-8789
eping	-8790
▁clim	-8791
▁Daily	-8792
▁Steel	-8793
▁absol	-8794
▁moder	-8795
▁Instead	-8796
▁Rangers	-8797
▁championships	-8798
-10	-8799
You	-8800
larg	-8801
▁danc	-8802
▁transportation	-8803
▁ESPN	-8804
▁Century	-8805
▁broadcasting	-8806
▁controversial	-8807
issue	-8808
▁viewed	-8809
▁Seattle	-8810
▁challenge	-8811
▁temperatures	-8812
1).	-8813
▁75	-8814
ifies	-8815
▁save	-8816
▁erect	-8817
▁benefit	-8818
▁registered	-8819
▁Sn	-8820
acle	-8821
host	-8822
▁Rio	-8823
ecess	-8824
LC	-8825
oka	-8826
oyal	-8827
▁Imp	-8828
▁lowest	-8829
▁Champion	-8830
hum	-8831
cker	-8832
▁Ath	-8833
▁Lin	-8834
▁dual	-8835
▁kings	-8836
▁Fellows	-8837
▁amateur	-8838
▁Columbus	-8839
▁Thompson	-8840
▁channels	-8841
▁Sportspeople	-8842
▁Ni	-8843
▁wheel	-8844
▁Altern	-8845
▁retail	-8846
▁absence	-8847
▁understand	-8848
roc	-8849
–10	-8850
▁Sox	-8851
▁algorithm	-8852
▁biological	-8853
▁continuing	-8854
▁Oblast	-8855
▁Training	-8856
GA	-8857
▁ca	-8858
▁Aer	-8859
otype	-8860
▁Chand	-8861
▁Chron	-8862
▁kilomet	-8863
▁substit	-8864
▁Nav	-8865
▁Cold	-8866
▁Plant	-8867
▁Mother	-8868
▁Iranian	-8869
▁1929	-8870
▁1998.	-8871
▁chrom	-8872
▁grant	-8873
▁Malaysia	-8874
▁Township	-8875
roph	-8876
▁emp	-8877
▁Mond	-8878
▁Nova	-8879
▁Charlie	-8880
4).	-8881
▁Fel	-8882
▁1928	-8883
▁huge	-8884
ielder	-8885
▁Terry	-8886
▁interpretation	-8887
▁bird	-8888
▁entertainment	-8889
▁1951	-8890
▁trip	-8891
iveness	-8892
▁Ukrainian	-8893
▁surrounded	-8894
PC	-8895
odium	-8896
▁anime	-8897
▁acquis	-8898
▁camera	-8899
▁driving	-8900
▁heritage	-8901
iw	-8902
anner	-8903
▁Sarah	-8904
▁Peters	-8905
▁Robinson	-8906
ige	-8907
igg	-8908
▁SK	-8909
▁Init	-8910
▁gram	-8911
▁deleg	-8912
▁Around	-8913
▁Morgan	-8914
▁covering	-8915
▁comparison	-8916
!"	-8917
▁Dub	-8918
▁Pant	-8919
▁Finnish	-8920
▁license	-8921
▁origins	-8922
▁radiation	-8923
▁touchdown	-8924
▁maintenance	-8925
rant	-8926
–195	-8927
▁Cit	-8928
▁Jess	-8929
German	-8930
▁1996.	-8931
▁Within	-8932
▁Mississippi	-8933
ht	-8934
ık	-8935
mel	-8936
amics	-8937
▁rend	-8938
▁audio	-8939
▁ocean	-8940
▁analog	-8941
▁scheme	-8942
▁anything	-8943
oons	-8944
oming	-8945
▁Phot	-8946
▁superior	-8947
his	-8948
▁41	-8949
rett	-8950
▁Dean	-8951
▁Hab	-8952
caster	-8953
▁Brist	-8954
▁empire	-8955
isations	-8956
▁Collins	-8957
eme	-8958
alom	-8959
icas	-8960
▁Near	-8961
▁weapon	-8962
▁someone	-8963
▁writings	-8964
▁MPs	-8965
▁Appe	-8966
▁Nash	-8967
▁hardware	-8968
▁variable	-8969
tha	-8970
ilst	-8971
▁Mars	-8972
uction	-8973
▁infantry	-8974
46	-8975
cut	-8976
▁Maj	-8977
▁Rav	-8978
▁mac	-8979
itable	-8980
▁judges	-8981
BI	-8982
▁Vic	-8983
▁1933	-8984
▁Robin	-8985
▁principles	-8986
▁classification	-8987
▁fit	-8988
erals	-8989
▁palace	-8990
▁random	-8991
▁themes	-8992
▁Secondary	-8993
agg	-8994
▁65	-8995
▁surf	-8996
▁headed	-8997
▁produces	-8998
▁predecess	-8999
pat	-9000
▁SS	-9001
page	-9002
▁Kra	-9003
ashed	-9004
▁FIFA	-9005
▁debt	-9006
atabase	-9007
uckland	-9008
elli	-9009
▁injured	-9010
▁minimum	-9011
▁printed	-9012
▁immediate	-9013
▁Herzegovina	-9014
athy	-9015
riers	-9016
▁Aren	-9017
▁tick	-9018
▁bases	-9019
▁appearing	-9020
▁temporary	-9021
eing	-9022
▁caught	-9023
▁Friedrich	-9024
cho	-9025
Comm	-9026
ashi	-9027
foot	-9028
▁31,	-9029
▁Has	-9030
▁duty	-9031
▁explo	-9032
▁poets	-9033
▁waste	-9034
▁opinion	-9035
▁Personnel	-9036
▁$1	-9037
▁Denver	-9038
▁Campbell	-9039
▁Cov	-9040
▁Ref	-9041
udden	-9042
▁Mick	-9043
aments	-9044
hattan	-9045
▁Until	-9046
▁admitted	-9047
▁Methodist	-9048
otan	-9049
▁bes	-9050
▁Foot	-9051
▁finals	-9052
▁Isa	-9053
▁Neg	-9054
▁Know	-9055
▁wars	-9056
▁tunnel	-9057
▁preserved	-9058
▁destruction	-9059
auer	-9060
▁Psych	-9061
▁Legacy	-9062
▁Pierre	-9063
▁option	-9064
▁Edition	-9065
▁evolved	-9066
▁graduate	-9067
▁conscious	-9068
7).	-9069
via	-9070
▁Minor	-9071
uki	-9072
▁1986,	-9073
▁1987,	-9074
▁Assist	-9075
ido	-9076
hour	-9077
rove	-9078
ensis	-9079
▁thing	-9080
Scotland	-9081
▁Baptist	-9082
bow	-9083
hab	-9084
▁Ll	-9085
▁bed	-9086
▁Data	-9087
issions	-9088
▁labour	-9089
▁physics	-9090
▁happened	-9091
ét	-9092
▁hip	-9093
▁holid	-9094
▁Brigade	-9095
▁bishops	-9096
▁defence	-9097
▁collaboration	-9098
▁Veg	-9099
chers	-9100
using	-9101
▁tied	-9102
urrent	-9103
▁tanks	-9104
▁Invest	-9105
▁Warner	-9106
▁vision	-9107
▁selling	-9108
▁conversion	-9109
▁AI	-9110
▁NCAA	-9111
ursing	-9112
▁1988,	-9113
▁1995.	-9114
▁Academic	-9115
onomy	-9116
▁Freedom	-9117
▁constituency	-9118
▁42	-9119
type	-9120
▁vic	-9121
▁2018.	-9122
▁Horse	-9123
cussion	-9124
iations	-9125
▁Soccer	-9126
▁runner	-9127
▁reserve	-9128
▁Companies	-9129
▁chemistry	-9130
▁id	-9131
icop	-9132
▁Anna	-9133
▁moral	-9134
▁prize	-9135
▁annually	-9136
ivia	-9137
▁AFL	-9138
▁Pas	-9139
aired	-9140
▁safe	-9141
intend	-9142
▁filed	-9143
olition	-9144
▁struck	-9145
▁Economy	-9146
▁dominated	-9147
▁intersection	-9148
pop	-9149
▁bin	-9150
▁Lost	-9151
▁Clare	-9152
▁Trail	-9153
▁Orange	-9154
atherine	-9155
▁Knights	-9156
▁diverse	-9157
▁bringing	-9158
▁philosopher	-9159
▁Construction	-9160
flu	-9161
endar	-9162
ipher	-9163
▁didn	-9164
▁recru	-9165
▁Website	-9166
▁evening	-9167
▁Battalion	-9168
▁Technical	-9169
▁governments	-9170
uri	-9171
▁Tib	-9172
onies	-9173
▁swit	-9174
▁Napole	-9175
▁Serbia	-9176
▁Wellington	-9177
▁losses	-9178
▁prompt	-9179
▁rating	-9180
▁Classical	-9181
▁instruction	-9182
▁Ru	-9183
amps	-9184
▁vide	-9185
ricted	-9186
▁slaves	-9187
▁interchange	-9188
SE	-9189
mm	-9190
▁1914	-9191
▁rose	-9192
▁param	-9193
▁accord	-9194
▁assign	-9195
▁indicated	-9196
▁percentage	-9197
▁Environmental	-9198
▁Balk	-9199
▁mamm	-9200
person	-9201
▁Bened	-9202
▁Metro	-9203
▁Deputy	-9204
▁Giants	-9205
▁tourism	-9206
▁Fictional	-9207
def	-9208
▁Vel	-9209
build	-9210
▁patterns	-9211
▁Discography	-9212
rose	-9213
rows	-9214
▁cod	-9215
later	-9216
▁Type	-9217
▁electrical	-9218
▁corresponding	-9219
▁Site	-9220
▁Rhine	-9221
▁agents	-9222
▁reception	-9223
▁Py	-9224
ushing	-9225
▁Chang	-9226
▁Keith	-9227
▁roots	-9228
uations	-9229
▁Winners	-9230
NP	-9231
▁App	-9232
▁Rub	-9233
fiction	-9234
ulating	-9235
▁filmed	-9236
▁commemor	-9237
eda	-9238
▁Event	-9239
▁poems	-9240
▁solar	-9241
▁Auckland	-9242
▁sentence	-9243
▁Peninsula	-9244
body	-9245
▁Oil	-9246
rency	-9247
▁Barcel	-9248
ails	-9249
▁lov	-9250
▁Jerry	-9251
▁Carlos	-9252
▁Celtic	-9253
▁neither	-9254
▁Much	-9255
▁denied	-9256
pression	-9257
▁Oakland	-9258
▁Stanley	-9259
▁generated	-9260
Mar	-9261
▁Kun	-9262
▁lose	-9263
▁shore	-9264
▁Return	-9265
ractions	-9266
▁artistic	-9267
▁Model	-9268
▁credit	-9269
▁statue	-9270
56	-9271
ON	-9272
holm	-9273
omes	-9274
▁Kil	-9275
▁Bomb	-9276
idency	-9277
▁Actor	-9278
▁Colonel	-9279
▁vessels	-9280
ictionary	-9281
▁Therefore	-9282
▁increases	-9283
ibl	-9284
▁pip	-9285
▁Mack	-9286
ffield	-9287
▁Along	-9288
▁bears	-9289
▁Diocese	-9290
▁Marshall	-9291
▁Cathedral	-9292
▁Universal	-9293
▁implemented	-9294
fted	-9295
race	-9296
–196	-9297
▁Weekly	-9298
orkshire	-9299
▁releases	-9300
zh	-9301
▁Nev	-9302
▁Benn	-9303
▁thin	-9304
▁exceed	-9305
▁shares	-9306
▁Article	-9307
▁Railroad	-9308
isp	-9309
▁Exp	-9310
▁Occ	-9311
orses	-9312
▁Gray	-9313
▁Kirk	-9314
▁cous	-9315
▁Studio	-9316
▁Wa	-9317
ipper	-9318
▁1927	-9319
▁Evans	-9320
▁Ground	-9321
▁limits	-9322
▁partially	-9323
hand	-9324
▁Mrs	-9325
▁Rot	-9326
otton	-9327
▁1910	-9328
▁1937	-9329
▁interested	-9330
▁originated	-9331
eor	-9332
acon	-9333
iege	-9334
obby	-9335
▁Pad	-9336
▁ben	-9337
▁Note	-9338
▁gang	-9339
▁teen	-9340
▁Leban	-9341
▁historically	-9342
bes	-9343
archers	-9344
▁horror	-9345
▁rarely	-9346
▁Reserve	-9347
▁Serbian	-9348
▁Brooklyn	-9349
▁depicted	-9350
▁concerned	-9351
▁operational	-9352
▁brig	-9353
▁pian	-9354
▁excess	-9355
ady	-9356
▁Kan	-9357
▁atoms	-9358
▁Tigers	-9359
▁relationships	-9360
lane	-9361
▁rub	-9362
▁1931	-9363
▁2019.	-9364
▁Syria	-9365
▁config	-9366
▁Encyclop	-9367
▁arrangement	-9368
▁involvement	-9369
etry	-9370
▁Und	-9371
itime	-9372
▁1932	-9373
speaking	-9374
▁samples	-9375
.),	-9376
▁bat	-9377
▁1935	-9378
▁Hamp	-9379
▁1985,	-9380
onymous	-9381
▁wooden	-9382
▁Yorkshire	-9383
tes	-9384
▁Gü	-9385
▁libr	-9386
▁Abbey	-9387
essions	-9388
▁inspir	-9389
▁unusual	-9390
▁experimental	-9391
www	-9392
flow	-9393
▁rit	-9394
inate	-9395
▁Bund	-9396
▁phone	-9397
▁binary	-9398
▁relief	-9399
▁secure	-9400
▁writes	-9401
▁researchers	-9402
▁47	-9403
▁Mong	-9404
making	-9405
▁adults	-9406
▁stayed	-9407
▁illegal	-9408
▁swimming	-9409
Cy	-9410
load	-9411
▁Pay	-9412
▁asc	-9413
▁goddess	-9414
▁Infantry	-9415
▁1000	-9416
▁Prix	-9417
▁1980,	-9418
▁Start	-9419
▁CEO	-9420
▁stim	-9421
▁grass	-9422
▁Nation	-9423
▁Actress	-9424
▁Bristol	-9425
▁chapter	-9426
▁equipped	-9427
▁Manhattan	-9428
aeus	-9429
atus	-9430
▁cul	-9431
▁catch	-9432
▁lunar	-9433
▁fundamental	-9434
agre	-9435
▁Beh	-9436
▁Lead	-9437
▁truth	-9438
▁scientist	-9439
▁instrumental	-9440
SS	-9441
fts	-9442
irk	-9443
▁VI	-9444
usted	-9445
▁voting	-9446
▁transmit	-9447
▁Constantin	-9448
▁Si	-9449
acre	-9450
illo	-9451
izer	-9452
mate	-9453
▁Ein	-9454
ework	-9455
▁1890	-9456
▁Lock	-9457
▁Venez	-9458
▁Woman	-9459
▁arbit	-9460
▁slave	-9461
▁provision	-9462
▁Anti	-9463
▁frequent	-9464
tr	-9465
free	-9466
icance	-9467
ingham	-9468
▁Small	-9469
▁error	-9470
ificance	-9471
ribution	-9472
▁Mi	-9473
itis	-9474
▁begun	-9475
▁Jonathan	-9476
▁integrated	-9477
mith	-9478
▁mob	-9479
▁Pack	-9480
▁Page	-9481
▁hang	-9482
▁Marie	-9483
▁gather	-9484
▁Systems	-9485
▁Territory	-9486
wana	-9487
▁Past	-9488
▁athletes	-9489
▁proposal	-9490
▁haplogroup	-9491
ags	-9492
▁Tu	-9493
▁explan	-9494
▁Aberdeen	-9495
▁proteins	-9496
▁intention	-9497
▁boundaries	-9498
98	-9499
▁°	-9500
▁alumin	-9501
▁debuted	-9502
▁hundreds	-9503
▁substantial	-9504
▁codes	-9505
▁outer	-9506
▁invented	-9507
▁organisation	-9508
▁distinguished	-9509
▁(6	-9510
abad	-9511
▁dub	-9512
▁ion	-9513
▁moves	-9514
▁noble	-9515
▁wings	-9516
ocratic	-9517
▁Phoenix	-9518
▁females	-9519
▁Montreal	-9520
▁identical	-9521
▁qualified	-9522
▁mechanical	-9523
▁supporters	-9524
pol	-9525
iest	-9526
▁Sak	-9527
scale	-9528
▁gradu	-9529
▁serial	-9530
▁organic	-9531
▁entering	-9532
51	-9533
▁44	-9534
▁eat	-9535
▁Baker	-9536
▁wounded	-9537
▁approval	-9538
occ	-9539
alus	-9540
uits	-9541
▁Hunt	-9542
▁beer	-9543
▁tack	-9544
master	-9545
▁practical	-9546
odge	-9547
▁Kum	-9548
▁Stu	-9549
▁2020.	-9550
▁meets	-9551
church	-9552
ophone	-9553
▁Mathem	-9554
▁banned	-9555
▁imperial	-9556
▁Southeast	-9557
▁convicted	-9558
onda	-9559
assador	-9560
ovo	-9561
wers	-9562
▁Expl	-9563
▁drum	-9564
▁1,000	-9565
▁Nobel	-9566
igrated	-9567
▁colors	-9568
▁ruling	-9569
▁variant	-9570
▁affiliate	-9571
▁Industrial	-9572
▁Protection	-9573
▁possibility	-9574
▁Adv	-9575
▁Wag	-9576
merce	-9577
▁fold	-9578
▁seed	-9579
▁fruit	-9580
▁experiences	-9581
ophers	-9582
▁Reich	-9583
▁genre	-9584
▁theorem	-9585
▁Sheffield	-9586
▁biography	-9587
▁connections	-9588
▁underground	-9589
icist	-9590
▁Cole	-9591
▁ideal	-9592
aration	-9593
▁compound	-9594
▁satellite	-9595
▁Alexandria	-9596
▁Population	-9597
▁Bach	-9598
▁easy	-9599
▁gate	-9600
▁Stars	-9601
winning	-9602
▁Action	-9603
▁competing	-9604
alg	-9605
▁ton	-9606
omorph	-9607
▁2021.	-9608
▁Greater	-9609
▁turning	-9610
All	-9611
asa	-9612
eton	-9613
▁Nep	-9614
▁Adams	-9615
▁casual	-9616
5).	-9617
achi	-9618
▁Carter	-9619
▁quantum	-9620
▁Document	-9621
▁argument	-9622
-6	-9623
▁Ow	-9624
▁cup	-9625
▁Days	-9626
▁Magn	-9627
▁closer	-9628
▁centers	-9629
▁detailed	-9630
▁competitive	-9631
aser	-9632
brid	-9633
▁Cer	-9634
▁ske	-9635
▁gets	-9636
▁send	-9637
▁indicates	-9638
DC	-9639
▁Pel	-9640
▁Tol	-9641
▁Falls	-9642
▁Measure	-9643
▁trading	-9644
▁victims	-9645
▁speaking	-9646
▁reduction	-9647
▁experiments	-9648
▁rebell	-9649
.'	-9650
WA	-9651
gence	-9652
▁planet	-9653
▁ranking	-9654
For	-9655
Star	-9656
rity	-9657
▁Bud	-9658
▁Pil	-9659
final	-9660
orous	-9661
▁root	-9662
edding	-9663
rating	-9664
▁angle	-9665
▁apply	-9666
iscopal	-9667
▁collections	-9668
400	-9669
▁tox	-9670
ctors	-9671
▁Bert	-9672
▁Hein	-9673
▁trend	-9674
▁minute	-9675
▁Artists	-9676
aze	-9677
▁Dra	-9678
▁Apost	-9679
▁immigrants	-9680
▁cosm	-9681
▁drew	-9682
▁1984,	-9683
▁Patri	-9684
▁mechanism	-9685
▁everything	-9686
▁Commissioner	-9687
eff	-9688
▁LP	-9689
omon	-9690
▁Pink	-9691
▁isot	-9692
▁advis	-9693
▁claiming	-9694
▁emergency	-9695
▁exclusively	-9696
iast	-9697
▁Alc	-9698
▁Hugh	-9699
▁Canal	-9700
▁steps	-9701
▁drummer	-9702
▁volumes	-9703
▁Furthermore	-9704
amo	-9705
gom	-9706
arest	-9707
▁Cher	-9708
▁Branch	-9709
▁Nuclear	-9710
▁downtown	-9711
▁festivals	-9712
▁conventional	-9713
▁1934	-9714
▁soul	-9715
▁1979,	-9716
▁drawing	-9717
▁Cornwall	-9718
rien	-9719
▁orb	-9720
angle	-9721
iments	-9722
▁diseases	-9723
▁Contemporary	-9724
-201	-9725
icial	-9726
icular	-9727
▁Rules	-9728
▁excav	-9729
▁raise	-9730
▁Lane	-9731
▁tell	-9732
herent	-9733
profit	-9734
▁Guine	-9735
▁crimes	-9736
▁suicide	-9737
▁Barcelona	-9738
▁apparently	-9739
Can	-9740
oda	-9741
▁rac	-9742
▁Cuban	-9743
▁Milan	-9744
England	-9745
▁blocks	-9746
ixon	-9747
rary	-9748
▁bid	-9749
▁rent	-9750
▁expert	-9751
▁painted	-9752
▁agencies	-9753
▁minority	-9754
iop	-9755
arth	-9756
oven	-9757
avery	-9758
▁1924	-9759
estone	-9760
▁Michel	-9761
▁bright	-9762
▁rhythm	-9763
icity	-9764
▁Orle	-9765
▁Arena	-9766
▁Bruns	-9767
▁sight	-9768
▁driven	-9769
▁regime	-9770
▁timber	-9771
▁borders	-9772
▁exposure	-9773
▁eighth	-9774
mi	-9775
▁Ult	-9776
overty	-9777
▁proof	-9778
▁window	-9779
▁graphics	-9780
▁measured	-9781
emble	-9782
▁wrong	-9783
▁platforms	-9784
▁appropriate	-9785
As	-9786
▁AG	-9787
▁1992.	-9788
▁inhib	-9789
▁Bureau	-9790
▁Marvel	-9791
▁Barbara	-9792
▁amounts	-9793
▁Venezuel	-9794
▁expensive	-9795
bul	-9796
▁SC	-9797
▁(192	-9798
▁crash	-9799
▁Finance	-9800
▁passage	-9801
▁Wrestling	-9802
▁aqu	-9803
backs	-9804
▁Limited	-9805
▁marketing	-9806
Elect	-9807
▁1926	-9808
▁Mall	-9809
▁Saudi	-9810
formerly	-9811
possible	-9812
oids	-9813
▁canc	-9814
ensation	-9815
▁sentenced	-9816
ao	-9817
▁Joy	-9818
agram	-9819
wright	-9820
▁elder	-9821
▁intent	-9822
▁preferred	-9823
▁encouraged	-9824
▁understood	-9825
helm	-9826
▁Bald	-9827
▁Bath	-9828
▁hyper	-9829
itarian	-9830
▁monastery	-9831
▁Educational	-9832
▁Gate	-9833
▁1982,	-9834
▁(2005)	-9835
▁Officer	-9836
▁suitable	-9837
nik	-9838
zym	-9839
▁1983,	-9840
▁Orleans	-9841
▁Private	-9842
▁editions	-9843
▁daughters	-9844
▁atmosphere	-9845
▁industries	-9846
And	-9847
▁Eug	-9848
▁Ring	-9849
▁bone	-9850
marine	-9851
▁Arabia	-9852
▁Transl	-9853
▁insect	-9854
▁opponent	-9855
▁restaurant	-9856
▁Grad	-9857
▁fert	-9858
▁divor	-9859
▁Alumni	-9860
ön	-9861
▁(10	-9862
▁brick	-9863
▁remember	-9864
97	-9865
▁GDP	-9866
▁Typ	-9867
▁cogn	-9868
▁shift	-9869
▁sudden	-9870
▁concepts	-9871
▁supports	-9872
▁attracted	-9873
itter	-9874
▁mine	-9875
▁Jefferson	-9876
TE	-9877
bb	-9878
▁Map	-9879
▁wet	-9880
overe	-9881
▁exposed	-9882
▁Statistics	-9883
▁AS	-9884
▁Get	-9885
iliar	-9886
▁Cook	-9887
▁Glen	-9888
▁Kurd	-9889
▁foss	-9890
▁frame	-9891
▁patron	-9892
▁Chamber	-9893
▁fighter	-9894
▁locally	-9895
▁counties	-9896
▁completion	-9897
▁concerning	-9898
uable	-9899
▁1994.	-9900
▁Crime	-9901
▁Deaths	-9902
▁Munich	-9903
▁Cardinals	-9904
▁childhood	-9905
▁landscape	-9906
▁Sr	-9907
asha	-9908
ethe	-9909
▁salt	-9910
▁Parks	-9911
▁supplies	-9912
▁demolished	-9913
iox	-9914
uru	-9915
▁refug	-9916
▁movies	-9917
▁phrase	-9918
▁belonged	-9919
▁Brunswick	-9920
▁ministers	-9921
ulu	-9922
olics	-9923
▁dogs	-9924
▁cattle	-9925
HE	-9926
nan	-9927
ugu	-9928
▁ow	-9929
atar	-9930
eway	-9931
inite	-9932
▁Dragon	-9933
▁Theater	-9934
▁implementation	-9935
On	-9936
▁WW	-9937
stery	-9938
trans	-9939
▁sees	-9940
enesis	-9941
▁Honours	-9942
▁Examples	-9943
▁publisher	-9944
▁soundtrack	-9945
▁Barn	-9946
▁simult	-9947
Ex	-9948
800	-9949
ilty	-9950
sters	-9951
▁Beck	-9952
▁Craig	-9953
fire	-9954
▁Cowboys	-9955
▁elevation	-9956
▁personality	-9957
▁restaurants	-9958
▁horn	-9959
encing	-9960
piracy	-9961
▁layer	-9962
▁Parker	-9963
▁dispute	-9964
▁transform	-9965
▁Cert	-9966
jection	-9967
aneously	-9968
▁carrier	-9969
▁abolished	-9970
enia	-9971
▁Mix	-9972
▁diff	-9973
▁racial	-9974
▁Indians	-9975
▁recommended	-9976
▁screenwriter	-9977
▁ru	-9978
emed	-9979
idal	-9980
phib	-9981
▁Bass	-9982
castle	-9983
▁1972,	-9984
▁Opera	-9985
▁agree	-9986
▁spoke	-9987
▁Various	-9988
gate	-9989
▁Tas	-9990
▁logic	-9991
▁Socialist	-9992
▁decisions	-9993
8).	-9994
urbs	-9995
▁Brun	-9996
▁Herman	-9997
▁injuries	-9998
▁distinction	-9999
▁Fun	-10000
▁fat	-10001
▁gone	-10002
▁Armed	-10003
▁falls	-10004
▁ruler	-10005
▁Turner	-10006
ensively	-10007
▁clearly	-10008
▁leagues	-10009
▁Nicholas	-10010
▁acknowled	-10011
aha	-10012
avan	-10013
▁Cob	-10014
▁1921	-10015
▁jobs	-10016
▁cultures	-10017
▁employment	-10018
▁percussion	-10019
▁Publications	-10020
iko	-10021
pled	-10022
ospel	-10023
▁1917	-10024
▁pseud	-10025
ilation	-10026
▁Allied	-10027
▁Harold	-10028
▁choose	-10029
▁monument	-10030
▁corporate	-10031
▁parliamentary	-10032
RC	-10033
▁55	-10034
ania	-10035
▁1925	-10036
▁Exper	-10037
▁Prison	-10038
▁calcul	-10039
▁meters	-10040
ahl	-10041
▁9.	-10042
eria	-10043
quir	-10044
yers	-10045
▁fix	-10046
mates	-10047
riors	-10048
▁Utah	-10049
▁manga	-10050
▁Diamond	-10051
▁matters	-10052
▁survive	-10053
rehensive	-10054
▁Pictures	-10055
MC	-10056
andal	-10057
ipped	-10058
▁(2006)	-10059
▁credits	-10060
▁discontin	-10061
▁execution	-10062
igs	-10063
mary	-10064
▁knew	-10065
▁trap	-10066
▁enjoyed	-10067
▁Districts	-10068
iture	-10069
▁acids	-10070
▁Faculty	-10071
▁denomin	-10072
▁disestablished	-10073
pent	-10074
▁Sha	-10075
United	-10076
gomery	-10077
▁1993.	-10078
▁(2007)	-10079
▁discussed	-10080
▁efficient	-10081
bus	-10082
▁UC	-10083
▁gal	-10084
▁hat	-10085
▁Spec	-10086
▁1981,	-10087
▁consistent	-10088
▁Fr	-10089
maker	-10090
▁Wald	-10091
▁else	-10092
▁furn	-10093
▁Leeds	-10094
▁index	-10095
▁beauty	-10096
▁resort	-10097
▁voters	-10098
▁Classic	-10099
▁suffering	-10100
▁Independence	-10101
▁establishing	-10102
▁Sid	-10103
▁1991.	-10104
▁false	-10105
▁treaty	-10106
▁cavalry	-10107
▁artificial	-10108
▁3-	-10109
▁Wing	-10110
▁cave	-10111
stract	-10112
▁Maxim	-10113
▁knock	-10114
▁prosec	-10115
▁remainder	-10116
▁threatened	-10117
▁papers	-10118
▁facilit	-10119
▁strategic	-10120
▁participation	-10121
▁Kay	-10122
borne	-10123
▁Bronze	-10124
▁Cinema	-10125
▁rounds	-10126
▁departure	-10127
▁contribution	-10128
▁|}	-10129
▁2–1	-10130
▁essay	-10131
▁bridges	-10132
▁habitat	-10133
▁Philosophy	-10134
▁Performance	-10135
igo	-10136
finals	-10137
▁decay	-10138
▁plain	-10139
▁trail	-10140
ployment	-10141
▁erected	-10142
she	-10143
▁Cass	-10144
▁Mend	-10145
▁anarch	-10146
▁ranging	-10147
▁consumption	-10148
▁descendants	-10149
▁conservation	-10150
▁significance	-10151
Hz	-10152
LU	-10153
vol	-10154
folk	-10155
▁oxid	-10156
▁pref	-10157
▁marine	-10158
▁electricity	-10159
▁52	-10160
▁Ry	-10161
olds	-10162
▁Any	-10163
▁bon	-10164
▁nut	-10165
▁vul	-10166
▁encl	-10167
▁judg	-10168
▁Pract	-10169
▁undert	-10170
▁Section	-10171
▁acceler	-10172
▁deployed	-10173
-17	-10174
Col	-10175
▁Sig	-10176
▁Stre	-10177
uisine	-10178
▁merger	-10179
▁amongst	-10180
▁farming	-10181
imensional	-10182
▁43	-10183
▁Wor	-10184
break	-10185
▁coat	-10186
▁Fisher	-10187
▁dispers	-10188
▁reactions	-10189
▁influences	-10190
▁journalists	-10191
▁conservative	-10192
strong	-10193
▁Spart	-10194
English	-10195
▁remove	-10196
▁upgrad	-10197
▁tourist	-10198
▁alphabet	-10199
▁Democrats	-10200
▁locomotives	-10201
95	-10202
wald	-10203
▁Had	-10204
▁Crow	-10205
▁Norm	-10206
ancell	-10207
▁tries	-10208
▁wider	-10209
enhagen	-10210
▁anyone	-10211
▁keyboard	-10212
▁playoffs	-10213
▁struggle	-10214
▁physician	-10215
▁resolution	-10216
▁demonstrated	-10217
fil	-10218
▁Ax	-10219
▁Fat	-10220
▁Ple	-10221
itars	-10222
▁Survey	-10223
▁Warren	-10224
▁copper	-10225
▁desire	-10226
▁chamber	-10227
▁Additional	-10228
▁Archbishop	-10229
cock	-10230
▁Haz	-10231
▁neck	-10232
▁crops	-10233
▁flows	-10234
onomous	-10235
▁Annual	-10236
▁publicly	-10237
én	-10238
aton	-10239
▁Movie	-10240
▁metals	-10241
▁attorney	-10242
▁occasions	-10243
that	-10244
ymru	-10245
▁Ivan	-10246
▁Newton	-10247
offic	-10248
▁boats	-10249
▁violent	-10250
▁explicit	-10251
▁Montgomery	-10252
eli	-10253
▁cm	-10254
case	-10255
▁Bes	-10256
▁repr	-10257
incinn	-10258
▁aggreg	-10259
▁cinema	-10260
angelical	-10261
▁dialects	-10262
▁romantic	-10263
nex	-10264
ogs	-10265
▁168	-10266
▁Conn	-10267
▁Prop	-10268
ennium	-10269
▁Number	-10270
▁poison	-10271
▁helping	-10272
▁sustain	-10273
▁astronaut	-10274
▁commanded	-10275
▁restricted	-10276
▁Constantinople	-10277
appy	-10278
oses	-10279
▁sax	-10280
iffer	-10281
tical	-10282
▁View	-10283
▁coins	-10284
▁Dennis	-10285
▁excell	-10286
▁Baroque	-10287
▁radical	-10288
▁memorial	-10289
▁signals	-10290
▁isolated	-10291
▁meetings	-10292
▁participants	-10293
oom	-10294
asks	-10295
otyp	-10296
uber	-10297
speed	-10298
▁Chess	-10299
▁atomic	-10300
▁Nam	-10301
▁Tob	-10302
oslov	-10303
▁discussion	-10304
fam	-10305
oard	-10306
▁Hud	-10307
▁bom	-10308
▁Grey	-10309
▁Census	-10310
election	-10311
▁therapy	-10312
br	-10313
cap	-10314
aire	-10315
▁Rhif	-10316
▁instruct	-10317
▁terminal	-10318
▁dangerous	-10319
▁permitted	-10320
PP	-10321
Wh	-10322
9).	-10323
opy	-10324
oots	-10325
asant	-10326
▁clock	-10327
▁argues	-10328
▁peaked	-10329
▁reaches	-10330
othe	-10331
▁els	-10332
▁illness	-10333
incinnati	-10334
▁Relations	-10335
/1	-10336
▁Bear	-10337
▁comics	-10338
▁propag	-10339
▁retreat	-10340
▁connecting	-10341
▁communications	-10342
lit	-10343
▁Shaw	-10344
▁tool	-10345
▁10,000	-10346
▁gender	-10347
▁sacrif	-10348
▁Aristot	-10349
▁Cardiff	-10350
▁operator	-10351
▁relocated	-10352
▁suspended	-10353
alph	-10354
disc	-10355
ften	-10356
▁Wes	-10357
▁vel	-10358
▁Policy	-10359
▁partial	-10360
▁Benedict	-10361
▁restoration	-10362
▁mathematical	-10363
aran	-10364
▁1880	-10365
▁Cand	-10366
▁Drive	-10367
▁wrest	-10368
▁beliefs	-10369
▁surgery	-10370
▁benefits	-10371
erk	-10372
phan	-10373
▁Neil	-10374
▁Unit	-10375
living	-10376
▁Appro	-10377
▁assum	-10378
rection	-10379
▁Rhodes	-10380
▁Climate	-10381
▁reducing	-10382
pin	-10383
▁AL	-10384
▁wire	-10385
▁morph	-10386
▁theat	-10387
lington	-10388
▁scores	-10389
▁congress	-10390
ente	-10391
▁Fif	-10392
icism	-10393
▁grav	-10394
▁Flore	-10395
▁Lloyd	-10396
▁chess	-10397
▁eleven	-10398
▁ranges	-10399
▁underw	-10400
▁unless	-10401
▁unlike	-10402
▁Frances	-10403
▁Machine	-10404
▁synthes	-10405
oga	-10406
quis	-10407
–193	-10408
▁Soon	-10409
▁1974,	-10410
▁Bobby	-10411
▁Fleet	-10412
▁horizon	-10413
ße	-10414
care	-10415
orious	-10416
▁blues	-10417
▁Defunct	-10418
▁magnitude	-10419
▁ri	-10420
▁RAF	-10421
adian	-10422
▁Drag	-10423
▁Turks	-10424
▁condem	-10425
▁monitor	-10426
▁Industry	-10427
▁ordinary	-10428
▁Nevertheless	-10429
AT	-10430
iri	-10431
▁Iss	-10432
▁Wed	-10433
▁anx	-10434
emies	-10435
▁Slav	-10436
▁Villa	-10437
minster	-10438
▁donated	-10439
▁symbols	-10440
▁elsewhere	-10441
▁recovered	-10442
ieg	-10443
▁CC	-10444
Euro	-10445
▁mit	-10446
▁gard	-10447
▁Double	-10448
▁Recent	-10449
▁alternate	-10450
▁reportedly	-10451
▁essentially	-10452
▁manufacturer	-10453
▁Ye	-10454
▁600	-10455
▁Wel	-10456
▁Caes	-10457
▁atom	-10458
▁Amazon	-10459
▁licensed	-10460
▁architectural	-10461
▁circumstances	-10462
.”	-10463
▁−	-10464
▁Cour	-10465
teenth	-10466
▁describing	-10467
▁Renaissance	-10468
▁aimed	-10469
▁Confuc	-10470
▁honour	-10471
▁prices	-10472
encement	-10473
▁earthqu	-10474
▁helicop	-10475
▁signing	-10476
▁acoustic	-10477
▁difficulty	-10478
▁manufacturers	-10479
▁mo	-10480
▁11.	-10481
▁fab	-10482
▁Where	-10483
▁inhab	-10484
▁storm	-10485
▁Ernest	-10486
▁cousin	-10487
▁telephone	-10488
Ad	-10489
lay	-10490
sis	-10491
ère	-10492
comp	-10493
▁58	-10494
▁BM	-10495
anal	-10496
▁Pos	-10497
stown	-10498
▁1915	-10499
▁meat	-10500
▁depth	-10501
▁Nature	-10502
▁vessel	-10503
▁beating	-10504
▁congreg	-10505
▁machines	-10506
▁visiting	-10507
77	-10508
ovsky	-10509
▁1901	-10510
▁coup	-10511
▁Those	-10512
▁ceased	-10513
▁exactly	-10514
▁beautiful	-10515
▁Cincinnati	-10516
▁characteristic	-10517
▁Kap	-10518
▁fantasy	-10519
▁equation	-10520
▁uncertain	-10521
▁Yugoslavia	-10522
▁constitutional	-10523
ır	-10524
ubs	-10525
ricks	-10526
viously	-10527
▁Oliver	-10528
▁bacteria	-10529
▁clothing	-10530
This	-10531
▁persu	-10532
▁Friday	-10533
▁triple	-10534
▁patient	-10535
▁Critical	-10536
▁studying	-10537
▁displayed	-10538
El	-10539
My	-10540
grim	-10541
ichi	-10542
entry	-10543
▁Soul	-10544
▁Tang	-10545
▁Prest	-10546
▁colle	-10547
▁hence	-10548
▁missed	-10549
sequently	-10550
▁evil	-10551
▁phon	-10552
▁1975,	-10553
▁Stuart	-10554
▁rebuilt	-10555
▁windows	-10556
▁emphasis	-10557
▁referring	-10558
▁archaeological	-10559
uer	-10560
hent	-10561
rait	-10562
▁12.	-10563
▁Josh	-10564
▁1989.	-10565
compass	-10566
▁charter	-10567
▁seeking	-10568
▁bankrupt	-10569
▁premiered	-10570
▁varieties	-10571
▁Description	-10572
GC	-10573
rys	-10574
▁Ib	-10575
iere	-10576
▁Nad	-10577
olith	-10578
▁Fish	-10579
▁Agnes	-10580
▁genes	-10581
▁Shakes	-10582
▁Senator	-10583
▁studios	-10584
▁Together	-10585
math	-10586
▁Aur	-10587
inery	-10588
▁Deep	-10589
▁cash	-10590
▁1976,	-10591
▁Monte	-10592
▁Tourn	-10593
▁ready	-10594
country	-10595
▁Guinea	-10596
▁murdered	-10597
ubb	-10598
Aust	-10599
chem	-10600
riel	-10601
▁Osc	-10602
▁Tree	-10603
▁dream	-10604
▁neighbourhood	-10605
ffee	-10606
weet	-10607
▁Got	-10608
ierra	-10609
utton	-10610
omical	-10611
▁1969,	-10612
ections	-10613
▁stored	-10614
▁keeping	-10615
▁Attorney	-10616
▁Lutheran	-10617
Be	-10618
▁Face	-10619
▁Lion	-10620
▁Eight	-10621
▁reven	-10622
▁Canter	-10623
▁liberal	-10624
▁absolute	-10625
▁Financial	-10626
▁keyboards	-10627
▁universal	-10628
▁succession	-10629
▁empt	-10630
▁prey	-10631
▁canon	-10632
▁profit	-10633
▁convert	-10634
▁neutral	-10635
▁Harrison	-10636
▁inducted	-10637
▁vertical	-10638
▁nomination	-10639
py	-10640
arr	-10641
▁1912	-10642
▁glac	-10643
▁Stein	-10644
DR	-10645
▁ga	-10646
alan	-10647
▁1916	-10648
▁1990.	-10649
▁Moses	-10650
▁climb	-10651
▁ninth	-10652
▁resid	-10653
▁Basque	-10654
▁revised	-10655
▁tropical	-10656
▁recognised	-10657
hm	-10658
cor	-10659
cos	-10660
zes	-10661
▁Hope	-10662
▁Steven	-10663
▁Springs	-10664
▁Airlines	-10665
▁photography	-10666
eas	-10667
gae	-10668
▁Gaz	-10669
peare	-10670
▁brew	-10671
▁spin	-10672
▁sulf	-10673
▁ranks	-10674
▁Hunter	-10675
▁Original	-10676
RO	-10677
new	-10678
stand	-10679
▁Vincent	-10680
96	-10681
bey	-10682
uba	-10683
uras	-10684
▁Kor	-10685
▁loop	-10686
▁Lanka	-10687
▁Baltic	-10688
▁Butler	-10689
▁legacy	-10690
▁flights	-10691
▁orchestra	-10692
len	-10693
ieth	-10694
▁Blu	-10695
ching	-10696
osaurus	-10697
▁interface	-10698
▁opportunities	-10699
dy	-10700
atra	-10701
▁Joan	-10702
▁Herald	-10703
▁Dominican	-10704
La	-10705
zi	-10706
▁IC	-10707
acts	-10708
hero	-10709
▁IBM	-10710
▁Plat	-10711
▁Mills	-10712
▁panel	-10713
▁Foster	-10714
▁circle	-10715
▁Bavaria	-10716
▁Shortly	-10717
▁terminus	-10718
▁eliminated	-10719
ocket	-10720
▁Comb	-10721
▁Heavy	-10722
▁arena	-10723
▁deriv	-10724
▁faces	-10725
▁functional	-10726
))	-10727
BL	-10728
▁46	-10729
▁Shel	-10730
▁Filip	-10731
▁buses	-10732
▁march	-10733
▁desert	-10734
▁guilty	-10735
▁whilst	-10736
▁Copenhagen	-10737
/2	-10738
▁AN	-10739
▁1913	-10740
▁abort	-10741
▁seeing	-10742
▁cabinet	-10743
▁Religion	-10744
▁Canterbury	-10745
▁Shakespeare	-10746
VID	-10747
ivan	-10748
▁São	-10749
▁fur	-10750
overy	-10751
▁hope	-10752
▁rect	-10753
itudes	-10754
▁1971,	-10755
▁Right	-10756
▁announc	-10757
ographics	-10758
▁schedule	-10759
▁intellectual	-10760
▁Bog	-10761
about	-10762
▁nest	-10763
▁quad	-10764
▁Lakes	-10765
▁rising	-10766
▁explain	-10767
▁missile	-10768
▁plastic	-10769
▁civilian	-10770
▁particle	-10771
▁conductor	-10772
bot	-10773
ulum	-10774
▁gay	-10775
white	-10776
▁kidn	-10777
▁1945,	-10778
▁shield	-10779
▁Wilhelm	-10780
▁appointment	-10781
geon	-10782
▁Bun	-10783
▁Midd	-10784
ported	-10785
▁Ghana	-10786
▁Spect	-10787
▁Tibet	-10788
▁Trinity	-10789
▁Argentine	-10790
▁Agriculture	-10791
fr	-10792
▁Hom	-10793
avian	-10794
▁Animal	-10795
iliation	-10796
▁Finally	-10797
▁Quarter	-10798
▁mounted	-10799
▁spending	-10800
▁Hampshire	-10801
▁solutions	-10802
▁Czechoslov	-10803
▁mainstream	-10804
aba	-10805
only	-10806
urst	-10807
▁Fab	-10808
iology	-10809
▁2022.	-10810
▁(2004)	-10811
▁Gregory	-10812
▁Testament	-10813
▁Legal	-10814
▁magic	-10815
▁crossed	-10816
▁optical	-10817
▁accessible	-10818
▁attempting	-10819
▁regulations	-10820
▁Pin	-10821
▁Lisa	-10822
▁marks	-10823
▁assets	-10824
▁variation	-10825
▁afterwards	-10826
pres	-10827
▁1–0	-10828
icing	-10829
▁Curt	-10830
▁Gonz	-10831
vision	-10832
▁Mason	-10833
▁behalf	-10834
▁Stevens	-10835
▁farmers	-10836
▁diameter	-10837
▁societies	-10838
isen	-10839
▁Hold	-10840
▁memb	-10841
▁Helen	-10842
▁Nevada	-10843
▁responded	-10844
uy	-10845
ivic	-10846
▁mal	-10847
Donald	-10848
▁Aston	-10849
▁enzym	-10850
▁pregn	-10851
▁Students	-10852
▁Catholics	-10853
avor	-10854
game	-10855
▁Dep	-10856
▁Qual	-10857
▁Babyl	-10858
▁Bronx	-10859
▁Recip	-10860
▁alien	-10861
▁chron	-10862
amation	-10863
At	-10864
▁XX	-10865
▁logo	-10866
▁pairs	-10867
▁shock	-10868
▁uncle	-10869
▁possession	-10870
teg	-10871
▁57	-10872
▁AA	-10873
▁SP	-10874
▁urg	-10875
▁Poly	-10876
▁videos	-10877
▁Crystal	-10878
▁Cameroon	-10879
▁breaking	-10880
▁approaches	-10881
▁acquisition	-10882
▁photographs	-10883
etics	-10884
▁Patt	-10885
▁Yale	-10886
ennial	-10887
▁Alice	-10888
▁gross	-10889
▁termin	-10890
▁Herbert	-10891
▁mixture	-10892
▁tribute	-10893
▁Villages	-10894
▁alliance	-10895
▁pictures	-10896
▁hypothesis	-10897
▁mathematician	-10898
▁Sad	-10899
▁odd	-10900
▁Name	-10901
▁1978,	-10902
▁Susan	-10903
▁armies	-10904
▁Chelsea	-10905
▁secured	-10906
▁encompass	-10907
▁diplomatic	-10908
▁earn	-10909
ampton	-10910
▁crypt	-10911
▁Astron	-10912
▁revenue	-10913
▁wearing	-10914
▁coalition	-10915
92	-10916
uez	-10917
▁68	-10918
▁Hob	-10919
ashes	-10920
duces	-10921
▁Pearl	-10922
▁camps	-10923
▁canal	-10924
▁ongoing	-10925
▁Buddhism	-10926
▁dependent	-10927
▁Displacement	-10928
aca	-10929
▁Emp	-10930
anion	-10931
▁Walt	-10932
▁cruc	-10933
▁Aviation	-10934
▁collapse	-10935
gas	-10936
▁Cyr	-10937
▁tie	-10938
▁Next	-10939
vanced	-10940
▁Coach	-10941
▁Instr	-10942
▁animation	-10943
▁dissolved	-10944
▁objective	-10945
94	-10946
oding	-10947
▁Gang	-10948
▁Otto	-10949
▁Virt	-10950
▁migr	-10951
▁Magic	-10952
▁abund	-10953
▁aster	-10954
▁Single	-10955
▁tenure	-10956
▁borough	-10957
:1	-10958
mill	-10959
oirs	-10960
tains	-10961
▁gods	-10962
urring	-10963
▁1970,	-10964
▁rocks	-10965
▁Student	-10966
▁carries	-10967
▁concerts	-10968
▁associate	-10969
▁perceived	-10970
▁Throughout	-10971
▁impossible	-10972
▁negotiations	-10973
▁Kle	-10974
eling	-10975
ensing	-10976
rington	-10977
▁crosses	-10978
▁hearing	-10979
ographers	-10980
▁everyone	-10981
19)	-10982
Hung	-10983
iors	-10984
raud	-10985
▁Sic	-10986
▁worn	-10987
▁manif	-10988
▁scope	-10989
▁advice	-10990
▁thirty	-10991
▁recommend	-10992
▁Philippine	-10993
aco	-10994
apped	-10995
▁pand	-10996
▁Aaron	-10997
▁Franz	-10998
fielder	-10999
graduate	-11000
▁Len	-11001
▁nam	-11002
▁shr	-11003
▁golf	-11004
▁horses	-11005
▁Cambodia	-11006
ED	-11007
pes	-11008
umer	-11009
▁Still	-11010
▁customers	-11011
▁attractions	-11012
ema	-11013
acht	-11014
olve	-11015
▁Ted	-11016
▁diet	-11017
▁Draft	-11018
▁Krist	-11019
▁Maine	-11020
▁annex	-11021
written	-11022
▁organisms	-11023
▁substance	-11024
00,	-11025
oni	-11026
▁Belf	-11027
igious	-11028
minute	-11029
▁Derby	-11030
▁verte	-11031
▁varies	-11032
▁slavery	-11033
▁automatic	-11034
pm	-11035
▁gymn	-11036
▁thor	-11037
arians	-11038
▁falling	-11039
▁Americas	-11040
▁Challenge	-11041
▁initiated	-11042
ogle	-11043
▁Jenn	-11044
▁electro	-11045
▁announce	-11046
▁molecules	-11047
furt	-11048
irts	-11049
▁1911	-11050
▁Lore	-11051
▁breeding	-11052
▁exercise	-11053
▁Initially	-11054
▁campaigns	-11055
obs	-11056
▁54	-11057
▁Cann	-11058
▁Pont	-11059
▁Ralph	-11060
▁Eagles	-11061
▁Female	-11062
▁Spider	-11063
▁conson	-11064
▁slowly	-11065
▁doctrine	-11066
▁activists	-11067
cia	-11068
▁Hav	-11069
▁Vlad	-11070
uka	-11071
▁AB	-11072
omed	-11073
quer	-11074
▁Lis	-11075
▁Mut	-11076
forced	-11077
▁Judge	-11078
anthrop	-11079
▁Access	-11080
▁Vas	-11081
▁Kath	-11082
▁Rico	-11083
▁tort	-11084
lishments	-11085
▁Augustine	-11086
▁temporarily	-11087
86	-11088
osc	-11089
▁CI	-11090
▁Ain	-11091
▁Luis	-11092
▁legs	-11093
Europe	-11094
▁symmet	-11095
▁Manager	-11096
▁Nursing	-11097
▁closing	-11098
▁recovery	-11099
HA	-11100
akk	-11101
ulus	-11102
▁Lag	-11103
▁bip	-11104
▁Beth	-11105
▁Lamb	-11106
hedron	-11107
lights	-11108
▁extend	-11109
▁Aircraft	-11110
▁broadcasts	-11111
▁statements	-11112
▁extensively	-11113
▁unsuccessful	-11114
vet	-11115
▁Hus	-11116
▁Tab	-11117
isode	-11118
▁1977,	-11119
▁1988.	-11120
▁COVID	-11121
▁queen	-11122
▁Arrang	-11123
▁tested	-11124
▁mainland	-11125
▁regiment	-11126
▁Newcastle	-11127
▁(16	-11128
▁tel	-11129
▁Moroc	-11130
▁faster	-11131
▁settlers	-11132
▁narrative	-11133
Af	-11134
eded	-11135
okie	-11136
▁Goi	-11137
▁Bird	-11138
▁Parish	-11139
▁trials	-11140
▁reforms	-11141
▁variations	-11142
▁distinctive	-11143
▁manufactured	-11144
▁LM	-11145
▁Gas	-11146
▁rig	-11147
▁tot	-11148
ullah	-11149
shaped	-11150
▁enters	-11151
▁manage	-11152
▁virtual	-11153
ibilities	-11154
▁Scientific	-11155
▁songwriter	-11156
rez	-11157
emon	-11158
▁Seb	-11159
lived	-11160
▁Lear	-11161
▁Pent	-11162
▁Rica	-11163
▁Zone	-11164
▁Manuel	-11165
▁Scotia	-11166
▁poverty	-11167
▁rational	-11168
rament	-11169
▁apost	-11170
▁Hawaii	-11171
ospitals	-11172
▁Dictionary	-11173
▁affiliated	-11174
–190	-11175
▁Sah	-11176
▁soap	-11177
▁verb	-11178
▁array	-11179
▁suburb	-11180
▁wealthy	-11181
John	-11182
▁Mol	-11183
March	-11184
▁Clay	-11185
▁clar	-11186
▁turb	-11187
▁aspir	-11188
▁conquest	-11189
anni	-11190
core	-11191
▁167	-11192
▁Carn	-11193
enders	-11194
▁Drama	-11195
▁Index	-11196
▁Proper	-11197
aturally	-11198
▁Chester	-11199
▁Pakistani	-11200
▁attendance	-11201
LE	-11202
20)	-11203
iya	-11204
▁('	-11205
▁SM	-11206
ahan	-11207
rock	-11208
▁Was	-11209
berry	-11210
otion	-11211
▁Gust	-11212
▁Grace	-11213
▁stead	-11214
legraph	-11215
▁traded	-11216
▁impress	-11217
▁Alexandra	-11218
▁procedure	-11219
▁structural	-11220
▁Dip	-11221
▁Buch	-11222
celand	-11223
▁accum	-11224
▁usual	-11225
▁switched	-11226
UC	-11227
anim	-11228
▁176	-11229
▁Cox	-11230
▁wat	-11231
▁Gill	-11232
▁detect	-11233
▁migration	-11234
▁conclusion	-11235
▁organisations	-11236
LP	-11237
▁175	-11238
▁Lok	-11239
▁sin	-11240
ethyl	-11241
▁http	-11242
otswana	-11243
▁deputy	-11244
▁guitars	-11245
▁Election	-11246
▁Napoleon	-11247
▁Software	-11248
▁receives	-11249
▁youngest	-11250
ref	-11251
▁51	-11252
owed	-11253
▁bars	-11254
▁eggs	-11255
▁grid	-11256
▁Romans	-11257
▁molecular	-11258
▁variables	-11259
▁subsidiary	-11260
▁neighboring	-11261
cca	-11262
hor	-11263
▁rum	-11264
marks	-11265
▁subd	-11266
igible	-11267
▁hills	-11268
▁sovere	-11269
▁toured	-11270
▁flowers	-11271
▁friendly	-11272
tic	-11273
▁ve	-11274
▁Cyp	-11275
▁Salt	-11276
▁abroad	-11277
▁drinking	-11278
▁elevated	-11279
▁intercept	-11280
él	-11281
ilia	-11282
▁rib	-11283
▁acted	-11284
▁Madrid	-11285
▁vector	-11286
▁discrim	-11287
▁protests	-11288
▁jurisdiction	-11289
sor	-11290
ampa	-11291
anas	-11292
▁Neo	-11293
▁blow	-11294
porter	-11295
▁Fourth	-11296
▁facing	-11297
▁landed	-11298
▁Tourism	-11299
▁martial	-11300
▁mineral	-11301
▁partners	-11302
▁behaviour	-11303
▁estimates	-11304
▁commentary	-11305
▁inspiration	-11306
omial	-11307
▁Bour	-11308
▁masc	-11309
▁Others	-11310
▁autobi	-11311
▁cuisine	-11312
▁belonging	-11313
▁supplement	-11314
▁Productions	-11315
▁specialized	-11316
▁instructions	-11317
May	-11318
bing	-11319
high	-11320
imir	-11321
iper	-11322
umps	-11323
▁Ski	-11324
aukee	-11325
color	-11326
esign	-11327
ucker	-11328
▁1906	-11329
▁Quest	-11330
▁ports	-11331
▁Individ	-11332
▁Results	-11333
▁junction	-11334
▁Charlotte	-11335
▁Similarly	-11336
▁commented	-11337
▁lieutenant	-11338
zed	-11339
▁avo	-11340
overed	-11341
rowing	-11342
▁sounds	-11343
▁reserves	-11344
Par	-11345
aja	-11346
gun	-11347
▁Imm	-11348
▁Tech	-11349
▁heir	-11350
▁Total	-11351
▁polar	-11352
▁prove	-11353
▁Clarke	-11354
▁Having	-11355
▁Religious	-11356
▁opponents	-11357
orms	-11358
rogen	-11359
▁Hous	-11360
▁Swan	-11361
▁Scout	-11362
▁tight	-11363
Station	-11364
▁golden	-11365
▁precip	-11366
▁honorary	-11367
cat	-11368
▁Eff	-11369
▁fulf	-11370
▁1968,	-11371
▁Delhi	-11372
▁reflected	-11373
▁strengthen	-11374
%.	-11375
ceae	-11376
▁hyd	-11377
rians	-11378
▁Raid	-11379
waukee	-11380
▁analy	-11381
▁Wagner	-11382
▁Strateg	-11383
▁devoted	-11384
▁dramatic	-11385
axy	-11386
lee	-11387
▁Dh	-11388
▁Dw	-11389
▁Gay	-11390
eters	-11391
▁Chen	-11392
▁Kash	-11393
▁Nine	-11394
▁Prad	-11395
▁relay	-11396
▁conven	-11397
▁smooth	-11398
▁Archive	-11399
▁Assyrian	-11400
▁Beginning	-11401
▁Northwest	-11402
▁Encyclopedia	-11403
dal	-11404
▁4-	-11405
▁Berm	-11406
▁Delaware	-11407
roid	-11408
▁Hat	-11409
erver	-11410
▁Math	-11411
▁guar	-11412
▁Study	-11413
▁rescue	-11414
▁cancelled	-11415
▁permission	-11416
93	-11417
AN	-11418
▁Bahá	-11419
▁prev	-11420
tingham	-11421
▁Bright	-11422
▁drafted	-11423
▁extract	-11424
▁revival	-11425
▁Albanian	-11426
▁geometry	-11427
▁novelist	-11428
▁procedures	-11429
▁(1)	-11430
owell	-11431
terior	-11432
▁Carne	-11433
▁Isaac	-11434
▁Pedro	-11435
▁(2003)	-11436
▁picked	-11437
▁Iceland	-11438
▁Augustus	-11439
▁Exchange	-11440
▁sequences	-11441
▁synthesis	-11442
▁technologies	-11443
awk	-11444
uchy	-11445
▁kne	-11446
▁rid	-11447
▁mines	-11448
▁deemed	-11449
▁museums	-11450
▁clinical	-11451
▁relating	-11452
background	-11453
umen	-11454
uper	-11455
▁Yam	-11456
ochem	-11457
redit	-11458
▁1908	-11459
▁Marx	-11460
leyball	-11461
▁Figure	-11462
iability	-11463
▁Nigeria	-11464
▁dollars	-11465
▁shorter	-11466
▁nickname	-11467
▁exclusive	-11468
lett	-11469
rium	-11470
▁Coal	-11471
▁frog	-11472
▁Harvey	-11473
▁Norfolk	-11474
▁enemies	-11475
01	-11476
agi	-11477
borg	-11478
onna	-11479
acked	-11480
▁rout	-11481
elfare	-11482
▁1973,	-11483
▁elabor	-11484
ordshire	-11485
▁Writing	-11486
▁traveled	-11487
▁variants	-11488
▁respective	-11489
DE	-11490
isan	-11491
olph	-11492
▁Dim	-11493
▁hur	-11494
appro	-11495
▁Schw	-11496
▁Sean	-11497
istent	-11498
▁Creat	-11499
▁Geoff	-11500
▁Monday	-11501
▁Ronald	-11502
▁Aristotle	-11503
▁inaugural	-11504
▁organised	-11505
▁cricketers	-11506
▁Documentary	-11507
acles	-11508
▁Eddie	-11509
▁Brooks	-11510
▁Poetry	-11511
▁Wednes	-11512
▁depict	-11513
▁mosque	-11514
▁namely	-11515
▁pollution	-11516
▁interaction	-11517
▁representatives	-11518
DS	-11519
uum	-11520
Cymru	-11521
woman	-11522
apters	-11523
▁Events	-11524
▁readers	-11525
Electoral	-11526
▁Botswana	-11527
▁creative	-11528
outheastern	-11529
▁predominantly	-11530
rus	-11531
----	-11532
rise	-11533
▁Hil	-11534
▁Nat	-11535
oints	-11536
▁1967,	-11537
▁orche	-11538
▁Nathan	-11539
▁Friends	-11540
role	-11541
thal	-11542
irteen	-11543
▁escort	-11544
▁Advanced	-11545
▁Criminal	-11546
▁sessions	-11547
▁Um	-11548
olen	-11549
spec	-11550
▁(15	-11551
▁Maz	-11552
encer	-11553
▁Pete	-11554
▁Prag	-11555
▁pull	-11556
▁abuse	-11557
agement	-11558
▁Gothic	-11559
▁Theory	-11560
▁funded	-11561
▁Popular	-11562
▁requested	-11563
ük	-11564
▁Ae	-11565
bank	-11566
▁Meh	-11567
▁hem	-11568
music	-11569
▁Malt	-11570
▁(2022	-11571
▁hybrid	-11572
▁talent	-11573
85	-11574
▁GT	-11575
arms	-11576
▁gallery	-11577
▁educator	-11578
dimensional	-11579
BE	-11580
fan	-11581
sby	-11582
▁Inv	-11583
▁Ric	-11584
▁Sor	-11585
onial	-11586
▁drag	-11587
▁evac	-11588
▁radar	-11589
▁Boeing	-11590
▁sequel	-11591
▁removal	-11592
▁scatter	-11593
▁Phillips	-11594
▁abilities	-11595
▁predecessor	-11596
▁13.	-11597
amese	-11598
▁1870	-11599
▁Sang	-11600
▁Alpha	-11601
▁guide	-11602
agonist	-11603
▁Ludwig	-11604
▁Chairman	-11605
▁requiring	-11606
▁documented	-11607
ds	-11608
▁ju	-11609
list	-11610
week	-11611
▁forg	-11612
▁Screen	-11613
▁compat	-11614
▁expand	-11615
▁remark	-11616
▁repair	-11617
▁topics	-11618
ancellor	-11619
▁earning	-11620
▁relevant	-11621
▁concentrated	-11622
base	-11623
▁Din	-11624
▁wel	-11625
▁Mann	-11626
keeper	-11627
▁Vegas	-11628
▁photo	-11629
▁worst	-11630
▁Safety	-11631
▁closure	-11632
▁rebellion	-11633
▁Architecture	-11634
▁Rus	-11635
▁oct	-11636
ducer	-11637
▁Wals	-11638
▁vacc	-11639
itting	-11640
▁Angola	-11641
▁Albania	-11642
▁Commons	-11643
▁touring	-11644
▁Catherine	-11645
▁disorders	-11646
▁thereafter	-11647
▁interpreted	-11648
▁Parliamentary	-11649
▁#1	-11650
reck	-11651
▁Kill	-11652
▁1966,	-11653
▁abbre	-11654
▁remote	-11655
▁Yankees	-11656
▁familiar	-11657
▁Robertson	-11658
▁relegated	-11659
▁qualifying	-11660
VI	-11661
▁Ja	-11662
isch	-11663
▁NAS	-11664
▁Pic	-11665
▁Storm	-11666
▁lakes	-11667
writing	-11668
▁(2008)	-11669
hn	-11670
aws	-11671
ffer	-11672
▁Ans	-11673
▁Cars	-11674
▁mini	-11675
inking	-11676
achment	-11677
▁Higher	-11678
▁Operator	-11679
sm	-11680
auc	-11681
two	-11682
▁Mé	-11683
ogan	-11684
▁Mak	-11685
▁stem	-11686
▁tone	-11687
▁Serge	-11688
▁metab	-11689
▁notice	-11690
▁Chapter	-11691
▁thereby	-11692
▁Salvador	-11693
▁engineers	-11694
▁submitted	-11695
liga	-11696
insky	-11697
▁Carr	-11698
▁Peru	-11699
common	-11700
legiate	-11701
▁permit	-11702
▁surname	-11703
▁sponsored	-11704
▁Operations	-11705
NS	-11706
erm	-11707
offs	-11708
▁exha	-11709
▁alive	-11710
▁manip	-11711
▁overl	-11712
▁Fiction	-11713
▁weekend	-11714
▁withdrew	-11715
▁difficulties	-11716
▁sportspeople	-11717
/19	-11718
irth	-11719
▁Soph	-11720
▁Tommy	-11721
▁Watson	-11722
▁Bengali	-11723
▁Johnston	-11724
▁currency	-11725
eps	-11726
ixes	-11727
elect	-11728
▁tomb	-11729
▁wore	-11730
▁Bears	-11731
▁infer	-11732
▁Leader	-11733
▁latest	-11734
▁Outstanding	-11735
▁improvements	-11736
▁consciousness	-11737
▁Oz	-11738
▁Lomb	-11739
▁bath	-11740
▁Arnold	-11741
▁Future	-11742
▁promin	-11743
▁runners	-11744
▁observations	-11745
Pr	-11746
One	-11747
adau	-11748
opol	-11749
gener	-11750
izers	-11751
▁Todd	-11752
▁disb	-11753
▁fill	-11754
▁Ghost	-11755
▁Rhode	-11756
▁Schol	-11757
▁curve	-11758
▁pharm	-11759
▁(2002)	-11760
▁allies	-11761
▁Algeria	-11762
▁holiday	-11763
▁Campaign	-11764
▁similarly	-11765
▁kit	-11766
▁Roll	-11767
▁subt	-11768
▁Citiz	-11769
▁Somers	-11770
▁grades	-11771
▁Belfast	-11772
rous	-11773
▁Cec	-11774
▁Leo	-11775
▁lap	-11776
▁flex	-11777
astics	-11778
▁fewer	-11779
▁prayer	-11780
▁Present	-11781
▁coached	-11782
▁scholarship	-11783
▁Arrangements	-11784
alia	-11785
icia	-11786
▁Audi	-11787
▁Pick	-11788
▁rice	-11789
▁Birds	-11790
▁Claud	-11791
▁Iraqi	-11792
▁burned	-11793
▁enthus	-11794
▁consumer	-11795
▁lifetime	-11796
▁Milwaukee	-11797
▁infection	-11798
▁comprehensive	-11799
')	-11800
▁Et	-11801
▁Gael	-11802
▁twin	-11803
▁coinc	-11804
▁prest	-11805
▁surpr	-11806
▁intern	-11807
▁followers	-11808
▁highlight	-11809
▁6:	-11810
dest	-11811
▁Intro	-11812
forming	-11813
through	-11814
▁depends	-11815
▁displays	-11816
▁painters	-11817
▁pandemic	-11818
▁Musicians	-11819
▁arrangements	-11820
jab	-11821
▁aw	-11822
fast	-11823
oded	-11824
urse	-11825
▁Mul	-11826
▁Ord	-11827
▁Colin	-11828
▁diver	-11829
▁Formula	-11830
▁Jamaica	-11831
▁walking	-11832
▁disaster	-11833
▁Palestine	-11834
▁electrons	-11835
▁mythology	-11836
▁perspective	-11837
RL	-11838
oi	-11839
Pol	-11840
rika	-11841
▁bay	-11842
▁tea	-11843
▁Pand	-11844
▁Swim	-11845
▁merc	-11846
▁tape	-11847
▁André	-11848
▁Delta	-11849
▁Braves	-11850
▁Tasman	-11851
naissance	-11852
▁Portland	-11853
▁Stanford	-11854
▁56	-11855
Best	-11856
anti	-11857
icus	-11858
rior	-11859
▁anchor	-11860
▁housed	-11861
▁gardens	-11862
▁pianist	-11863
▁enforcement	-11864
▁Revolutionary	-11865
nal	-11866
umi	-11867
emis	-11868
▁Eld	-11869
ctuary	-11870
▁Guild	-11871
▁(2000)	-11872
▁priests	-11873
▁raising	-11874
▁rotation	-11875
▁Recipients	-11876
▁metropolitan	-11877
▁philosophers	-11878
91	-11879
Ab	-11880
pp	-11881
▁CF	-11882
idad	-11883
▁Use	-11884
▁aest	-11885
▁ties	-11886
▁Perry	-11887
atinate	-11888
▁Greeks	-11889
▁answer	-11890
▁exhibit	-11891
criptions	-11892
▁sciences	-11893
▁Nottingham	-11894
rov	-11895
ubes	-11896
▁1964,	-11897
athered	-11898
▁Circle	-11899
▁cartoon	-11900
Commencement	-11901
vor	-11902
▁Ard	-11903
first	-11904
ocity	-11905
▁subsc	-11906
▁tasks	-11907
▁Schwar	-11908
▁warfare	-11909
▁Tournament	-11910
▁efficiency	-11911
sim	-11912
▁MS	-11913
▁Pam	-11914
▁disk	-11915
histor	-11916
▁Sierra	-11917
▁labels	-11918
▁rocket	-11919
▁Lebanon	-11920
▁options	-11921
▁Estonian	-11922
▁independently	-11923
.;	-11924
ju	-11925
bone	-11926
▁Nan	-11927
▁Hamb	-11928
▁Jury	-11929
▁doors	-11930
▁Davies	-11931
▁centres	-11932
▁outdoor	-11933
▁inhabited	-11934
▁simultaneously	-11935
arre	-11936
okes	-11937
▁Cad	-11938
prene	-11939
▁Treas	-11940
▁Murphy	-11941
▁Rovers	-11942
▁mixing	-11943
▁targets	-11944
▁varying	-11945
▁approached	-11946
▁casualties	-11947
▁indicating	-11948
▁proportion	-11949
▁preparation	-11950
opl	-11951
both	-11952
▁CPU	-11953
▁Daw	-11954
▁les	-11955
▁Viol	-11956
ambers	-11957
▁1983.	-11958
▁saved	-11959
elected	-11960
fecture	-11961
▁Fellow	-11962
▁Google	-11963
▁looked	-11964
▁manual	-11965
▁portions	-11966
▁discipline	-11967
▁Conservation	-11968
iji	-11969
ück	-11970
agne	-11971
▁craft	-11972
▁(2001)	-11973
▁parking	-11974
▁populated	-11975
▁spacecraft	-11976
▁nominations	-11977
▁outstanding	-11978
DI	-11979
sa	-11980
var	-11981
zep	-11982
▁Mik	-11983
▁Dest	-11984
▁hole	-11985
▁Deuts	-11986
▁Oscar	-11987
▁legit	-11988
▁teeth	-11989
▁theor	-11990
reprene	-11991
▁Rogers	-11992
▁Product	-11993
▁abstract	-11994
▁believes	-11995
▁sculptor	-11996
▁sculpture	-11997
▁illustrated	-11998
/200	-11999
▁Arms	-12000
▁Ober	-12001
▁Rams	-12002
▁maps	-12003
▁pist	-12004
umbent	-12005
▁define	-12006
▁Hopkins	-12007
▁smoking	-12008
▁reporter	-12009
▁situations	-12010
▁cooperation	-12011
aso	-12012
uzz	-12013
notes	-12014
▁symp	-12015
▁1944,	-12016
▁optim	-12017
▁Legend	-12018
▁hidden	-12019
▁tribut	-12020
ervatory	-12021
▁sporting	-12022
▁depression	-12023
▁separation	-12024
▁distinguish	-12025
▁fib	-12026
▁Crus	-12027
▁Cust	-12028
▁bull	-12029
▁merely	-12030
▁Thunder	-12031
▁connects	-12032
▁informed	-12033
▁shopping	-12034
▁apartment	-12035
▁Laboratory	-12036
▁challenges	-12037
▁internationally	-12038
82	-12039
▁Fras	-12040
▁syll	-12041
▁Artist	-12042
▁explains	-12043
▁operators	-12044
▁regulation	-12045
▁consequences	-12046
PR	-12047
oil	-12048
▁61	-12049
elin	-12050
oshi	-12051
▁250	-12052
▁Toy	-12053
▁bag	-12054
askat	-12055
▁1905	-12056
▁Must	-12057
▁dict	-12058
▁diox	-12059
▁Singh	-12060
▁Using	-12061
ulatory	-12062
▁Bennett	-12063
▁dismissed	-12064
▁Eventually	-12065
▁territorial	-12066
▁Demographics	-12067
▁administered	-12068
ben	-12069
hai	-12070
itol	-12071
velt	-12072
▁Rah	-12073
icken	-12074
▁Serie	-12075
▁eagle	-12076
▁belongs	-12077
▁citizen	-12078
▁ministry	-12079
▁aluminium	-12080
▁promoting	-12081
▁Kem	-12082
annah	-12083
▁sick	-12084
orient	-12085
▁helps	-12086
▁Spears	-12087
▁Constit	-12088
▁assisted	-12089
▁thinking	-12090
▁adventure	-12091
iu	-12092
oro	-12093
▁AF	-12094
▁Ny	-12095
eyer	-12096
▁cann	-12097
ischer	-12098
▁1986.	-12099
▁Block	-12100
▁oblig	-12101
▁pushed	-12102
orporated	-12103
▁diversity	-12104
▁probability	-12105
If	-12106
hal	-12107
roe	-12108
ovich	-12109
▁hear	-12110
▁Brune	-12111
▁Charts	-12112
▁Episcopal	-12113
▁integration	-12114
pert	-12115
zing	-12116
▁Lux	-12117
▁McL	-12118
▁Suz	-12119
ithms	-12120
stadt	-12121
▁Folk	-12122
▁hunt	-12123
▁Break	-12124
▁cargo	-12125
▁waves	-12126
▁Mobile	-12127
▁phosph	-12128
▁posted	-12129
▁Armstrong	-12130
▁insurance	-12131
arl	-12132
sub	-12133
▁Peng	-12134
▁Grade	-12135
▁defended	-12136
▁moderate	-12137
▁Assistant	-12138
▁Lithuania	-12139
▁explanation	-12140
▁productions	-12141
fly	-12142
bage	-12143
▁Kre	-12144
▁Sul	-12145
▁Yuk	-12146
▁sam	-12147
group	-12148
▁Chal	-12149
▁Reed	-12150
▁Homer	-12151
▁Concert	-12152
▁confess	-12153
▁phenomenon	-12154
PL	-12155
etta	-12156
cycle	-12157
▁Cruz	-12158
▁Left	-12159
▁Yang	-12160
▁prox	-12161
Category	-12162
▁Skating	-12163
▁theolog	-12164
▁viewers	-12165
▁1)	-12166
▁Kol	-12167
▁cow	-12168
isons	-12169
▁Case	-12170
▁sket	-12171
▁Hudson	-12172
▁varied	-12173
▁vulner	-12174
▁Starting	-12175
▁framework	-12176
▁relegation	-12177
87	-12178
ados	-12179
▁node	-12180
makers	-12181
rupted	-12182
▁Bohem	-12183
▁stops	-12184
▁Palmer	-12185
▁departed	-12186
▁recalled	-12187
▁inherited	-12188
▁PlayStation	-12189
▁observation	-12190
err	-12191
▁67	-12192
beck	-12193
▁tip	-12194
antle	-12195
ijing	-12196
▁Cities	-12197
▁fitted	-12198
▁qualify	-12199
▁Churches	-12200
▁supplied	-12201
▁victories	-12202
▁suspension	-12203
▁Filmography	-12204
communications	-12205
esty	-12206
rawn	-12207
▁(2)	-12208
South	-12209
ilian	-12210
▁noise	-12211
▁toler	-12212
▁seemed	-12213
ublished	-12214
▁Composition	-12215
zig	-12216
bird	-12217
thel	-12218
▁haz	-12219
ische	-12220
isers	-12221
earing	-12222
▁refugees	-12223
▁decorated	-12224
▁playwright	-12225
▁punishment	-12226
▁designation	-12227
▁developments	-12228
Or	-12229
▁53	-12230
▁66	-12231
June	-12232
▁Kin	-12233
▁Brom	-12234
iership	-12235
▁Mechan	-12236
▁Guardian	-12237
▁controls	-12238
▁decrease	-12239
▁internet	-12240
▁intermediate	-12241
▁sav	-12242
agers	-12243
entle	-12244
utors	-12245
▁Flow	-12246
▁Jung	-12247
▁Lett	-12248
▁Kenya	-12249
▁disch	-12250
▁files	-12251
▁shops	-12252
▁retain	-12253
▁Alfonso	-12254
▁database	-12255
▁maintaining	-12256
gra	-12257
whe	-12258
▁Mig	-12259
▁Cauc	-12260
▁ampl	-12261
▁1942,	-12262
▁1965,	-12263
▁Travel	-12264
▁module	-12265
▁pursue	-12266
▁predict	-12267
uncredited	-12268
▁physicist	-12269
▁formations	-12270
▁Moz	-12271
owski	-12272
pling	-12273
▁fasc	-12274
listed	-12275
▁Atlas	-12276
▁siege	-12277
▁Chilean	-12278
▁consolid	-12279
▁Citations	-12280
▁contested	-12281
▁economics	-12282
hl	-12283
▁2-	-12284
enda	-12285
phew	-12286
▁Sou	-12287
lette	-12288
▁1903	-12289
▁Agre	-12290
▁overt	-12291
▁chapel	-12292
▁analyst	-12293
▁sharing	-12294
▁venture	-12295
▁calendar	-12296
▁syndrome	-12297
▁corruption	-12298
▁py	-12299
atha	-12300
unes	-12301
▁sou	-12302
▁Ches	-12303
▁Hess	-12304
idance	-12305
▁verse	-12306
clesiast	-12307
▁comfort	-12308
▁filming	-12309
▁athletic	-12310
▁incidents	-12311
▁restrictions	-12312
ohr	-12313
–12	-12314
▁HD	-12315
word	-12316
▁Bord	-12317
▁Isle	-12318
▁flew	-12319
▁1985.	-12320
▁violin	-12321
▁funeral	-12322
▁reveals	-12323
▁Bachelor	-12324
▁overseas	-12325
▁Interview	-12326
▁Indigenous	-12327
igi	-12328
amer	-12329
▁ath	-12330
▁leaf	-12331
▁pret	-12332
govern	-12333
▁Aster	-12334
▁bonds	-12335
▁bonus	-12336
▁clergy	-12337
▁Edwards	-12338
▁demands	-12339
▁Florence	-12340
▁attending	-12341
▁communist	-12342
▁Continental	-12343
idi	-12344
mount	-12345
rooms	-12346
▁1904	-12347
ulates	-12348
▁Manit	-12349
▁boxing	-12350
▁secular	-12351
▁naturally	-12352
En	-12353
sl	-12354
amas	-12355
▁15.	-12356
▁Cycl	-12357
▁Roth	-12358
tenham	-12359
▁1987.	-12360
▁Beaut	-12361
osevelt	-12362
▁Gibson	-12363
▁Wonder	-12364
▁indeed	-12365
▁prince	-12366
▁Leonard	-12367
▁footage	-12368
▁printing	-12369
▁Stockholm	-12370
ser	-12371
▁ty	-12372
000,	-12373
inda	-12374
rift	-12375
plete	-12376
rieved	-12377
▁disapp	-12378
▁Raymond	-12379
▁biology	-12380
▁pointed	-12381
▁Johannes	-12382
▁valuable	-12383
▁Wednesday	-12384
▁departments	-12385
▁potentially	-12386
tym	-12387
abel	-12388
▁Ahmad	-12389
▁Rural	-12390
▁sharp	-12391
▁Novels	-12392
official	-12393
▁Maurice	-12394
▁segments	-12395
▁survival	-12396
cal	-12397
was	-12398
empl	-12399
horn	-12400
▁Buc	-12401
▁Veh	-12402
▁Bros	-12403
▁Chan	-12404
▁Clif	-12405
▁Golf	-12406
▁2006)	-12407
▁Ahmed	-12408
▁Solar	-12409
▁Hispan	-12410
▁Universe	-12411
▁fortress	-12412
OT	-12413
bie	-12414
▁WA	-12415
▁Yen	-12416
▁(202	-12417
▁1860	-12418
ailing	-12419
▁wants	-12420
playing	-12421
▁stabil	-12422
▁Builder	-12423
▁fifteen	-12424
▁Selected	-12425
▁delivery	-12426
▁estimate	-12427
▁suppress	-12428
▁novelists	-12429
▁neighbouring	-12430
▁Kos	-12431
▁Mis	-12432
▁gif	-12433
▁load	-12434
stable	-12435
▁ninet	-12436
entieth	-12437
▁fabric	-12438
▁Release	-12439
▁waiting	-12440
▁favorite	-12441
NY	-12442
uton	-12443
▁Cly	-12444
▁caps	-12445
▁Sudan	-12446
▁Voice	-12447
▁Julius	-12448
▁breast	-12449
ods	-12450
▁ST	-12451
held	-12452
▁Pon	-12453
▁Room	-12454
▁hier	-12455
cludes	-12456
▁1960,	-12457
▁Flying	-12458
▁Panama	-12459
▁Powers	-12460
▁aboard	-12461
building	-12462
▁Solomon	-12463
▁bombing	-12464
▁Timeline	-12465
▁Economics	-12466
▁earthquake	-12467
eu	-12468
▁14.	-12469
▁Jar	-12470
▁Ost	-12471
▁sky	-12472
teneg	-12473
▁Fres	-12474
▁Shin	-12475
▁pupils	-12476
▁Jacques	-12477
▁thermal	-12478
▁Carnegie	-12479
▁managing	-12480
▁Roosevelt	-12481
DNA	-12482
odyn	-12483
▁Him	-12484
▁Lac	-12485
▁tet	-12486
▁Liga	-12487
▁forb	-12488
▁Newsp	-12489
▁femin	-12490
▁spell	-12491
▁enabled	-12492
▁lawsuit	-12493
▁Highland	-12494
▁conflicts	-12495
▁withdrawal	-12496
▁necessarily	-12497
2-	-12498
OP	-12499
Oct	-12500
▁Ya	-12501
ylan	-12502
▁130	-12503
▁Abs	-12504
▁Put	-12505
orate	-12506
oyage	-12507
uxili	-12508
▁oral	-12509
levard	-12510
▁Gates	-12511
▁Roche	-12512
▁tours	-12513
▁handle	-12514
▁binding	-12515
▁deliber	-12516
▁extends	-12517
▁powered	-12518
▁Filipino	-12519
▁confused	-12520
▁momentum	-12521
▁conspiracy	-12522
▁counterpart	-12523
afe	-12524
assy	-12525
iffs	-12526
▁Rou	-12527
isdom	-12528
ocent	-12529
alling	-12530
▁truck	-12531
olithic	-12532
▁Ethiop	-12533
▁Saskat	-12534
▁fallen	-12535
▁involve	-12536
▁accurate	-12537
▁travelled	-12538
▁elementary	-12539
▁constituencies	-12540
ete	-12541
eto	-12542
▁).	-12543
▁cyl	-12544
ellar	-12545
▁1902	-12546
▁Etym	-12547
ateral	-12548
▁Apart	-12549
▁(1997)	-12550
▁(1998)	-12551
▁tissue	-12552
▁charity	-12553
▁finance	-12554
▁birthday	-12555
▁Nashville	-12556
▁recognize	-12557
▁wrestling	-12558
▁Westminster	-12559
child	-12560
owder	-12561
opened	-12562
▁Campus	-12563
▁skiing	-12564
▁battery	-12565
▁Theodore	-12566
▁spectrum	-12567
▁comprises	-12568
▁emigrants	-12569
kov	-12570
uli	-12571
▁coe	-12572
ensen	-12573
▁1909	-12574
▁Bene	-12575
▁bits	-12576
▁sugar	-12577
channel	-12578
▁Middles	-12579
▁updated	-12580
▁transformed	-12581
▁photographer	-12582
EP	-12583
NG	-12584
named	-12585
▁sang	-12586
▁basin	-12587
▁drain	-12588
▁exile	-12589
▁taxes	-12590
regular	-12591
▁Einstein	-12592
▁Wildlife	-12593
▁absorbed	-12594
▁comedian	-12595
▁certified	-12596
;"	-12597
UK	-12598
iden	-12599
▁MHz	-12600
▁McM	-12601
Roman	-12602
archy	-12603
imony	-12604
▁Decl	-12605
▁filter	-12606
▁athlete	-12607
▁placing	-12608
Nov	-12609
esch	-12610
▁Cha	-12611
▁liv	-12612
namese	-12613
▁Congo	-12614
▁Louise	-12615
▁antiqu	-12616
▁errors	-12617
▁feeling	-12618
▁imprisoned	-12619
uto	-12620
ytic	-12621
▁duo	-12622
utory	-12623
▁Acts	-12624
▁Bent	-12625
▁Fine	-12626
▁deck	-12627
mother	-12628
▁Towns	-12629
▁Comedy	-12630
▁Motors	-12631
▁destro	-12632
▁lights	-12633
▁surviv	-12634
▁resumed	-12635
▁warning	-12636
foundland	-12637
▁Christie	-12638
▁mentions	-12639
▁Protected	-12640
▁democracy	-12641
▁maintains	-12642
▁Pul	-12643
adows	-12644
heric	-12645
osing	-12646
▁lift	-12647
Christ	-12648
▁Franç	-12649
▁Neigh	-12650
▁doesn	-12651
▁genera	-12652
liminary	-12653
▁ratings	-12654
▁wedding	-12655
▁discontinued	-12656
▁interactions	-12657
▁5-	-12658
ipel	-12659
▁800	-12660
▁Das	-12661
▁ing	-12662
▁Shep	-12663
▁ethn	-12664
▁Parad	-12665
▁bones	-12666
▁sheep	-12667
▁spend	-12668
ternoon	-12669
▁Albany	-12670
▁patrol	-12671
▁collaps	-12672
▁athletics	-12673
▁surrender	-12674
▁progressive	-12675
:#	-12676
▁Deb	-12677
▁Kid	-12678
▁Luke	-12679
second	-12680
▁cloud	-12681
▁marry	-12682
▁Sherman	-12683
▁escaped	-12684
▁missiles	-12685
UP	-12686
▁77	-12687
inas	-12688
▁Ada	-12689
▁boot	-12690
▁argue	-12691
▁arsen	-12692
▁rulers	-12693
▁thanks	-12694
▁Liberty	-12695
▁shifted	-12696
▁suburbs	-12697
▁demanded	-12698
▁addressed	-12699
▁stability	-12700
▁accommodate	-12701
ups	-12702
atta	-12703
▁Marl	-12704
▁fran	-12705
forest	-12706
▁Anders	-12707
▁orient	-12708
▁putting	-12709
▁Somerset	-12710
▁governing	-12711
▁ic	-12712
Cent	-12713
assi	-12714
made	-12715
▁Fly	-12716
▁jew	-12717
utter	-12718
▁prol	-12719
▁pump	-12720
▁sure	-12721
reated	-12722
▁1984.	-12723
▁afford	-12724
▁entity	-12725
▁layout	-12726
European	-12727
▁Bermuda	-12728
▁columns	-12729
▁focuses	-12730
0),	-12731
orp	-12732
▁12-	-12733
▁bod	-12734
casts	-12735
▁Doug	-12736
▁Faith	-12737
▁Punjab	-12738
▁ritual	-12739
▁Kenneth	-12740
▁consent	-12741
▁extinct	-12742
▁strings	-12743
▁Venezuela	-12744
▁"[	-12745
gins	-12746
irms	-12747
▁Lic	-12748
▁Nas	-12749
▁ber	-12750
▁Calg	-12751
▁corps	-12752
▁Ravens	-12753
▁brands	-12754
▁visits	-12755
▁sisters	-12756
▁Junction	-12757
▁Tag	-12758
▁scr	-12759
anger	-12760
ocene	-12761
▁bulk	-12762
▁enact	-12763
▁sleep	-12764
angular	-12765
▁Gaelic	-12766
▁Shield	-12767
▁affair	-12768
▁indoor	-12769
▁temples	-12770
▁legislative	-12771
▁Newfoundland	-12772
Pal	-12773
uly	-12774
▁Jur	-12775
aping	-12776
▁Wend	-12777
▁asks	-12778
▁Essex	-12779
▁kinds	-12780
▁Durham	-12781
▁Reform	-12782
▁Against	-12783
▁Masters	-12784
▁magnetic	-12785
▁receiver	-12786
▁Currently	-12787
▁destination	-12788
ND	-12789
▁VII	-12790
chron	-12791
inced	-12792
▁gear	-12793
▁Eagle	-12794
▁Forum	-12795
▁Amateur	-12796
▁interviews	-12797
▁philosophical	-12798
],	-12799
▁85	-12800
aders	-12801
oting	-12802
▁bicy	-12803
ounsel	-12804
▁anxiety	-12805
▁vocalist	-12806
▁continent	-12807
▁configuration	-12808
CAR	-12809
Jan	-12810
What	-12811
inos	-12812
month	-12813
▁benz	-12814
▁Recon	-12815
▁Shang	-12816
founded	-12817
▁Ferdin	-12818
▁fairly	-12819
▁muscle	-12820
▁parishes	-12821
▁excellent	-12822
05	-12823
ardi	-12824
asse	-12825
elia	-12826
▁Raf	-12827
▁Bonn	-12828
▁Marcus	-12829
▁Prague	-12830
▁Account	-12831
▁comments	-12832
ologically	-12833
▁laboratory	-12834
gi	-12835
asp	-12836
kara	-12837
ophon	-12838
▁grey	-12839
▁pray	-12840
▁Allan	-12841
▁Planet	-12842
▁matrix	-12843
▁preval	-12844
▁Cabinet	-12845
▁baptism	-12846
▁bankruptcy	-12847
▁quarterback	-12848
dig	-12849
mid	-12850
anne	-12851
onne	-12852
▁Jamie	-12853
▁(1999)	-12854
▁Angels	-12855
▁Source	-12856
▁chronic	-12857
▁Monteneg	-12858
▁Character	-12859
▁awareness	-12860
aho	-12861
▁IT	-12862
▁Yu	-12863
enos	-12864
▁Dame	-12865
▁Text	-12866
▁1976.	-12867
▁Abdul	-12868
▁Watch	-12869
▁blind	-12870
inceton	-12871
restrial	-12872
▁computing	-12873
▁improvement	-12874
▁na	-12875
▁Ster	-12876
▁axis	-12877
▁scen	-12878
▁1961,	-12879
▁elite	-12880
▁rifle	-12881
osexual	-12882
▁Holmes	-12883
▁herald	-12884
▁artwork	-12885
▁lawyers	-12886
▁Railways	-12887
▁fighters	-12888
▁convinced	-12889
▁emotional	-12890
▁occurring	-12891
▁specified	-12892
▁initiative	-12893
▁circulation	-12894
▁inscription	-12895
▁Esc	-12896
▁ble	-12897
▁fee	-12898
▁Less	-12899
▁Tall	-12900
phalia	-12901
▁1941,	-12902
▁Goiás	-12903
▁Rican	-12904
▁Ridge	-12905
▁flour	-12906
▁overw	-12907
▁Period	-12908
▁apprec	-12909
original	-12910
▁Artemis	-12911
▁Cameron	-12912
▁altered	-12913
/3	-12914
ansk	-12915
sole	-12916
athon	-12917
▁clan	-12918
▁revol	-12919
▁vital	-12920
▁Without	-12921
▁reorgan	-12922
▁Medieval	-12923
▁disputed	-12924
▁realized	-12925
▁statistical	-12926
▁Aw	-12927
agar	-12928
ewise	-12929
otten	-12930
▁Poll	-12931
▁Rush	-12932
▁exit	-12933
▁pole	-12934
▁punk	-12935
unning	-12936
▁Arama	-12937
▁Flora	-12938
▁borrow	-12939
▁notion	-12940
December	-12941
▁Complete	-12942
▁Moreover	-12943
▁integral	-12944
▁surprise	-12945
▁Petersburg	-12946
▁reconstruction	-12947
.).	-12948
asan	-12949
uros	-12950
eting	-12951
▁Dere	-12952
▁1948,	-12953
▁Birth	-12954
▁Danny	-12955
▁adjust	-12956
▁Rolling	-12957
▁eventual	-12958
▁presents	-12959
▁literally	-12960
▁Evangelical	-12961
▁Cave	-12962
▁Level	-12963
estrian	-12964
osystem	-12965
▁Arctic	-12966
▁Venice	-12967
▁compact	-12968
▁shelter	-12969
▁deposits	-12970
▁arguments	-12971
▁graduating	-12972
▁tournaments	-12973
tz	-12974
▁NC	-12975
▁MLB	-12976
quest	-12977
▁bell	-12978
▁1970.	-12979
▁Adolf	-12980
▁fraud	-12981
▁skill	-12982
itative	-12983
▁Burton	-12984
▁voiced	-12985
▁Workers	-12986
▁accompany	-12987
▁grandfather	-12988
▁legislature	-12989
▁Intelligence	-12990
▁participating	-12991
RE	-12992
mail	-12993
▁ask	-12994
▁YouT	-12995
▁pill	-12996
length	-12997
▁1980.	-12998
▁Stage	-12999
▁decide	-13000
▁easier	-13001
▁Prussia	-13002
▁Vermont	-13003
▁Fernando	-13004
▁Manitoba	-13005
▁theology	-13006
▁celebration	-13007
▁presentation	-13008
▁psychological	-13009
rh	-13010
acco	-13011
▁Kate	-13012
roleum	-13013
▁arose	-13014
▁Browns	-13015
▁Sharon	-13016
▁enable	-13017
▁Beijing	-13018
▁delayed	-13019
▁decreased	-13020
▁agreements	-13021
▁challenged	-13022
▁friendship	-13023
▁administrator	-13024
▁transformation	-13025
83	-13026
▁Esp	-13027
▁Jak	-13028
front	-13029
▁Mang	-13030
▁clay	-13031
▁2,000	-13032
▁antip	-13033
▁(2009)	-13034
▁Fraser	-13035
▁citing	-13036
▁membrane	-13037
▁resource	-13038
▁audiences	-13039
▁revolutionary	-13040
▁76	-13041
Brien	-13042
ormal	-13043
▁styl	-13044
ylogen	-13045
▁Range	-13046
▁forth	-13047
angered	-13048
▁cotton	-13049
anguages	-13050
▁Morning	-13051
▁exports	-13052
▁multipl	-13053
▁Chemical	-13054
▁Institution	-13055
▁Indianapolis	-13056
ded	-13057
iker	-13058
opic	-13059
oric	-13060
orum	-13061
ouch	-13062
▁Craw	-13063
▁2023.	-13064
▁Julian	-13065
▁Andrews	-13066
▁monthly	-13067
▁contracts	-13068
lis	-13069
▁Own	-13070
▁que	-13071
▁fluid	-13072
▁monks	-13073
▁Potter	-13074
▁chorus	-13075
▁firing	-13076
▁Preston	-13077
▁preserve	-13078
▁conquered	-13079
-12	-13080
lia	-13081
Brit	-13082
char	-13083
city	-13084
▁1907	-13085
▁empty	-13086
▁shots	-13087
Austral	-13088
stanbul	-13089
▁(1995)	-13090
▁engage	-13091
▁Gabriel	-13092
▁reverse	-13093
▁messages	-13094
▁mechanics	-13095
▁recipient	-13096
▁citizenship	-13097
iom	-13098
mal	-13099
hall	-13100
onal	-13101
artet	-13102
essed	-13103
▁(191	-13104
▁belt	-13105
inters	-13106
▁Achie	-13107
▁Natal	-13108
▁talks	-13109
▁trump	-13110
riculum	-13111
ifferent	-13112
produced	-13113
▁Gilbert	-13114
▁Madison	-13115
▁journals	-13116
▁complexity	-13117
FF	-13118
RS	-13119
Mon	-13120
bek	-13121
▁59	-13122
▁Aph	-13123
▁Pav	-13124
▁Diet	-13125
▁ride	-13126
▁nephew	-13127
▁Mercury	-13128
▁onwards	-13129
▁prosper	-13130
▁Slovenia	-13131
▁compiled	-13132
▁Boulevard	-13133
▁disbanded	-13134
▁comprising	-13135
HO	-13136
▁baby	-13137
▁unex	-13138
▁Banks	-13139
▁Dylan	-13140
▁memor	-13141
▁Darwin	-13142
▁Franco	-13143
▁Yellow	-13144
▁stronger	-13145
▁copyright	-13146
▁reporting	-13147
▁Vietnamese	-13148
▁pronounced	-13149
▁Republicans	-13150
▁continental	-13151
▁manuscripts	-13152
HF	-13153
uke	-13154
uku	-13155
▁Ing	-13156
▁Lot	-13157
iking	-13158
izard	-13159
▁Java	-13160
▁ages	-13161
▁gift	-13162
▁tube	-13163
randed	-13164
▁rivals	-13165
▁Aramaic	-13166
▁Schwarz	-13167
▁gathered	-13168
▁generate	-13169
▁premiere	-13170
▁libraries	-13171
▁underwent	-13172
▁competitors	-13173
AP	-13174
nost	-13175
▁Laz	-13176
atham	-13177
ulsion	-13178
▁Joint	-13179
▁Hughes	-13180
▁honors	-13181
▁patent	-13182
▁Calgary	-13183
▁acknowledged	-13184
four	-13185
–189	-13186
▁din	-13187
ifier	-13188
rable	-13189
▁Dram	-13190
▁Sons	-13191
chewan	-13192
monton	-13193
▁Bryan	-13194
▁(2011)	-13195
▁lineup	-13196
▁dioxide	-13197
▁imposed	-13198
▁Sacrament	-13199
iche	-13200
▁10%	-13201
▁16.	-13202
▁2–0	-13203
▁Lex	-13204
inted	-13205
ulous	-13206
▁Dunc	-13207
▁nerv	-13208
▁Table	-13209
▁laure	-13210
▁vowel	-13211
▁Sebast	-13212
▁mammals	-13213
▁Constitu	-13214
▁tourists	-13215
▁88	-13216
▁Mü	-13217
▁1898	-13218
▁Indo	-13219
▁bare	-13220
▁toll	-13221
atinum	-13222
modern	-13223
▁1958,	-13224
▁1979.	-13225
▁5,000	-13226
▁ruins	-13227
▁steal	-13228
GM	-13229
cin	-13230
–16	-13231
▁kg	-13232
▁Amy	-13233
▁Bast	-13234
▁Shir	-13235
▁Amiga	-13236
▁numer	-13237
munition	-13238
▁Hamburg	-13239
▁Picture	-13240
▁package	-13241
▁Anatolia	-13242
▁ancestry	-13243
▁Ministers	-13244
▁civilians	-13245
▁permanently	-13246
71	-13247
bin	-13248
opt	-13249
atem	-13250
raeli	-13251
▁fame	-13252
hausen	-13253
▁Caesar	-13254
▁Kazakh	-13255
▁overlo	-13256
▁minerals	-13257
▁thriller	-13258
clesiastical	-13259
76	-13260
▁63	-13261
rets	-13262
▁700	-13263
pring	-13264
▁Heat	-13265
▁1947,	-13266
▁Grammy	-13267
▁enroll	-13268
▁servant	-13269
▁aviation	-13270
▁Adventures	-13271
▁horizontal	-13272
BO	-13273
sur	-13274
upt	-13275
amma	-13276
oyle	-13277
▁NSW	-13278
▁Baby	-13279
▁Emir	-13280
▁boss	-13281
▁Julie	-13282
▁colours	-13283
▁prohibited	-13284
▁provisions	-13285
▁Agricultural	-13286
▁achievements	-13287
72	-13288
IDS	-13289
atri	-13290
mons	-13291
▁Kad	-13292
▁tum	-13293
▁Sent	-13294
isting	-13295
▁1963,	-13296
▁Arabs	-13297
▁Malay	-13298
▁https	-13299
▁persec	-13300
▁Pirates	-13301
▁Pradesh	-13302
▁insects	-13303
▁Articles	-13304
▁requirement	-13305
▁Fra	-13306
▁Zen	-13307
▁ris	-13308
world	-13309
▁ACLU	-13310
▁Sony	-13311
ricane	-13312
▁1943,	-13313
▁Glass	-13314
▁autumn	-13315
▁Gardens	-13316
▁speaker	-13317
▁feelings	-13318
▁prototype	-13319
▁guitarists	-13320
ów	-13321
▁Ful	-13322
▁cad	-13323
Black	-13324
aning	-13325
ennon	-13326
▁Auto	-13327
▁mans	-13328
▁Based	-13329
▁Blair	-13330
clusive	-13331
▁coffee	-13332
▁forcing	-13333
▁militia	-13334
▁algorithms	-13335
▁collective	-13336
▁theoretical	-13337
mud	-13338
▁sa	-13339
▁Syl	-13340
itely	-13341
quiry	-13342
racks	-13343
▁dust	-13344
mented	-13345
straße	-13346
urated	-13347
▁2007)	-13348
▁Devil	-13349
▁cryst	-13350
ouncill	-13351
▁(1996)	-13352
▁privile	-13353
▁velocity	-13354
▁Antarctic	-13355
gs	-13356
kan	-13357
boat	-13358
▁Flo	-13359
rators	-13360
vation	-13361
▁flank	-13362
▁laser	-13363
▁asking	-13364
▁Grammar	-13365
▁desired	-13366
▁willing	-13367
issa	-13368
▁173	-13369
▁MTV	-13370
▁tom	-13371
▁tru	-13372
ingle	-13373
▁Shar	-13374
▁Henri	-13375
▁Wells	-13376
icester	-13377
▁Gospel	-13378
▁finite	-13379
▁margin	-13380
uxiliary	-13381
▁indirect	-13382
▁Languages	-13383
▁resignation	-13384
VP	-13385
ña	-13386
chel	-13387
▁THE	-13388
Japan	-13389
built	-13390
▁Cosm	-13391
▁mall	-13392
▁milk	-13393
▁Brunei	-13394
▁execut	-13395
▁naming	-13396
ustrated	-13397
▁cooling	-13398
▁pioneer	-13399
▁Heinrich	-13400
▁contribute	-13401
▁Competition	-13402
▁imprisonment	-13403
▁72	-13404
adic	-13405
iago	-13406
▁Juda	-13407
▁athe	-13408
kinson	-13409
ullivan	-13410
▁Change	-13411
▁brigade	-13412
▁gaining	-13413
▁sending	-13414
▁surfaces	-13415
vironments	-13416
▁Ferdinand	-13417
▁Resources	-13418
▁extending	-13419
▁predicted	-13420
▁sacrifice	-13421
fa	-13422
SCO	-13423
him	-13424
▁rh	-13425
andy	-13426
erie	-13427
live	-13428
▁ash	-13429
▁Self	-13430
▁ammon	-13431
▁(2010)	-13432
▁airline	-13433
▁cutting	-13434
▁innings	-13435
▁minimal	-13436
▁transit	-13437
▁Bradford	-13438
▁petition	-13439
▁Churchill	-13440
▁repeatedly	-13441
▁immigration	-13442
▁considerably	-13443
▁AFC	-13444
▁pap	-13445
enson	-13446
leigh	-13447
▁raid	-13448
▁sung	-13449
▁boost	-13450
▁loyal	-13451
▁parad	-13452
▁skater	-13453
▁veteran	-13454
▁altitude	-13455
74	-13456
VA	-13457
Ste	-13458
▁OF	-13459
itus	-13460
▁CIA	-13461
alties	-13462
icking	-13463
▁botan	-13464
▁chest	-13465
▁slalom	-13466
▁closest	-13467
▁creates	-13468
▁sitting	-13469
▁arriving	-13470
▁guidance	-13471
▁kilometers	-13472
▁encountered	-13473
lesh	-13474
▁18.	-13475
byter	-13476
shine	-13477
▁Drum	-13478
▁Kane	-13479
▁mild	-13480
▁anthe	-13481
▁forty	-13482
▁rever	-13483
▁Edmund	-13484
▁Guitar	-13485
▁Ottawa	-13486
▁applic	-13487
▁anticip	-13488
▁judicial	-13489
▁renowned	-13490
▁Etymology	-13491
/4	-13492
ilo	-13493
olan	-13494
rica	-13495
–192	-13496
▁Kur	-13497
▁Shop	-13498
erving	-13499
▁1940,	-13500
▁1962,	-13501
▁Exped	-13502
▁ticket	-13503
▁100,000	-13504
▁Andalus	-13505
▁Dorothy	-13506
▁Heights	-13507
▁intense	-13508
▁Archives	-13509
▁Planning	-13510
▁Prussian	-13511
▁merchant	-13512
▁confusion	-13513
▁peninsula	-13514
▁completing	-13515
▁substitute	-13516
▁generations	-13517
▁Saskatchewan	-13518
Tur	-13519
nov	-13520
pit	-13521
usa	-13522
wind	-13523
yler	-13524
▁Rut	-13525
▁cir	-13526
▁nan	-13527
▁Link	-13528
▁soph	-13529
▁wish	-13530
▁Honda	-13531
▁Krish	-13532
▁drove	-13533
▁kills	-13534
▁simul	-13535
▁skull	-13536
▁Valent	-13537
▁Bradley	-13538
▁fastest	-13539
September	-13540
▁Commercial	-13541
▁households	-13542
▁underlying	-13543
▁Universities	-13544
Ed	-13545
ahu	-13546
omi	-13547
▁Ens	-13548
eness	-13549
piece	-13550
rison	-13551
▁Talk	-13552
ustion	-13553
▁Blake	-13554
▁danger	-13555
▁rebels	-13556
▁Stories	-13557
▁dealing	-13558
▁prepare	-13559
▁Cardinal	-13560
▁circular	-13561
▁findings	-13562
▁traveling	-13563
▁GC	-13564
▁Sex	-13565
ocide	-13566
▁Emmy	-13567
▁Ferr	-13568
▁Pasc	-13569
▁arrive	-13570
▁Working	-13571
▁virtually	-13572
▁Publishers	-13573
▁concentrations	-13574
–13	-13575
▁69	-13576
▁Og	-13577
nian	-13578
▁Jen	-13579
family	-13580
ogical	-13581
parent	-13582
▁Estab	-13583
▁Month	-13584
▁Tales	-13585
▁Heaven	-13586
▁arcade	-13587
▁Estonia	-13588
▁Simpson	-13589
▁Version	-13590
▁terrain	-13591
▁outbreak	-13592
▁consensus	-13593
imon	-13594
▁lib	-13595
▁epit	-13596
▁holes	-13597
▁liver	-13598
▁(1994)	-13599
▁culmin	-13600
▁Critics	-13601
▁110	-13602
▁17.	-13603
▁Tru	-13604
immer	-13605
▁neur	-13606
▁pale	-13607
cester	-13608
heimer	-13609
▁gauge	-13610
▁perpet	-13611
▁skiers	-13612
oriented	-13613
▁Tourist	-13614
▁diplomat	-13615
▁governed	-13616
▁Leicester	-13617
▁attacking	-13618
▁Generation	-13619
▁conjunction	-13620
lore	-13621
olio	-13622
▁Bag	-13623
▁Lif	-13624
three	-13625
▁Giov	-13626
manuel	-13627
▁Chapel	-13628
▁Harper	-13629
▁Sevent	-13630
▁ethics	-13631
▁telling	-13632
ea	-13633
bol	-13634
lag	-13635
ller	-13636
▁Bit	-13637
▁Wang	-13638
▁cere	-13639
▁1945.	-13640
▁Basel	-13641
▁doubt	-13642
▁honey	-13643
holders	-13644
quarter	-13645
▁Gerald	-13646
▁Wolver	-13647
▁diesel	-13648
▁sacred	-13649
▁prevented	-13650
▁architects	-13651
AM	-13652
vas	-13653
rost	-13654
unda	-13655
avier	-13656
▁Cork	-13657
▁Grim	-13658
▁feud	-13659
▁hect	-13660
ometer	-13661
▁grave	-13662
▁metaph	-13663
▁Engineers	-13664
–15	-13665
eras	-13666
▁50%	-13667
endum	-13668
rapped	-13669
▁1982.	-13670
▁Grove	-13671
▁Price	-13672
▁Rheoli	-13673
▁Collect	-13674
▁decides	-13675
▁Edmonton	-13676
▁Overview	-13677
▁Slovakia	-13678
▁emerging	-13679
▁enrolled	-13680
▁Agreement	-13681
▁teachings	-13682
▁attraction	-13683
tor	-13684
▁BI	-13685
▁Wu	-13686
July	-13687
arra	-13688
arte	-13689
avin	-13690
▁Aal	-13691
▁pig	-13692
anyon	-13693
stock	-13694
ubble	-13695
▁tram	-13696
prises	-13697
rology	-13698
▁1972.	-13699
▁Trump	-13700
▁dimin	-13701
▁stake	-13702
▁worker	-13703
▁abandon	-13704
▁editors	-13705
▁Physical	-13706
▁inflation	-13707
▁recruited	-13708
▁mechanisms	-13709
▁intervention	-13710
▁Ps	-13711
cule	-13712
ogie	-13713
▁Yah	-13714
atoes	-13715
▁Troy	-13716
▁jury	-13717
August	-13718
▁accus	-13719
▁penet	-13720
▁relie	-13721
▁Bundes	-13722
▁Dwight	-13723
▁Saturn	-13724
▁abbrev	-13725
▁resear	-13726
▁reward	-13727
▁riding	-13728
▁Complex	-13729
▁YouTube	-13730
▁scandal	-13731
▁Frontier	-13732
▁Literary	-13733
▁eligible	-13734
▁Adventure	-13735
▁Lancaster	-13736
▁Princeton	-13737
fin	-13738
isha	-13739
ourg	-13740
▁164	-13741
ogene	-13742
▁1850	-13743
▁bore	-13744
member	-13745
ocaust	-13746
tracks	-13747
▁amino	-13748
▁farms	-13749
▁virus	-13750
▁zones	-13751
▁Miguel	-13752
▁Wander	-13753
▁photos	-13754
▁trouble	-13755
▁transported	-13756
Ap	-13757
-21	-13758
▁Kö	-13759
▁mile	-13760
▁Plate	-13761
▁Indies	-13762
▁defending	-13763
▁accounting	-13764
▁democratic	-13765
▁capabilities	-13766
Qu	-13767
uh	-13768
lli	-13769
web	-13770
cott	-13771
path	-13772
▁165	-13773
▁Sap	-13774
human	-13775
▁1895	-13776
▁Dale	-13777
▁cort	-13778
▁tenth	-13779
▁Desert	-13780
▁Triple	-13781
▁cancel	-13782
▁handed	-13783
▁nomine	-13784
▁plural	-13785
▁promised	-13786
▁equations	-13787
▁psychology	-13788
▁suggesting	-13789
vy	-13790
ér	-13791
FOR	-13792
▁RP	-13793
mits	-13794
eston	-13795
▁Bagh	-13796
▁Gymn	-13797
▁Mull	-13798
▁Roma	-13799
▁fung	-13800
▁1981.	-13801
▁hoped	-13802
▁sweet	-13803
▁seized	-13804
▁overwhel	-13805
▁Elections	-13806
▁geographical	-13807
▁translations	-13808
SB	-13809
Russ	-13810
otto	-13811
▁Chi	-13812
▁McD	-13813
annon	-13814
ctica	-13815
▁Cant	-13816
▁Sold	-13817
▁Thai	-13818
pector	-13819
▁1968.	-13820
▁1971.	-13821
▁ghost	-13822
▁Duncan	-13823
▁Admiral	-13824
▁locomotive	-13825
▁unp	-13826
techn	-13827
▁1899	-13828
▁Ajax	-13829
▁Bras	-13830
▁quiet	-13831
▁rated	-13832
▁stolen	-13833
▁authent	-13834
▁chapters	-13835
▁dialogue	-13836
▁Recording	-13837
azi	-13838
chw	-13839
ija	-13840
beat	-13841
fold	-13842
ishi	-13843
arded	-13844
enary	-13845
▁clot	-13846
▁fires	-13847
aturing	-13848
▁listen	-13849
▁towers	-13850
▁disagre	-13851
▁travels	-13852
▁Belgrade	-13853
▁algebraic	-13854
▁entreprene	-13855
▁personally	-13856
▁quantities	-13857
Ang	-13858
▁62	-13859
▁78	-13860
awks	-13861
iade	-13862
frame	-13863
shore	-13864
▁balls	-13865
▁chore	-13866
atorial	-13867
▁breaks	-13868
▁eldest	-13869
▁Charter	-13870
▁Spencer	-13871
ighthouse	-13872
▁reserved	-13873
▁signature	-13874
▁Lithuanian	-13875
▁successive	-13876
▁considering	-13877
▁(0.	-13878
▁Alg	-13879
▁gap	-13880
April	-13881
adier	-13882
▁1500	-13883
▁Body	-13884
▁True	-13885
▁aims	-13886
inemat	-13887
▁2013)	-13888
▁Advis	-13889
▁looks	-13890
▁motif	-13891
▁saint	-13892
▁Rachel	-13893
▁client	-13894
▁guests	-13895
▁colspan	-13896
▁costume	-13897
▁interim	-13898
▁nucleus	-13899
▁advertis	-13900
▁constell	-13901
▁commenced	-13902
anu	-13903
–14	-13904
▁MC	-13905
▁Tong	-13906
▁Salle	-13907
▁stroke	-13908
▁volunt	-13909
▁distant	-13910
▁handling	-13911
▁retiring	-13912
▁cognitive	-13913
▁regardless	-13914
▁$2	-13915
▁Kw	-13916
imen	-13917
ınar	-13918
▁Cla	-13919
▁Nin	-13920
▁Kurt	-13921
▁lock	-13922
▁Tampa	-13923
▁Athena	-13924
▁Beyond	-13925
▁Shadow	-13926
▁Ulster	-13927
▁burial	-13928
▁dancer	-13929
▁divine	-13930
▁dubbed	-13931
▁derives	-13932
▁failing	-13933
mentation	-13934
▁Individual	-13935
▁astronauts	-13936
▁philanthrop	-13937
▁compositions	-13938
istle	-13939
itism	-13940
▁cens	-13941
▁Divis	-13942
▁Paulo	-13943
▁bypass	-13944
▁freight	-13945
▁Commerce	-13946
▁carriers	-13947
▁vegetation	-13948
wid	-13949
zel	-13950
isle	-13951
umph	-13952
▁Cum	-13953
▁Bran	-13954
▁NATO	-13955
▁push	-13956
▁tier	-13957
market	-13958
voiced	-13959
▁1974.	-13960
▁Chican	-13961
▁liturg	-13962
structed	-13963
▁graphic	-13964
▁posthum	-13965
▁adoption	-13966
▁monarchy	-13967
▁properly	-13968
▁thorough	-13969
▁Standards	-13970
▁relatives	-13971
▁Indonesian	-13972
▁associations	-13973
▁Representative	-13974
0%	-13975
Fran	-13976
orge	-13977
team	-13978
▁(12	-13979
▁101	-13980
story	-13981
irical	-13982
▁1978.	-13983
▁Train	-13984
▁breed	-13985
▁winds	-13986
ificate	-13987
▁pilots	-13988
▁Overall	-13989
▁consequence	-13990
▁disappeared	-13991
▁undergraduate	-13992
▁identification	-13993
06	-13994
KO	-13995
abe	-13996
bet	-13997
aque	-13998
ifax	-13999
sburg	-14000
sized	-14001
usters	-14002
▁1969.	-14003
▁Haven	-14004
▁boxer	-14005
▁Prayer	-14006
▁leather	-14007
▁unclear	-14008
▁hospitals	-14009
▁institute	-14010
GN	-14011
▁Vil	-14012
▁jet	-14013
▁sel	-14014
▁wasn	-14015
ficial	-14016
▁Bates	-14017
▁Large	-14018
selling	-14019
▁boards	-14020
▁mutual	-14021
▁Catalan	-14022
▁Circuit	-14023
▁summary	-14024
▁Interior	-14025
▁numbered	-14026
▁allegedly	-14027
▁contributing	-14028
är	-14029
evo	-14030
▁ho	-14031
acters	-14032
▁1939,	-14033
▁acres	-14034
changed	-14035
imental	-14036
▁dances	-14037
▁tables	-14038
lishment	-14039
▁Rochester	-14040
▁considers	-14041
▁freestyle	-14042
EM	-14043
dan	-14044
owl	-14045
ukh	-14046
–11	-14047
▁3)	-14048
▁Sz	-14049
abwe	-14050
airo	-14051
opot	-14052
▁Rif	-14053
▁lad	-14054
▁tab	-14055
agger	-14056
▁1957,	-14057
ivities	-14058
▁amphib	-14059
▁Philharm	-14060
▁Scholars	-14061
▁Rheoliadau	-14062
▁environments	-14063
atz	-14064
chy	-14065
main	-14066
phis	-14067
qual	-14068
▁orth	-14069
▁Celeb	-14070
imbabwe	-14071
▁Cayman	-14072
▁happen	-14073
▁shaped	-14074
although	-14075
▁reactor	-14076
▁acceptance	-14077
▁Alternative	-14078
ül	-14079
omo	-14080
▁174	-14081
ogram	-14082
▁Word	-14083
number	-14084
▁Metal	-14085
▁Ships	-14086
▁flash	-14087
▁polyn	-14088
ointing	-14089
▁Calvin	-14090
▁layers	-14091
▁server	-14092
▁customs	-14093
unciation	-14094
▁directions	-14095
▁occasional	-14096
02	-14097
08	-14098
Sw	-14099
five	-14100
▁Cel	-14101
skins	-14102
▁1975.	-14103
▁Kumar	-14104
▁adopt	-14105
▁decis	-14106
▁steep	-14107
ipelago	-14108
▁Trevor	-14109
▁Underg	-14110
▁endors	-14111
▁crucial	-14112
▁astronomer	-14113
ağ	-14114
mus	-14115
gang	-14116
rano	-14117
▁vin	-14118
atine	-14119
aurus	-14120
▁Resp	-14121
▁Take	-14122
▁anat	-14123
▁lung	-14124
inating	-14125
▁assert	-14126
▁quoted	-14127
▁consort	-14128
▁contrad	-14129
▁undergo	-14130
▁Discovery	-14131
▁emissions	-14132
▁proposals	-14133
▁foundations	-14134
.:	-14135
arin	-14136
lain	-14137
▁Dum	-14138
▁Sof	-14139
▁hub	-14140
matic	-14141
▁Come	-14142
▁rede	-14143
agonal	-14144
▁heter	-14145
▁immun	-14146
▁(2013)	-14147
▁devast	-14148
▁fossil	-14149
▁utility	-14150
▁seriously	-14151
▁assessment	-14152
oj	-14153
nty	-14154
Conn	-14155
▁166	-14156
▁Mob	-14157
asium	-14158
▁1800	-14159
oyalty	-14160
▁tribal	-14161
▁proclaimed	-14162
dem	-14163
colm	-14164
▁(1,	-14165
▁155	-14166
player	-14167
▁Mario	-14168
▁Alpine	-14169
▁backup	-14170
▁Broncos	-14171
▁acquire	-14172
▁McDonald	-14173
▁Chemistry	-14174
▁battalion	-14175
▁missionary	-14176
▁achievement	-14177
▁accomplished	-14178
▁!!	-14179
alam	-14180
iane	-14181
▁Meg	-14182
▁Sib	-14183
▁Tir	-14184
▁raw	-14185
bands	-14186
acular	-14187
▁1977.	-14188
▁Caucas	-14189
▁plates	-14190
▁(2022).	-14191
▁Besides	-14192
▁marking	-14193
▁Istanbul	-14194
▁religions	-14195
▁theatrical	-14196
xi	-14197
rish	-14198
▁pir	-14199
▁Linn	-14200
▁Rank	-14201
▁trig	-14202
▁Ports	-14203
▁Style	-14204
▁Eugene	-14205
▁Murder	-14206
▁lesser	-14207
▁Hunting	-14208
▁Morocco	-14209
▁Vladimir	-14210
▁criteria	-14211
▁Henderson	-14212
▁Expedition	-14213
SL	-14214
uche	-14215
inned	-14216
▁1964.	-14217
▁Kenny	-14218
▁Ricky	-14219
▁Satan	-14220
▁Austro	-14221
▁Carbon	-14222
▁Legion	-14223
▁attitude	-14224
▁intellig	-14225
▁afternoon	-14226
▁colleagues	-14227
▁constantly	-14228
SD	-14229
oces	-14230
ovan	-14231
▁Gem	-14232
▁bio	-14233
▁Corv	-14234
▁Trent	-14235
▁deals	-14236
▁Capitol	-14237
▁Letters	-14238
▁banking	-14239
▁privately	-14240
▁Liberation	-14241
▁Prefecture	-14242
Gen	-14243
igel	-14244
▁Rup	-14245
▁unem	-14246
screen	-14247
▁Basil	-14248
▁ferry	-14249
▁width	-14250
odiazep	-14251
▁Guatem	-14252
▁burning	-14253
▁dancers	-14254
▁dancing	-14255
fordshire	-14256
▁Antarctica	-14257
79	-14258
TI	-14259
su	-14260
alin	-14261
insk	-14262
ints	-14263
empor	-14264
▁Kend	-14265
ianism	-14266
iatric	-14267
largest	-14268
ropolis	-14269
▁beings	-14270
▁dispos	-14271
▁batting	-14272
▁Honorary	-14273
▁nicknamed	-14274
▁submarine	-14275
dad	-14276
▁MI	-14277
arma	-14278
▁fru	-14279
Baron	-14280
chant	-14281
▁Cham	-14282
▁Cult	-14283
▁Owen	-14284
▁caves	-14285
atories	-14286
▁Houses	-14287
▁pulled	-14288
▁Halifax	-14289
▁Macedonia	-14290
▁legendary	-14291
▁presenter	-14292
▁Characters	-14293
▁Richardson	-14294
▁allegations	-14295
▁investigate	-14296
▁inscriptions	-14297
GE	-14298
SIC	-14299
pus	-14300
rah	-14301
adia	-14302
just	-14303
▁Ibn	-14304
▁Lav	-14305
▁dup	-14306
andin	-14307
ogenic	-14308
ologne	-14309
▁2004)	-14310
▁Walsh	-14311
species	-14312
▁poorly	-14313
▁angular	-14314
▁payment	-14315
▁severely	-14316
▁Holocaust	-14317
established	-14318
kar	-14319
▁Uz	-14320
▁Brid	-14321
▁Hood	-14322
▁cuts	-14323
▁gran	-14324
▁obsc	-14325
▁Paper	-14326
▁coron	-14327
▁embra	-14328
▁Settle	-14329
▁Burials	-14330
▁surrend	-14331
▁focusing	-14332
▁separately	-14333
OH	-14334
Te	-14335
ding	-14336
▁tag	-14337
never	-14338
pects	-14339
▁Bian	-14340
▁Burk	-14341
▁Hero	-14342
▁Myth	-14343
▁2012)	-14344
▁happy	-14345
▁smoke	-14346
▁Bolton	-14347
▁panels	-14348
▁solely	-14349
▁stones	-14350
etheless	-14351
▁Chaplin	-14352
▁rebuild	-14353
▁judgment	-14354
▁sustained	-14355
▁explicitly	-14356
▁installation	-14357
▁Communication	-14358
She	-14359
▁Cu	-14360
iott	-14361
sson	-14362
▁wal	-14363
World	-14364
▁Bond	-14365
erness	-14366
▁Bever	-14367
▁Linda	-14368
▁Sugar	-14369
▁Veter	-14370
▁ingred	-14371
▁Midland	-14372
▁pitched	-14373
▁shipping	-14374
▁mortality	-14375
▁frequencies	-14376
oco	-14377
fight	-14378
imity	-14379
onson	-14380
▁Mugh	-14381
▁1965.	-14382
▁Giant	-14383
▁Nancy	-14384
▁topic	-14385
intendo	-14386
▁Chiefs	-14387
▁guards	-14388
▁Speaker	-14389
▁dynamic	-14390
▁invaded	-14391
▁Redskins	-14392
▁advocate	-14393
▁rainfall	-14394
▁autonomous	-14395
▁programmes	-14396
ør	-14397
iar	-14398
ieu	-14399
inde	-14400
▁Eve	-14401
▁fet	-14402
Trans	-14403
since	-14404
▁Joel	-14405
▁1973.	-14406
▁Being	-14407
▁Burns	-14408
▁Edgar	-14409
▁Feder	-14410
▁Influ	-14411
▁Woods	-14412
▁Scouts	-14413
▁convey	-14414
▁telesc	-14415
▁Reading	-14416
▁evident	-14417
▁Coventry	-14418
▁Location	-14419
▁nitrogen	-14420
▁Presbyter	-14421
▁Electronic	-14422
▁Southampton	-14423
▁assassination	-14424
imo	-14425
ogl	-14426
▁CN	-14427
boro	-14428
imer	-14429
▁Lah	-14430
▁Pod	-14431
oping	-14432
plane	-14433
▁coord	-14434
▁drives	-14435
▁heading	-14436
imensions	-14437
▁practiced	-14438
addy	-14439
▁Vog	-14440
▁Elis	-14441
▁Kant	-14442
▁Kind	-14443
▁Wick	-14444
fields	-14445
▁Charg	-14446
▁Lucas	-14447
▁fifty	-14448
▁(2012)	-14449
▁Warsaw	-14450
▁deeply	-14451
▁summit	-14452
▁versus	-14453
▁Kashmir	-14454
▁Malcolm	-14455
▁hitting	-14456
▁Greatest	-14457
▁Morrison	-14458
▁Warriors	-14459
▁Zimbabwe	-14460
▁reactors	-14461
▁thirteen	-14462
▁assembled	-14463
▁performers	-14464
▁discrimination	-14465
03	-14466
04	-14467
orne	-14468
arten	-14469
▁3,000	-14470
▁Perth	-14471
▁Roads	-14472
istence	-14473
▁actively	-14474
▁Formation	-14475
▁designers	-14476
▁expanding	-14477
▁inclusion	-14478
▁suspected	-14479
▁broadcaster	-14480
FO	-14481
Men	-14482
olin	-14483
perm	-14484
▁3–1	-14485
▁Tat	-14486
▁1956,	-14487
▁Sweet	-14488
▁artif	-14489
▁dense	-14490
▁Inside	-14491
▁Luxemb	-14492
▁Judaism	-14493
▁arrives	-14494
▁pilgrim	-14495
▁stretch	-14496
▁threats	-14497
▁opposing	-14498
▁settings	-14499
▁Southwest	-14500
▁ammunition	-14501
▁authorized	-14502
700	-14503
ede	-14504
▁RC	-14505
oter	-14506
tage	-14507
▁orn	-14508
▁Pros	-14509
▁2005)	-14510
▁nerve	-14511
▁guided	-14512
▁humanity	-14513
▁upgraded	-14514
▁celebrate	-14515
▁calculated	-14516
▁ceremonies	-14517
incorporated	-14518
▁conventions	-14519
▁Czechoslovakia	-14520
89	-14521
hof	-14522
▁73	-14523
▁Dy	-14524
film	-14525
ridor	-14526
▁Raja	-14527
▁dece	-14528
asures	-14529
▁2008)	-14530
▁Guang	-14531
▁Worth	-14532
▁weigh	-14533
▁Grande	-14534
▁absent	-14535
▁noting	-14536
idelines	-14537
▁Democrat	-14538
▁Learning	-14539
▁Nintendo	-14540
▁Santiago	-14541
▁encourage	-14542
▁preventing	-14543
▁touchdowns	-14544
▁8-	-14545
▁95	-14546
▁MB	-14547
asis	-14548
▁Ist	-14549
▁NHL	-14550
▁Opt	-14551
▁Rid	-14552
atial	-14553
▁Made	-14554
▁Piet	-14555
▁beam	-14556
▁Rabbi	-14557
▁incom	-14558
▁tuber	-14559
▁genres	-14560
▁metall	-14561
▁paying	-14562
▁termed	-14563
ilateral	-14564
▁Everton	-14565
▁Kurdish	-14566
▁comprom	-14567
▁passion	-14568
▁performs	-14569
▁storyline	-14570
▁helicopter	-14571
▁linguistic	-14572
▁translator	-14573
TL	-14574
TM	-14575
vex	-14576
asia	-14577
eneg	-14578
▁PER	-14579
▁Spl	-14580
▁Capp	-14581
▁Half	-14582
▁Latv	-14583
▁keys	-14584
▁trio	-14585
ferred	-14586
iscell	-14587
▁1966.	-14588
sterious	-14589
▁outcome	-14590
▁defender	-14591
▁listings	-14592
▁astronomy	-14593
▁capability	-14594
▁navigation	-14595
73	-14596
utz	-14597
▁EC	-14598
▁GP	-14599
arta	-14600
lies	-14601
quet	-14602
▁unw	-14603
assis	-14604
▁Cool	-14605
▁Gand	-14606
▁Harm	-14607
▁Kiss	-14608
▁Lars	-14609
▁remn	-14610
record	-14611
▁1959,	-14612
▁Hitch	-14613
▁Nazis	-14614
▁bench	-14615
▁lobby	-14616
ountain	-14617
▁Boxing	-14618
▁inland	-14619
November	-14620
▁Clement	-14621
▁pursued	-14622
▁Manufact	-14623
▁Frankfurt	-14624
▁intensity	-14625
▁specimens	-14626
▁conferences	-14627
▁7:	-14628
▁Bé	-14629
rill	-14630
chief	-14631
▁Cell	-14632
▁Julia	-14633
▁Shore	-14634
▁ambig	-14635
▁enorm	-14636
▁rings	-14637
uranium	-14638
▁NASCAR	-14639
▁Warhol	-14640
▁Montana	-14641
▁portrait	-14642
▁improving	-14643
▁superhero	-14644
▁commitment	-14645
81	-14646
hot	-14647
kel	-14648
rep	-14649
▁Bj	-14650
▁Hir	-14651
print	-14652
▁1888	-14653
▁Ferg	-14654
direct	-14655
esters	-14656
▁Karen	-14657
cession	-14658
founder	-14659
▁enhance	-14660
▁polymer	-14661
▁Electron	-14662
▁Provisions	-14663
▁consistently	-14664
EL	-14665
Gu	-14666
▁GM	-14667
bath	-14668
edge	-14669
last	-14670
▁Cret	-14671
▁Twin	-14672
▁bord	-14673
French	-14674
rodite	-14675
▁Lords	-14676
▁Belize	-14677
▁Nordic	-14678
▁revived	-14679
▁disputes	-14680
▁physically	-14681
▁transmitter	-14682
▁collaborated	-14683
▁Ri	-14684
▁Hod	-14685
meter	-14686
▁Hels	-14687
▁Kids	-14688
▁Leop	-14689
▁ions	-14690
▁knee	-14691
▁Nikol	-14692
▁Gustav	-14693
▁Welles	-14694
▁Griffin	-14695
▁equally	-14696
▁surpass	-14697
clamation	-14698
▁interact	-14699
▁companion	-14700
▁ambassador	-14701
▁collecting	-14702
▁criticised	-14703
▁remembered	-14704
▁Universiade	-14705
▁Historically	-14706
inf	-14707
köy	-14708
▁Saw	-14709
▁Vul	-14710
comes	-14711
▁Aege	-14712
▁Cord	-14713
▁Palm	-14714
▁Basic	-14715
▁altar	-14716
▁refuge	-14717
▁voices	-14718
▁Housing	-14719
▁renewed	-14720
▁accessed	-14721
To	-14722
Big	-14723
pot	-14724
▁CH	-14725
▁Ve	-14726
uador	-14727
▁1955,	-14728
▁Globe	-14729
▁Idaho	-14730
▁Inver	-14731
▁adequ	-14732
▁lease	-14733
▁tract	-14734
▁Combat	-14735
▁finger	-14736
▁streak	-14737
▁Profile	-14738
▁arguing	-14739
▁approxim	-14740
▁entities	-14741
▁expelled	-14742
▁monarchs	-14743
▁prisoner	-14744
▁targeted	-14745
▁questioned	-14746
▁coordinator	-14747
▁continuously	-14748
▁northeastern	-14749
▁ft	-14750
cond	-14751
iday	-14752
ieri	-14753
post	-14754
▁Aar	-14755
▁Liz	-14756
▁Rib	-14757
▁Seg	-14758
▁por	-14759
recht	-14760
▁Faso	-14761
▁hopes	-14762
iblical	-14763
▁Harbor	-14764
▁neighb	-14765
▁silent	-14766
▁Physics	-14767
▁academy	-14768
▁hosting	-14769
▁nearest	-14770
▁Colombian	-14771
▁irregular	-14772
▁Interstate	-14773
Pres	-14774
idan	-14775
isem	-14776
odus	-14777
▁Kas	-14778
Music	-14779
ación	-14780
umped	-14781
▁peer	-14782
utical	-14783
▁1950,	-14784
▁Journ	-14785
▁Mater	-14786
▁Omaha	-14787
▁solve	-14788
▁Justin	-14789
▁unions	-14790
▁Baldwin	-14791
▁Harbour	-14792
▁bearing	-14793
▁feather	-14794
▁restore	-14795
▁rivalry	-14796
▁wrestler	-14797
▁executives	-14798
▁declaration	-14799
ivo	-14800
este	-14801
▁Alm	-14802
▁Guj	-14803
▁cub	-14804
▁"...	-14805
▁cass	-14806
▁spir	-14807
▁wick	-14808
engths	-14809
▁bread	-14810
▁foods	-14811
▁sheet	-14812
▁sword	-14813
▁trace	-14814
▁Latvia	-14815
▁barrel	-14816
▁revolt	-14817
▁manages	-14818
▁murders	-14819
▁Products	-14820
▁grandson	-14821
▁Sacramento	-14822
▁interesting	-14823
▁manufacture	-14824
":	-14825
jud	-14826
this	-14827
uity	-14828
▁10-	-14829
▁Ign	-14830
elong	-14831
▁Pain	-14832
▁soci	-14833
itated	-14834
▁Chuck	-14835
▁seeds	-14836
▁toxic	-14837
▁carved	-14838
hibition	-14839
ordinary	-14840
▁confirm	-14841
▁striking	-14842
▁examination	-14843
▁evolutionary	-14844
▁consideration	-14845
cs	-14846
▁BT	-14847
azar	-14848
▁(14	-14849
▁Aus	-14850
lined	-14851
▁1894	-14852
▁Trek	-14853
▁Vald	-14854
▁asym	-14855
▁pine	-14856
▁seal	-14857
▁1967.	-14858
▁Tiger	-14859
▁chips	-14860
▁vinyl	-14861
October	-14862
veloped	-14863
ependent	-14864
▁applies	-14865
▁bassist	-14866
▁categor	-14867
▁chemist	-14868
▁honours	-14869
▁rolling	-14870
▁cemetery	-14871
▁maritime	-14872
▁prompted	-14873
▁creatures	-14874
▁Louisville	-14875
▁commercially	-14876
AAF	-14877
nut	-14878
zan	-14879
▁XI	-14880
▁Lem	-14881
south	-14882
▁Cubs	-14883
▁Path	-14884
ivided	-14885
▁Hindi	-14886
▁Lodge	-14887
▁Stern	-14888
▁defic	-14889
▁Editor	-14890
▁Hellen	-14891
▁streams	-14892
▁generals	-14893
▁removing	-14894
▁Montenegro	-14895
▁corporation	-14896
ei	-14897
Car	-14898
Jew	-14899
Per	-14900
arv	-14901
yon	-14902
▁YE	-14903
anca	-14904
gard	-14905
▁Lor	-14906
▁1889	-14907
atever	-14908
▁crack	-14909
▁digit	-14910
▁freed	-14911
▁stick	-14912
▁Albion	-14913
▁butter	-14914
▁sitcom	-14915
▁sodium	-14916
▁tradem	-14917
▁millions	-14918
▁suddenly	-14919
.1	-14920
MD	-14921
ça	-14922
rak	-14923
uta	-14924
bian	-14925
There	-14926
canic	-14927
ampire	-14928
▁Occup	-14929
▁Easter	-14930
▁marble	-14931
▁overth	-14932
▁Factory	-14933
▁sectors	-14934
▁founders	-14935
▁distances	-14936
▁fragments	-14937
▁74	-14938
▁Fo	-14939
▁Ide	-14940
▁Lik	-14941
▁Moor	-14942
▁Pale	-14943
▁buzz	-14944
▁Merit	-14945
▁lying	-14946
▁eating	-14947
▁reluct	-14948
▁thrown	-14949
▁wheels	-14950
▁imported	-14951
▁quantity	-14952
▁Principal	-14953
aic	-14954
▁(#	-14955
atty	-14956
urai	-14957
ymph	-14958
▁Raw	-14959
▁Frem	-14960
▁Loch	-14961
▁Mine	-14962
▁Solo	-14963
▁Trin	-14964
▁patri	-14965
▁Heroes	-14966
▁speeds	-14967
▁Cologne	-14968
▁Genesis	-14969
▁archive	-14970
▁certainly	-14971
▁ecosystem	-14972
▁releasing	-14973
▁orientation	-14974
NE	-14975
isi	-14976
oko	-14977
▁7-	-14978
days	-14979
eper	-14980
onge	-14981
▁Eye	-14982
▁Zap	-14983
books	-14984
etown	-14985
▁Stad	-14986
▁USSR	-14987
▁Wool	-14988
▁moon	-14989
▁obst	-14990
attery	-14991
likely	-14992
▁Tennis	-14993
▁Bolivia	-14994
▁Midlands	-14995
▁singular	-14996
Sax	-14997
join	-14998
nton	-14999
tech	-15000
▁Jin	-15001
▁Core	-15002
▁Rice	-15003
▁Scar	-15004
▁Suff	-15005
▁cock	-15006
iotics	-15007
▁1946,	-15008
▁Autom	-15009
▁Truth	-15010
▁brings	-15011
▁Dramatic	-15012
▁Fighting	-15013
▁Giovanni	-15014
▁aggressive	-15015
▁engagement	-15016
▁Progressive	-15017
▁southeastern	-15018
Will	-15019
aeda	-15020
neum	-15021
▁172	-15022
▁1–1	-15023
▁1893	-15024
▁hung	-15025
riages	-15026
▁grain	-15027
▁planes	-15028
▁Achilles	-15029
▁smallest	-15030
▁wildlife	-15031
fem	-15032
▁Eg	-15033
▁je	-15034
▁ur	-15035
bery	-15036
▁Pom	-15037
▁epic	-15038
▁tent	-15039
▁unve	-15040
abling	-15041
▁Crist	-15042
▁Ernst	-15043
▁Miles	-15044
▁Tunnel	-15045
▁contam	-15046
▁Playing	-15047
▁creator	-15048
▁ancestors	-15049
▁sculptures	-15050
RT	-15051
▁AMD	-15052
▁Tin	-15053
Neill	-15054
▁Dent	-15055
▁Kyle	-15056
▁Morm	-15057
orrect	-15058
▁orange	-15059
historic	-15060
▁Species	-15061
▁Transit	-15062
▁faction	-15063
aceutical	-15064
▁Analysis	-15065
▁abortion	-15066
▁vulnerable	-15067
▁missionaries	-15068
▁pm	-15069
ilib	-15070
ylum	-15071
▁ASC	-15072
▁RAM	-15073
▁1840	-15074
▁1953,	-15075
▁Belle	-15076
▁brass	-15077
▁choir	-15078
▁imper	-15079
▁Wesley	-15080
▁poster	-15081
▁massacre	-15082
▁proximity	-15083
▁accordance	-15084
▁Traditional	-15085
▁Archaeological	-15086
ís	-15087
▁ma	-15088
enzie	-15089
wheel	-15090
▁Hits	-15091
▁Kolk	-15092
▁Reyn	-15093
estock	-15094
▁2015)	-15095
▁Impro	-15096
▁Laura	-15097
▁posts	-15098
▁Syrian	-15099
▁Things	-15100
▁backed	-15101
▁essays	-15102
▁calcium	-15103
▁standings	-15104
▁Expatriate	-15105
▁nationwide	-15106
▁substances	-15107
▁announcement	-15108
mart	-15109
▁Cash	-15110
▁Reds	-15111
▁Rous	-15112
▁dish	-15113
ospace	-15114
▁Kabul	-15115
million	-15116
▁suspic	-15117
▁climbing	-15118
▁presidency	-15119
artz	-15120
geme	-15121
▁(13	-15122
▁Ana	-15123
clude	-15124
encia	-15125
hardt	-15126
–2000	-15127
▁1885	-15128
▁jack	-15129
▁Devon	-15130
▁heating	-15131
▁orbital	-15132
▁tactics	-15133
▁Germanic	-15134
▁armoured	-15135
▁discovers	-15136
▁impressed	-15137
▁exploration	-15138
edo	-15139
▁81	-15140
▁Ig	-15141
iens	-15142
sted	-15143
▁Did	-15144
▁Sed	-15145
erner	-15146
hurst	-15147
▁1896	-15148
▁Baku	-15149
▁Iber	-15150
▁ward	-15151
▁Glenn	-15152
▁draws	-15153
▁edges	-15154
▁sizes	-15155
▁united	-15156
▁isotopes	-15157
▁Mathematics	-15158
▁measurement	-15159
inis	-15160
oney	-15161
▁RNA	-15162
arium	-15163
brook	-15164
▁Bard	-15165
[...]
