{
  "version": "1.0",
  "truncation": null,
  "padding": null,
  "added_tokens": [
    {
      "id": 0,
      "content": "<|pad|>",
      "single_word": false,
      "lstrip": false,
      "rstrip": false,
      "normalized": false,
      "special": true
    },
    {
      "id": 1,
      "content": "<|eos|>",
      "single_word": false,
      "lstrip": false,
      "rstrip": false,
      "normalized": false,
      "special": true
    }
  ],
  "normalizer": null,
  "pre_tokenizer": {
    "type": "ByteLevel",
    "add_prefix_space": false,
    "trim_offsets": true,
    "use_regex": true
  },
  "post_processor": null,
  "decoder": {
    "type": "ByteLevel",
    "add_prefix_space": true,
    "trim_offsets": true,
    "use_regex": true
  },
  "model": {
    "type": "BPE",
    "dropout": null,
    "unk_token": null,
    "continuing_subword_prefix": null,
    "end_of_word_suffix": null,
    "fuse_unk": false,
    "byte_fallback": false,
    "ignore_merges": false,
    "vocab": {
      "<|pad|>": 0,
      "<|eos|>": 1,
      "!": 2,
      "\"": 3,
      "'": 4,
      "(": 5,
      ")": 6,
      ",": 7,
      "-": 8,
      ".": 9,
      ":": 10,
      ";": 11,
      "?": 12,
      "a": 13,
      "b": 14,
      "c": 15,
      "d": 16,
      "e": 17,
      "f": 18,
      "g": 19,
      "h": 20,
      "i": 21,
      "j": 22,
      "k": 23,
      "l": 24,
      "m": 25,
      "n": 26,
      "o": 27,
      "p": 28,
      "q": 29,
      "r": 30,
      "s": 31,
      "t": 32,
      "u": 33,
      "v": 34,
      "w": 35,
      "x": 36,
      "y": 37,
      "z": 38,
      "Ċ": 39,
      "Ġ": 40,
      "Ġt": 41,
      "he": 42,
      "Ġa": 43,
      "in": 44,
      "Ġs": 45,
      "Ġthe": 46,
      "Ġw": 47,
      "re": 48,
      "Ġo": 49,
      "nd": 50,
      "Ġb": 51,
      "er": 52,
      "ou": 53,
      "ed": 54,
      "Ġh": 55,
      "Ġf": 56,
      "Ġc": 57,
      "Ġm": 58,
      "at": 59,
      "it": 60,
      "on": 61,
      "en": 62,
      "ing": 63,
      "is": 64,
      "Ġto": 65,
      "Ġd": 66,
      "Ġp": 67,
      "or": 68,
      "Ġth": 69,
      "an": 70,
      "Ġand": 71,
      "es": 72,
      "Ġof": 73,
      "ar": 74,
      "Ġl": 75,
      "as": 76,
      "ll": 77,
      "Ġin": 78,
      "Ġhe": 79,
      "Ġn": 80,
      "Ġg": 81,
      "om": 82,
      "Ġe": 83,
      "Ġi": 84,
      "le": 85,
      "ic": 86,
      "Ġbe": 87,
      "Ġon": 88,
      "al": 89,
      "ve": 90,
      "ad": 91,
      "ow": 92,
      "ot": 93,
      "Ġy": 94,
      "ut": 95,
      "Ġre": 96,
      "st": 97,
      "ac": 98,
      "ent": 99,
      "id": 100,
      "Ġwas": 101,
      "gh": 102,
      "ion": 103,
      "et": 104,
      "Ġu": 105,
      "ld": 106,
      "ly": 107,
      "Ġst": 108,
      "Ġyou": 109,
      "Ġit": 110,
      "Ġthat": 111,
      "im": 112,
      "ay": 113,
      "se": 114,
      "Ġr": 115,
      "ir": 116,
      "Ġfor": 117,
      "ver": 118,
      "Ġas": 119,
      "and": 120,
      "Ġwh": 121,
      "ur": 122,
      "Ġwe": 123,
      "ith": 124,
      "Ġhis": 125,
      "red": 126,
      "ght": 127,
      "am": 128,
      "Ġwith": 129,
      "Ġher": 130,
      "'s": 131,
      "the": 132,
      "Ġk": 133,
      "Ġan": 134,
      "Ġse": 135,
      "Ġ\"": 136,
      "oo": 137,
      "Ġis": 138,
      "ro": 139,
      "all": 140,
      "ce": 141,
      "Ġshe": 142,
      "ight": 143,
      "Ġat": 144,
      "Ġj": 145,
      "ould": 146,
      ".\"": 147,
      "Ġfr": 148,
      "ct": 149,
      "ch": 150,
      "Ġone": 151,
      "il": 152,
      "ter": 153,
      "th": 154,
      "ke": 155,
      "Ġme": 156,
      "Ġha": 157,
      "Ġhad": 158,
      "Ġsh": 159,
      "ill": 160,
      "ain": 161,
      "ous": 162,
      "if": 163,
      "Ġnot": 164,
      "'t": 165,
      "Ġde": 166,
      "pp": 167,
      "Ġne": 168,
      "Ġhu": 169,
      "ri": 170,
      "Ġmy": 171,
      "ore": 172,
      "Ġbut": 173,
      "us": 174,
      "Ġch": 175,
      "Ġtw": 176,
      "Ġcon": 177,
      "ation": 178,
      "ge": 179,
      "Ġsu": 180,
      "Ġfrom": 181,
      "Ġdo": 182,
      "Ġhim": 183,
      "ant": 184,
      "ive": 185,
      "ie": 186,
      "her": 187,
      "Ġv": 188,
      "ome": 189,
      "Ġal": 190,
      "ack": 191,
      "Ġso": 192,
      "ul": 193,
      "Ġsa": 194,
      "ess": 195,
      "one": 196,
      "ard": 197,
      "ine": 198,
      "Ġhave": 199,
      "Ġthey": 200,
      "ust": 201,
      "el": 202,
      "rou": 203,
      "ers": 204,
      "Ġun": 205,
      "qu": 206,
      "ab": 207,
      "Ġthis": 208,
      "pe": 209,
      "Ġby": 210,
      "our": 211,
      "est": 212,
      "Ġall": 213,
      "Ġle": 214,
      "Ġex": 215,
      "ked": 216,
      "un": 217,
      "ndred": 218,
      "os": 219,
      "Ġhundred": 220,
      "Ġup": 221,
      "Ġout": 222,
      "ol": 223,
      "Ġwere": 224,
      "Ġor": 225,
      "ty": 226,
      "Ġab": 227,
      "Ġli": 228,
      "ate": 229,
      "Ġwhe": 230,
      "Ġgo": 231,
      "Ġare": 232,
      "ven": 233,
      "ist": 234,
      "out": 235,
      "Ġcom": 236,
      "Ġkn": 237,
      "Ġint": 238,
      "Ġtr": 239,
      "res": 240,
      "ig": 241,
      "ind": 242,
      "Ġtwo": 243,
      "um": 244,
      "op": 245,
      "art": 246,
      "Ġwor": 247,
      "em": 248,
      "ousand": 249,
      "Ġthousand": 250,
      "king": 251,
      "Ġwould": 252,
      "ast": 253,
      "..": 254,
      ",\"": 255,
      "ap": 256,
      "Ġpl": 257,
      "Ġfe": 258,
      "ong": 259,
      "Ġpro": 260,
      "Ġno": 261,
      "ally": 262,
      "ag": 263,
      "ood": 264,
      "own": 265,
      "Ġsaid": 266,
      "Ġthem": 267,
      "Ġcl": 268,
      "ame": 269,
      "Ġcan": 270,
      "hed": 271,
      "ide": 272,
      "ich": 273,
      "ort": 274,
      "Ġwhat": 275,
      "ree": 276,
      "Ġtheir": 277,
      "?\"": 278,
      "Ġman": 279,
      "ity": 280,
      "oc": 281,
      "Ġthere": 282,
      "ace": 283,
      "ther": 284,
      "Ġwho": 285,
      "Ġcould": 286,
      "Ġmo": 287,
      "we": 288,
      "Ġtim": 289,
      "Ġinto": 290,
      "Ġdid": 291,
      "Ġar": 292,
      "Ġsp": 293,
      "Ġag": 294,
      "Ġloo": 295,
      "very": 296,
      "Ġ(": 297,
      "ies": 298,
      "au": 299,
      "ake": 300,
      "Ġback": 301,
      "te": 302,
      "Ġif": 303,
      "Ġabout": 304,
      "Ġte": 305,
      "Ġlike": 306,
      "Ġus": 307,
      "Ġro": 308,
      "ment": 309,
      "Ġyour": 310,
      "Ġwhen": 311,
      "Ġco": 312,
      "Ġwill": 313,
      "Ġbr": 314,
      "hing": 315,
      "Ġen": 316,
      "Ġbeen": 317,
      "are": 318,
      "Ġover": 319,
      "way": 320,
      "Ġany": 321,
      "ep": 322,
      "ix": 323,
      "Ġsome": 324,
      "Ġbl": 325,
      "Ġwhich": 326,
      "fe": 327,
      "ra": 328,
      "ice": 329,
      "ated": 330,
      "ud": 331,
      "nt": 332,
      "Ġtime": 333,
      "Ġknow": 334,
      "ure": 335,
      "ak": 336,
      "Ġjust": 337,
      "Ġqu": 338,
      "ry": 339,
      "iv": 340,
      "sel": 341,
      "ip": 342,
      "Ġpr": 343,
      "Ġsc": 344,
      "Ġnine": 345,
      "urn": 346,
      "Ġmore": 347,
      "Ġthen": 348,
      "Ġother": 349,
      "Ġbo": 350,
      "ound": 351,
      "Ġaf": 352,
      "Ġgr": 353,
      "ass": 354,
      "Ġsm": 355,
      "pt": 356,
      "Ġoff": 357,
      "ile": 358,
      "pl": 359,
      "ber": 360,
      "Ġget": 361,
      "Ġfl": 362,
      "ks": 363,
      "enty": 364,
      "Ġam": 365,
      "round": 366,
      "Ġdown": 367,
      "Ġhand": 368,
      "Ġad": 369,
      "reat": 370,
      "Ġim": 371,
      "ved": 372,
      "Ġtoo": 373,
      "act": 374,
      "Ġlo": 375,
      "other": 376,
      "nder": 377,
      "uc": 378,
      "Ġac": 379,
      "Ġpe": 380,
      "fore": 381,
      "Ġeight": 382,
      "Ġthou": 383,
      "Ġagain": 384,
      "ire": 385,
      "age": 386,
      "ance": 387,
      "itt": 388,
      "Ġbec": 389,
      "ars": 390,
      "Ġcont": 391,
      "Ġdis": 392,
      "ose": 393,
      "ans": 394,
      "av": 395,
      "Ġhow": 396,
      "ick": 397,
      "Ġwant": 398,
      "ite": 399,
      "Ġsix": 400,
      "per": 401,
      "ull": 402,
      "Ġsee": 403,
      "Ġthan": 404,
      "self": 405,
      "iz": 406,
      "so": 407,
      "able": 408,
      "ress": 409,
      "ade": 410,
      "Ġthree": 411,
      "Ġnow": 412,
      "ue": 413,
      "Ġonly": 414,
      "ions": 415,
      "ings": 416,
      "ach": 417,
      "Ġhas": 418,
      "Ġfir": 419,
      "ble": 420,
      "ia": 421,
      "ord": 422,
      "Ġey": 423,
      "ence": 424,
      "co": 425,
      "Ġbefore": 426,
      "Ġfour": 427,
      "Ġ'": 428,
      "rough": 429,
      "ink": 430,
      "Ġcomp": 431,
      "Ġour": 432,
      "Ġafter": 433,
      "ward": 434,
      "Ġway": 435,
      "Ġpo": 436,
      "Ġfive": 437,
      "cl": 438,
      "ary": 439,
      "Ġsl": 440,
      "Ġres": 441,
      "Ġper": 442,
      "ious": 443,
      "Ġapp": 444,
      "Ġthrough": 445,
      "be": 446,
      "ang": 447,
      "Ġye": 448,
      "ave": 449,
      "wn": 450,
      "de": 451,
      "Ġdon": 452,
      "Ġfirst": 453,
      "led": 454,
      "ish": 455,
      "Ġhead": 456,
      "Ġevery": 457,
      "Ġeven": 458,
      "Ġsay": 459,
      "ater": 460,
      "wh": 461,
      "ft": 462,
      "ect": 463,
      "'m": 464,
      "Ġspe": 465,
      "Ġnew": 466,
      "ife": 467,
      "Ġday": 468,
      "'d": 469,
      "Ġpre": 470,
      "ial": 471,
      "Ġmar": 472,
      "ru": 473,
      "ted": 474,
      "...": 475,
      "for": 476,
      "omet": 477,
      "Ġrem": 478,
      "pped": 479,
      "ath": 480,
      "Ġfo": 481,
      "Ġho": 482,
      "Ġbet": 483,
      "ild": 484,
      "ied": 485,
      "Ġdes": 486,
      "ff": 487,
      "ving": 488,
      "she": 489,
      "Ġits": 490,
      "Ġaround": 491,
      "Ġunder": 492,
      "iss": 493,
      "Ġdidn": 494,
      "ase": 495,
      "ople": 496,
      "Ġneed": 497,
      "Ġgu": 498,
      "Ġwhere": 499,
      "ause": 500,
      "Ġmu": 501,
      "Ġturn": 502,
      "ian": 503,
      "Ġlong": 504,
      "ren": 505,
      "man": 506,
      "Ġjo": 507,
      "Ġright": 508,
      "Ġshould": 509,
      "Ġhere": 510,
      "ign": 511,
      "Ġeyes": 512,
      "Ġpeople": 513,
      "Ġcr": 514,
      "Ġgl": 515,
      "you": 516,
      "Ġcar": 517,
      "ical": 518,
      "ough": 519,
      "ning": 520,
      "Ġmay": 521,
      "ather": 522,
      "ens": 523,
      "Ġmade": 524,
      "Ġpart": 525,
      "Ġem": 526,
      "Ġsomet": 527,
      "Ġthought": 528,
      "ting": 529,
      "Ġgood": 530,
      "Ġcou": 531,
      "ub": 532,
      "ared": 533,
      "ail": 534,
      "Ġstill": 535,
      "Ġthir": 536,
      "Ġgoing": 537,
      "Ġalso": 538,
      "'re": 539,
      "ory": 540,
      "Ġtwenty": 541,
      "Ġatt": 542,
      "Ġlooked": 543,
      "Ġact": 544,
      "Ġcomm": 545,
      "dy": 546,
      "Ġthink": 547,
      "Ġmuch": 548,
      "Ġlet": 549,
      "oth": 550,
      "ily": 551,
      "Ġcall": 552,
      "Ġser": 553,
      "Ġop": 554,
      "'ll": 555,
      "ne": 556,
      "ations": 557,
      "Ġma": 558,
      "Ġaway": 559,
      "ise": 560,
      "air": 561,
      "Ġunk": 562,
      "ened": 563,
      "thing": 564,
      "llow": 565,
      "Ġnever": 566,
      "Ġwr": 567,
      "ors": 568,
      "but": 569,
      "Ġbel": 570,
      "Ġlife": 571,
      "side": 572,
      "Ġwell": 573,
      "Ġmake": 574,
      "ittle": 575,
      "anc": 576,
      "ition": 577,
      "Ġarm": 578,
      "ark": 579,
      "ons": 580,
      "Ġdr": 581,
      "teen": 582,
      "Ġke": 583,
      "ult": 584,
      "Ġlittle": 585,
      "Ġear": 586,
      "Ġseven": 587,
      "Ġwhile": 588,
      "!\"": 589,
      "Ġbeing": 590,
      "Ġvery": 591,
      "Ġsomething": 592,
      "les": 593,
      "Ġhel": 594,
      "ady": 595,
      "ock": 596,
      "Ġsur": 597,
      "ful": 598,
      "Ġstr": 599,
      "Ġmost": 600,
      "Ġ-": 601,
      "ah": 602,
      "Ġche": 603,
      "Ġimp": 604,
      "Ġbeg": 605,
      "Ġph": 606,
      "ves": 607,
      "igh": 608,
      "Ġgot": 609,
      "og": 610,
      "Ġface": 611,
      "ction": 612,
      "Ġgod": 613,
      "Ġbecause": 614,
      "whe": 615,
      "oss": 616,
      "Ġfin": 617,
      "Ġfeel": 618,
      "ss": 619,
      "Ġfif": 620,
      "Ġtake": 621,
      "Ġown": 622,
      "Ġwal": 623,
      "ew": 624,
      "ety": 625,
      "Ġent": 626,
      "no": 627,
      "Ġrel": 628,
      "ness": 629,
      "int": 630,
      "ried": 631,
      "tain": 632,
      "ook": 633,
      "Ġroom": 634,
      "Ġthese": 635,
      "cess": 636,
      "tw": 637,
      "hes": 638,
      "Ġasked": 639,
      "Ġend": 640,
      "Ġstart": 641,
      "ched": 642,
      "Ġev": 643,
      "Ġass": 644,
      "gg": 645,
      "Ġdoor": 646,
      "vel": 647,
      "Ġhapp": 648,
      "Ġcome": 649,
      "vers": 650,
      "ict": 651,
      "Ġtook": 652,
      "ents": 653,
      "Ġel": 654,
      "Ġwar": 655,
      "ying": 656,
      "Ġthose": 657,
      "Ġtell": 658,
      "ps": 659,
      "med": 660,
      "get": 661,
      "Ġworld": 662,
      "Ġrec": 663,
      "to": 664,
      "Ġwork": 665,
      "Ġbu": 666,
      "'ve": 667,
      "Ġlook": 668,
      "xt": 669,
      "Ġseem": 670,
      "Ġcame": 671,
      "ib": 672,
      "mo": 673,
      "Ġreal": 674,
      "Ġrep": 675,
      "Ġleft": 676,
      "Ġfound": 677,
      "aw": 678,
      "ower": 679,
      "Ġanother": 680,
      "ating": 681,
      "Ġret": 682,
      "Ġfind": 683,
      "ouse": 684,
      "Ġmany": 685,
      "Ġgreat": 686,
      "Ġold": 687,
      "ool": 688,
      "pect": 689,
      "Ġob": 690,
      "Ġfew": 691,
      "Ġinter": 692,
      "ont": 693,
      "ys": 694,
      "elt": 695,
      "Ġdec": 696,
      "Ġmom": 697,
      "ited": 698,
      "Ġmin": 699,
      "Ġmat": 700,
      "Ġsuch": 701,
      "Ġnor": 702,
      "ple": 703,
      "Ġset": 704,
      "ell": 705,
      "ange": 706,
      "uck": 707,
      "Ġhelp": 708,
      "dd": 709,
      "Ġsw": 710,
      "ual": 711,
      "ross": 712,
      "Ġwa": 713,
      "Ġwom": 714,
      "Ġplay": 715,
      "Ġtal": 716,
      "Ġpers": 717,
      "ible": 718,
      "Ġlast": 719,
      "Ġagainst": 720,
      "Ġboth": 721,
      "ince": 722,
      "ds": 723,
      "Ġknew": 724,
      "Ġfollow": 725,
      "Ġele": 726,
      "Ġput": 727,
      "Ġyears": 728,
      "ph": 729,
      "Ġdif": 730,
      "Ġsame": 731,
      "ng": 732,
      "what": 733,
      "Ġchar": 734,
      "Ġind": 735,
      "Ġfelt": 736,
      "Ġgen": 737,
      "Ġlight": 738,
      "Ġinst": 739,
      "Ġnin": 740,
      "ner": 741,
      "Ġacc": 742,
      "Ġnight": 743,
      "ates": 744,
      "Ġplace": 745,
      "Ġpass": 746,
      "Ġeach": 747,
      "Ġturned": 748,
      "ered": 749,
      "Ġmust": 750,
      "Ġbeh": 751,
      "li": 752,
      "Ġcons": 753,
      "az": 754,
      "ween": 755,
      "Ġsk": 756,
      "Ġcor": 757,
      "Ġwent": 758,
      "Ġwat": 759,
      "uring": 760,
      "Ġside": 761,
      "der": 762,
      "ling": 763,
      "Ġthings": 764,
      "Ġpar": 765,
      "til": 766,
      "ually": 767,
      "Ġz": 768,
      "Ġcle": 769,
      "Ġvo": 770,
      "iend": 771,
      "Ġpres": 772,
      "Ġsmall": 773,
      "aking": 774,
      "Ġmind": 775,
      "Ġhome": 776,
      "cond": 777,
      "Ġsupp": 778,
      "Ġbetween": 779,
      "Ġ.": 780,
      "Ġfriend": 781,
      "rent": 782,
      "ned": 783,
      "Ġmet": 784,
      "Ġreg": 785,
      "Ġthirty": 786,
      "ason": 787,
      "ank": 788,
      "Ġsy": 789,
      "ways": 790,
      "Ġmen": 791,
      "na": 792,
      "Ġfam": 793,
      "Ġten": 794,
      "Ġmight": 795,
      "ised": 796,
      "Ġtoward": 797,
      "Ġste": 798,
      "Ġtold": 799,
      "Ġcour": 800,
      "they": 801,
      "Ġdoes": 802,
      "Ġinv": 803,
      "Ġshow": 804,
      "Ġfar": 805,
      "sh": 806,
      "cept": 807,
      "Ġreally": 808,
      "Ġsou": 809,
      "ased": 810,
      "--": 811,
      "Ġuntil": 812,
      "Ġhouse": 813,
      "Ġhigh": 814,
      "Ġinc": 815,
      "Ġbelie": 816,
      "Ġsure": 817,
      "fect": 818,
      "Ġwhy": 819,
      "Ġwithout": 820,
      "Ġhimself": 821,
      "Ġsev": 822,
      "Ġlove": 823,
      "Ġmon": 824,
      "Ġsecond": 825,
      "Ġbre": 826,
      "aring": 827,
      "Ġnext": 828,
      "ished": 829,
      "Ġform": 830,
      "ond": 831,
      "Ġsaw": 832,
      "Ġhands": 833,
      "Ġrest": 834,
      "io": 835,
      "Ġchild": 836,
      "row": 837,
      "Ġsim": 838,
      "Ġfifty": 839,
      "up": 840,
      "Ġair": 841,
      "this": 842,
      "Ġsub": 843,
      "een": 844,
      "land": 845,
      "Ġkeep": 846,
      "ject": 847,
      "Ġsat": 848,
      "Ġbody": 849,
      "enc": 850,
      "Ġcontin": 851,
      "Ġthough": 852,
      "less": 853,
      "Ġopen": 854,
      "Ġdist": 855,
      "Ġexp": 856,
      "Ġrun": 857,
      "Ġed": 858,
      "amp": 859,
      "pr": 860,
      "ero": 861,
      "bo": 862,
      "af": 863,
      "Ġhard": 864,
      "bed": 865,
      "rew": 866,
      "ci": 867,
      "Ġlar": 868,
      "Ġwasn": 869,
      "ever": 870,
      "ream": 871,
      "form": 872,
      "osed": 873,
      "ained": 874,
      "irl": 875,
      "ret": 876,
      "Ġenough": 877,
      "its": 878,
      "als": 879,
      "ount": 880,
      "Ġperson": 881,
      "Ġforty": 882,
      "that": 883,
      "Ġwanted": 884,
      "ck": 885,
      "aught": 886,
      "Ġthing": 887,
      "Ġappe": 888,
      "Ġpull": 889,
      "by": 890,
      "clud": 891,
      "Ġcap": 892,
      "Ġnothing": 893,
      "Ġalways": 894,
      "Ġmor": 895,
      "Ġconf": 896,
      "Ġstand": 897,
      "Ġbehind": 898,
      "Ġcare": 899,
      ".'": 900,
      "ten": 901,
      ").": 902,
      "Ġanything": 903,
      "Ġpol": 904,
      "Ġninety": 905,
      "not": 906,
      "Ġadd": 907,
      "ale": 908,
      "Ġever": 909,
      "cer": 910,
      "ific": 911,
      "ular": 912,
      "Ġcent": 913,
      "ters": 914,
      "there": 915,
      "Ġfather": 916,
      "day": 917,
      "uth": 918,
      "Ġsch": 919,
      "Ġonce": 920,
      "most": 921,
      "Ġused": 922,
      "Ġcur": 923,
      "Ġsound": 924,
      "Ġreturn": 925,
      "ins": 926,
      "Ġvoice": 927,
      "Ġlater": 928,
      "Ġter": 929,
      "Ġwater": 930,
      "my": 931,
      "Ġgirl": 932,
      "Ġ,": 933,
      "used": 934,
      "ired": 935,
      "ized": 936,
      "Ġplan": 937,
      "ined": 938,
      "Ġnum": 939,
      "how": 940,
      "ently": 941,
      "Ġdire": 942,
      "Ġeng": 943,
      "iting": 944,
      "Ġmoment": 945,
      "Ġpat": 946,
      "),": 947,
      "Ġnear": 948,
      "Ġwind": 949,
      "Ġexpl": 950,
      "Ġsince": 951,
      "ger": 952,
      "Ġdark": 953,
      "Ġdiffe": 954,
      "Ġfront": 955,
      "two": 956,
      "Ġbegan": 957,
      "Ġbar": 958,
      "ention": 959,
      "eric": 960,
      "Ġcoll": 961,
      "Ġchr": 962,
      "Ġcalled": 963,
      "att": 964,
      "ures": 965,
      "ash": 966,
      "rest": 967,
      "Ġstud": 968,
      "Ġposs": 969,
      "lic": 970,
      "ching": 971,
      "Ġgive": 972,
      "ided": 973,
      "Ġlooking": 974,
      "Ġuse": 975,
      "Ġsign": 976,
      "iew": 977,
      "Ġbed": 978,
      "Ġkill": 979,
      "Ġbetter": 980,
      "Ġheart": 981,
      "br": 982,
      "cc": 983,
      "Ġmiss": 984,
      "Ġcol": 985,
      "Ġpower": 986,
      "ately": 987,
      "Ġmother": 988,
      "Ġbest": 989,
      "Ġlead": 990,
      "ts": 991,
      "Ġmus": 992,
      "Ġdet": 993,
      "Ġsil": 994,
      "Ġes": 995,
      "Ġyoung": 996,
      "ably": 997,
      "ense": 998,
      "ued": 999,
      "Ġbus": 1000,
      "ced": 1001,
      "well": 1002,
      "when": 1003,
      "Ġloc": 1004,
      "Ġmem": 1005,
      "Ġple": 1006,
      "ton": 1007,
      "Ġname": 1008,
      "Ġquest": 1009,
      "Ġcouldn": 1010,
      "Ġspec": 1011,
      "Ġunderst": 1012,
      "ier": 1013,
      "ached": 1014,
      "Ġquick": 1015,
      "Ġhal": 1016,
      "Ġwoman": 1017,
      "ured": 1018,
      "Ġsixty": 1019,
      "ities": 1020,
      "ative": 1021,
      "Ġalong": 1022,
      "ully": 1023,
      "Ġref": 1024,
      "Ġblack": 1025,
      "Ġred": 1026,
      "Ġcomple": 1027,
      "ms": 1028,
      "Ġheard": 1029,
      "Ġtri": 1030,
      "Ġvis": 1031,
      "aced": 1032,
      "Ġseventy": 1033,
      "ric": 1034,
      "me": 1035,
      "Ġpoint": 1036,
      "Ġinclud": 1037,
      "akes": 1038,
      "Ġread": 1039,
      "Ġca": 1040,
      "Ġhold": 1041,
      "Ġans": 1042,
      "Ġfore": 1043,
      "Ġmean": 1044,
      "ither": 1045,
      "ames": 1046,
      "Ġeighty": 1047,
      "Ġcount": 1048,
      "ene": 1049,
      "Ġduring": 1050,
      "Ġland": 1051,
      "Ġra": 1052,
      "Ġgave": 1053,
      "Ġtrans": 1054,
      "Ġinte": 1055,
      "gr": 1056,
      "ged": 1057,
      "Ġgre": 1058,
      "ments": 1059,
      "Ġmr": 1060,
      "ho": 1061,
      "Ġins": 1062,
      "olog": 1063,
      "Ġupon": 1064,
      "Ġseemed": 1065,
      "Ġwall": 1066,
      "Ġgener": 1067,
      "Ġlau": 1068,
      "Ġyet": 1069,
      "ready": 1070,
      "ute": 1071,
      "Ġsec": 1072,
      "ember": 1073,
      "Ġwee": 1074,
      "iled": 1075,
      "Ġseen": 1076,
      "Ġtre": 1077,
      "ines": 1078,
      "Ġkind": 1079,
      "Ġstarted": 1080,
      "Ġfact": 1081,
      "Ġpur": 1082,
      "Ġfamily": 1083,
      "Ġide": 1084,
      "Ġbig": 1085,
      "Ġbro": 1086,
      "ane": 1087,
      "ield": 1088,
      "Ġflo": 1089,
      "hn": 1090,
      "tern": 1091,
      "Ġalready": 1092,
      "ces": 1093,
      "Ġstood": 1094,
      "Ġpain": 1095,
      "Ġprot": 1096,
      "Ġdone": 1097,
      "Ġacross": 1098,
      "Ġpa": 1099,
      "Ġlarge": 1100,
      "Ġhour": 1101,
      "gether": 1102,
      "Ġtogether": 1103,
      "ering": 1104,
      "Ġrepl": 1105,
      "Ġdays": 1106,
      "Ġstate": 1107,
      "Ġalmost": 1108,
      "Ġsing": 1109,
      "Ġdri": 1110,
      "Ġsoon": 1111,
      "ets": 1112,
      "Ġbreat": 1113,
      "Ġinside": 1114,
      "Ġmed": 1115,
      "Ġleg": 1116,
      "oke": 1117,
      "ility": 1118,
      "Ġschool": 1119,
      "orn": 1120,
      "veral": 1121,
      "gn": 1122,
      "iness": 1123,
      "Ġprod": 1124,
      "Ġeverything": 1125,
      "Ġcity": 1126,
      "Ġmove": 1127,
      "now": 1128,
      "Ġyear": 1129,
      "Ġeas": 1130,
      "Ġdeep": 1131,
      "Ġking": 1132,
      "Ġnat": 1133,
      "Ġwords": 1134,
      "Ġdifferent": 1135,
      "Ġdem": 1136,
      "Ġhar": 1137,
      "aps": 1138,
      "Ġsle": 1139,
      "app": 1140,
      "Ġclose": 1141,
      "Ġresp": 1142,
      "Ġhuman": 1143,
      "Ġchrist": 1144,
      "Ġthin": 1145,
      "jo": 1146,
      "Ġothers": 1147,
      "Ġhaving": 1148,
      "che": 1149,
      "Ġdro": 1150,
      "Ġlist": 1151,
      "Ġgi": 1152,
      "iet": 1153,
      "Ġsomeone": 1154,
      "Ġheld": 1155,
      "rie": 1156,
      "Ġfeet": 1157,
      "Ġlot": 1158,
      "ump": 1159,
      "Ġsto": 1160,
      "Ġbuild": 1161,
      "Ġadv": 1162,
      "Ġelse": 1163,
      "Ġtrying": 1164,
      "iver": 1165,
      "Ġwalked": 1166,
      "Ġslow": 1167,
      "Ġmag": 1168,
      "ics": 1169,
      "Ġinf": 1170,
      "ational": 1171,
      "Ġunderstand": 1172,
      "Ġpub": 1173,
      "ertain": 1174,
      "ience": 1175,
      "Ġpast": 1176,
      "Ġstay": 1177,
      "Ġhalf": 1178,
      "Ġgrou": 1179,
      "aken": 1180,
      "ically": 1181,
      "Ġdep": 1182,
      "ident": 1183,
      "Ġdeath": 1184,
      "Ġhair": 1185,
      "Ġseveral": 1186,
      "ants": 1187,
      "\".": 1188,
      "Ġfil": 1189,
      "Ġdoing": 1190,
      "after": 1191,
      "hip": 1192,
      "Ġtimes": 1193,
      "Ġbit": 1194,
      "zero": 1195,
      "Ġappro": 1196,
      "Ġmil": 1197,
      "idd": 1198,
      "Ġground": 1199,
      "Ġblood": 1200,
      "Ġprom": 1201,
      "ny": 1202,
      "Ġfall": 1203,
      "Ġdef": 1204,
      "Ġpri": 1205,
      "ime": 1206,
      "Ġexper": 1207,
      "ressed": 1208,
      "Ġsqu": 1209,
      "Ġable": 1210,
      "Ġwhite": 1211,
      "any": 1212,
      "ott": 1213,
      "though": 1214,
      "ize": 1215,
      "oney": 1216,
      "Ġmeet": 1217,
      "Ġshort": 1218,
      "arent": 1219,
      "where": 1220,
      "Ġhur": 1221,
      "ug": 1222,
      "Ġmain": 1223,
      "vern": 1224,
      "Ġsit": 1225,
      "Ġbelieve": 1226,
      "Ġtop": 1227,
      "Ġfire": 1228,
      "Ġtried": 1229,
      "Ġpos": 1230,
      "nded": 1231,
      "Ġext": 1232,
      "Ġaw": 1233,
      "Ġleast": 1234,
      "Ġla": 1235,
      "Ġgame": 1236,
      "Ġcourse": 1237,
      "Ġdirect": 1238,
      "Ġleave": 1239,
      "outh": 1240,
      "Ġfur": 1241,
      "Ġcre": 1242,
      "ove": 1243,
      "ows": 1244,
      "Ġsays": 1245,
      "Ġnumber": 1246,
      "ye": 1247,
      "Ġwon": 1248,
      "Ġocc": 1249,
      "Ġdisc": 1250,
      "Ġcal": 1251,
      "Ġfull": 1252,
      "Ġcontro": 1253,
      "ides": 1254,
      "Ġless": 1255,
      "Ġship": 1256,
      "pping": 1257,
      "elve": 1258,
      "ron": 1259,
      "ision": 1260,
      "Ġart": 1261,
      "Ġcoun": 1262,
      "Ġhear": 1263,
      "gin": 1264,
      "cri": 1265,
      "ient": 1266,
      "Ġtable": 1267,
      "Ġtowards": 1268,
      "Ġbecame": 1269,
      "go": 1270,
      "ards": 1271,
      "Ġsuc": 1272,
      "Ġpulled": 1273,
      "Ġbook": 1274,
      "Ġap": 1275,
      "Ġmyself": 1276,
      "Ġstop": 1277,
      "Ġwithin": 1278,
      "Ġprov": 1279,
      "Ġhor": 1280,
      "ax": 1281,
      "Ġmaking": 1282,
      "iously": 1283,
      "ists": 1284,
      "oh": 1285,
      "Ġbad": 1286,
      "Ġarms": 1287,
      "Ġjohn": 1288,
      "ison": 1289,
      "fully": 1290,
      "Ġameric": 1291,
      "Ġran": 1292,
      "Ġstep": 1293,
      "Ġrele": 1294,
      "Ġherself": 1295,
      "aged": 1296,
      "velop": 1297,
      "Ġdead": 1298,
      "ues": 1299,
      "lled": 1300,
      "Ġconst": 1301,
      "Ġopp": 1302,
      "Ġlaw": 1303,
      "ains": 1304,
      "Ġteam": 1305,
      "stem": 1306,
      "gan": 1307,
      "let": 1308,
      "aut": 1309,
      "com": 1310,
      "Ġsun": 1311,
      "Ġclear": 1312,
      "Ġfree": 1313,
      "Ġstre": 1314,
      "Ġswe": 1315,
      "Ġmorning": 1316,
      "oun": 1317,
      "selves": 1318,
      "Ġcoming": 1319,
      "Ġty": 1320,
      "ister": 1321,
      "Ġav": 1322,
      "his": 1323,
      "Ġspir": 1324,
      "Ġsmile": 1325,
      "Ġcell": 1326,
      "Ġroad": 1327,
      "Ġquickly": 1328,
      "Ġrece": 1329,
      "Ġfloor": 1330,
      "ived": 1331,
      "Ġfing": 1332,
      "Ġfight": 1333,
      "uss": 1334,
      "Ġsent": 1335,
      "Ġchildren": 1336,
      "Ġprob": 1337,
      "ages": 1338,
      "Ġlear": 1339,
      "Ġge": 1340,
      "Ġreason": 1341,
      "Ġgetting": 1342,
      "con": 1343,
      "Ġmoved": 1344,
      "head": 1345,
      "Ġwin": 1346,
      "Ġmouth": 1347,
      "wer": 1348,
      "Ġknown": 1349,
      "itting": 1350,
      "Ġrecord": 1351,
      "yes": 1352,
      "uff": 1353,
      "Ġallow": 1354,
      "utes": 1355,
      "Ġadm": 1356,
      "ians": 1357,
      "ork": 1358,
      "Ġmaybe": 1359,
      "aster": 1360,
      "Ġhowever": 1361,
      "Ġwhole": 1362,
      "Ġline": 1363,
      "Ġcat": 1364,
      "Ġcertain": 1365,
      "Ġcontinued": 1366,
      "then": 1367,
      "Ġson": 1368,
      "Ġdou": 1369,
      "ism": 1370,
      "Ġword": 1371,
      "Ġsystem": 1372,
      "Ġoffic": 1373,
      "icked": 1374,
      "Ġtalk": 1375,
      "ract": 1376,
      "vered": 1377,
      "Ġbecome": 1378,
      "fort": 1379,
      "Ġneeded": 1380,
      "Ġwo": 1381,
      "do": 1382,
      "Ġserv": 1383,
      "five": 1384,
      "ives": 1385,
      "Ġinterest": 1386,
      "ster": 1387,
      "Ġbrother": 1388,
      "umb": 1389,
      "Ġquestion": 1390,
      "Ġlord": 1391,
      "with": 1392,
      "Ġtom": 1393,
      "ression": 1394,
      "Ġbur": 1395,
      "Ġve": 1396,
      "Ġest": 1397,
      "Ġtou": 1398,
      "ik": 1399,
      "rought": 1400,
      "Ġfun": 1401,
      "Ġidea": 1402,
      "Ġearth": 1403,
      "Ġsn": 1404,
      "Ġreached": 1405,
      "Ġsmiled": 1406,
      "Ġsong": 1407,
      "ution": 1408,
      "Ġopened": 1409,
      "aining": 1410,
      "son": 1411,
      "ral": 1412,
      "Ġboy": 1413,
      "Ġgiven": 1414,
      "Ġlive": 1415,
      "Ġmoney": 1416,
      "Ġmill": 1417,
      "irt": 1418,
      "Ġgroup": 1419,
      "Ġtwelve": 1420,
      "Ġlost": 1421,
      "Ġdevelop": 1422,
      "Ġexpect": 1423,
      "Ġimport": 1424,
      "Ġgovern": 1425,
      "Ġtown": 1426,
      "ote": 1427,
      "cent": 1428,
      "gy": 1429,
      "Ġfig": 1430,
      "aim": 1431,
      "raw": 1432,
      "ushed": 1433,
      "empt": 1434,
      "Ġorder": 1435,
      "Ġcond": 1436,
      "Ġmonth": 1437,
      "bers": 1438,
      "inted": 1439,
      "mer": 1440,
      "Ġstory": 1441,
      "Ġeither": 1442,
      "Ġtaken": 1443,
      "Ġprev": 1444,
      "Ġstrong": 1445,
      "Ġdam": 1446,
      "ma": 1447,
      "Ġeye": 1448,
      "Ġgone": 1449,
      "ening": 1450,
      "Ġattack": 1451,
      "Ġcase": 1452,
      "ead": 1453,
      "Ġask": 1454,
      "aces": 1455,
      "Ġwouldn": 1456,
      "tered": 1457,
      "Ġfa": 1458,
      ",'": 1459,
      "Ġchang": 1460,
      "nding": 1461,
      "Ġpartic": 1462,
      "Ġtaking": 1463,
      "ivers": 1464,
      "uct": 1465,
      "Ġgrow": 1466,
      "Ġbrought": 1467,
      "Ġcir": 1468,
      "ruct": 1469,
      "Ġdest": 1470,
      "Ġvar": 1471,
      "Ġfoot": 1472,
      "Ġrev": 1473,
      "Ġnodd": 1474,
      "Ġrequ": 1475,
      "Ġlow": 1476,
      "ept": 1477,
      "Ġreco": 1478,
      "ina": 1479,
      "Ġhappened": 1480,
      "Ġprobably": 1481,
      "Ġshall": 1482,
      "Ġnorth": 1483,
      "dden": 1484,
      "ken": 1485,
      "Ġeveryone": 1486,
      "Ġsleep": 1487,
      "Ġdiv": 1488,
      "Ġclos": 1489,
      "Ġsho": 1490,
      "Ġer": 1491,
      "Ġce": 1492,
      "Ġdev": 1493,
      "Ġminutes": 1494,
      "Ġmatter": 1495,
      "Ġarri": 1496,
      "Ġclass": 1497,
      "Ġid": 1498,
      "three": 1499,
      "Ġcomplete": 1500,
      "cle": 1501,
      "Ġoutside": 1502,
      "Ġearly": 1503,
      "eth": 1504,
      "ots": 1505,
      "ury": 1506,
      "lo": 1507,
      "ified": 1508,
      "Ġfriends": 1509,
      "Ġforward": 1510,
      "Ġpop": 1511,
      "yed": 1512,
      "\",": 1513,
      "Ġremember": 1514,
      "Ġprop": 1515,
      "Ġhope": 1516,
      "Ġfinally": 1517,
      "Ġcharac": 1518,
      "ung": 1519,
      "Ġstopped": 1520,
      "aving": 1521,
      "Ġfood": 1522,
      "Ġbatt": 1523,
      "Ġfeeling": 1524,
      "Ġstor": 1525,
      "ural": 1526,
      "Ġsudden": 1527,
      "Ġbir": 1528,
      "ital": 1529,
      "Ġtrue": 1530,
      "Ġproble": 1531,
      "ony": 1532,
      "Ġmark": 1533,
      "Ġchur": 1534,
      "Ġval": 1535,
      "Ġsurpr": 1536,
      "ffect": 1537,
      "four": 1538,
      "Ġhist": 1539,
      "Ġbring": 1540,
      "Ġori": 1541,
      "room": 1542,
      "lf": 1543,
      "Ġtry": 1544,
      "Ġcross": 1545,
      "six": 1546,
      "Ġcommand": 1547,
      "Ġbreath": 1548,
      "Ġcut": 1549,
      "ief": 1550,
      "ush": 1551,
      "Ġkept": 1552,
      "Ġcontrol": 1553,
      "Ġhot": 1554,
      "Ġbreak": 1555,
      "Ġfollowed": 1556,
      "Ġwomen": 1557,
      "ices": 1558,
      "Ġspeak": 1559,
      "airs": 1560,
      "Ġchange": 1561,
      "otion": 1562,
      "erv": 1563,
      "Ġalone": 1564,
      "arch": 1565,
      "Ġbeaut": 1566,
      "ley": 1567,
      "ior": 1568,
      "ider": 1569,
      "Ġsal": 1570,
      "Ġfre": 1571,
      "twenty": 1572,
      "Ġarea": 1573,
      "Ġcreat": 1574,
      "Ġhall": 1575,
      "Ġmess": 1576,
      "Ġanyone": 1577,
      "Ġep": 1578,
      "Ġpresent": 1579,
      "ape": 1580,
      "Ġnodded": 1581,
      "Ġquite": 1582,
      "Ġamong": 1583,
      "Ġlou": 1584,
      "Ġann": 1585,
      "Ġoften": 1586,
      "Ġspirit": 1587,
      "kay": 1588,
      "Ġprof": 1589,
      "?'": 1590,
      "Ġdoesn": 1591,
      "Ġwood": 1592,
      "inc": 1593,
      "ising": 1594,
      "Ġgun": 1595,
      "Ġliving": 1596,
      "iving": 1597,
      "ze": 1598,
      "Ġwonder": 1599,
      "Ġdel": 1600,
      "Ġready": 1601,
      "Ġview": 1602,
      "Ġsouth": 1603,
      "Ġonto": 1604,
      "Ġeffect": 1605,
      "ler": 1606,
      "...\"": 1607,
      "Ġlif": 1608,
      "rap": 1609,
      "rence": 1610,
      "ches": 1611,
      "Ġlay": 1612,
      "amed": 1613,
      "Ġje": 1614,
      "Ġsor": 1615,
      "esus": 1616,
      "Ġbas": 1617,
      "ats": 1618,
      "Ġport": 1619,
      "Ġbegin": 1620,
      "alth": 1621,
      "une": 1622,
      "Ġbusiness": 1623,
      "Ġreport": 1624,
      "Ġsam": 1625,
      "bs": 1626,
      "Ġfill": 1627,
      "ipped": 1628,
      "Ġmusic": 1629,
      "Ġabove": 1630,
      "haps": 1631,
      "mb": 1632,
      "Ġrather": 1633,
      "Ġkiss": 1634,
      "Ġcommun": 1635,
      "Ġmaj": 1636,
      "Ġreplied": 1637,
      "just": 1638,
      "ilt": 1639,
      "Ġhop": 1640,
      "Ġfifteen": 1641,
      "Ġeleven": 1642,
      "Ġpay": 1643,
      "Ġgrab": 1644,
      "Ġpet": 1645,
      "Ġhon": 1646,
      "of": 1647,
      "ids": 1648,
      "Ġtruth": 1649,
      "Ġexam": 1650,
      "Ġant": 1651,
      "Ġbill": 1652,
      "Ġtem": 1653,
      "read": 1654,
      "Ġchurch": 1655,
      "like": 1656,
      "eng": 1657,
      "Ġjack": 1658,
      "anced": 1659,
      "Ġtest": 1660,
      "Ġmer": 1661,
      "Ġthinking": 1662,
      "Ġsaying": 1663,
      "Ġsol": 1664,
      "ones": 1665,
      "Ġled": 1666,
      "Ġpossible": 1667,
      "ming": 1668,
      "ination": 1669,
      "imes": 1670,
      "osp": 1671,
      "els": 1672,
      "Ġdecided": 1673,
      "Ġjud": 1674,
      "Ġdream": 1675,
      "Ġsupport": 1676,
      "iding": 1677,
      "Ġfollowing": 1678,
      "Ġsuccess": 1679,
      "Ġgrand": 1680,
      "Ġslowly": 1681,
      "ator": 1682,
      "Ġentire": 1683,
      "Ġheav": 1684,
      "antly": 1685,
      "Ġwrong": 1686,
      "Ġconcer": 1687,
      "par": 1688,
      "Ġdescri": 1689,
      "Ġoffice": 1690,
      "Ġfell": 1691,
      "Ġsense": 1692,
      "medi": 1693,
      "Ġhours": 1694,
      "Ġequ": 1695,
      "Ġwalk": 1696,
      "Ġinform": 1697,
      "Ġang": 1698,
      "Ġill": 1699,
      "Ġhit": 1700,
      "anger": 1701,
      "iff": 1702,
      "uced": 1703,
      "Ġpublic": 1704,
      "Ġsold": 1705,
      "Ġsoft": 1706,
      "Ġphone": 1707,
      "Ġprotect": 1708,
      "aughter": 1709,
      "Ġcountry": 1710,
      "Ġwatched": 1711,
      "iter": 1712,
      "ances": 1713,
      "Ġhell": 1714,
      "Ġbuilding": 1715,
      "Ġhadn": 1716,
      "Ġorigin": 1717,
      "Ġhum": 1718,
      "Ġfurther": 1719,
      "Ġquiet": 1720,
      "Ġreturned": 1721,
      "Ġlim": 1722,
      "Ġlate": 1723,
      "Ġmount": 1724,
      "Ġactually": 1725,
      "iam": 1726,
      "Ġpap": 1727,
      "Ġfear": 1728,
      "Ġsingle": 1729,
      "Ġexc": 1730,
      "eight": 1731,
      "ex": 1732,
      "body": 1733,
      "Ġcast": 1734,
      "rugg": 1735,
      "Ġcamp": 1736,
      "ann": 1737,
      "Ġnews": 1738,
      "Ġoper": 1739,
      "Ġinde": 1740,
      "Ġlonger": 1741,
      "Ġbes": 1742,
      "Ġesc": 1743,
      "Ġpassed": 1744,
      "Ġstates": 1745,
      "fr": 1746,
      "Ġstreet": 1747,
      "Ġweek": 1748,
      "ls": 1749,
      "Ġtoday": 1750,
      "Ġinstead": 1751,
      "Ġdeal": 1752,
      "Ġspoke": 1753,
      "Ġincre": 1754,
      "Ġpie": 1755,
      "Ġblue": 1756,
      "Ġcold": 1757,
      "Ġemp": 1758,
      "iced": 1759,
      "Ġobs": 1760,
      "Ġsuper": 1761,
      "Ġanim": 1762,
      "thir": 1763,
      "Ġsus": 1764,
      "Ġmur": 1765,
      "Ġshook": 1766,
      "Ġthemselves": 1767,
      "Ġdesign": 1768,
      "Ġincluding": 1769,
      "Ġfilm": 1770,
      "ai": 1771,
      "Ġger": 1772,
      "Ġforce": 1773,
      "Ġimportant": 1774,
      "Ġstra": 1775,
      "Ġwhis": 1776,
      "lect": 1777,
      "Ġwife": 1778,
      "Ġworking": 1779,
      "Ġevent": 1780,
      "Ġattention": 1781,
      "Ġparent": 1782,
      "ney": 1783,
      "ring": 1784,
      "Ġjesus": 1785,
      "Ġself": 1786,
      "Ġtalking": 1787,
      "Ġstanding": 1788,
      "Ġgeneral": 1789,
      "Ġlevel": 1790,
      "Ġclosed": 1791,
      "lish": 1792,
      "Ġago": 1793,
      "Ġconn": 1794,
      "Ġanswer": 1795,
      "don": 1796,
      "come": 1797,
      "Ġdisapp": 1798,
      "ggest": 1799,
      "aff": 1800,
      "Ġimag": 1801,
      "mber": 1802,
      "Ġspace": 1803,
      "Ġattempt": 1804,
      "Ġvict": 1805,
      "Ġgovernment": 1806,
      "Ġseason": 1807,
      "ob": 1808,
      "here": 1809,
      "Ġsum": 1810,
      "Ġsuggest": 1811,
      "Ġdiff": 1812,
      "uly": 1813,
      "Ġthr": 1814,
      "iful": 1815,
      "Ġglass": 1816,
      "Ġgold": 1817,
      "rod": 1818,
      "Ġauth": 1819,
      "aned": 1820,
      "lling": 1821,
      "Ġmajor": 1822,
      "Ġjob": 1823,
      "Ġalb": 1824,
      "Ġresult": 1825,
      "Ġabs": 1826,
      "isted": 1827,
      "Ġtor": 1828,
      "Ġsens": 1829,
      "Ġimmedi": 1830,
      "Ġver": 1831,
      "und": 1832,
      "Ġpal": 1833,
      "idence": 1834,
      "Ġcompany": 1835,
      "Ġpract": 1836,
      "Ġlips": 1837,
      "Ġalthough": 1838,
      "Ġunited": 1839,
      "Ġposition": 1840,
      "Ġusing": 1841,
      "Ġaccept": 1842,
      "od": 1843,
      "ror": 1844,
      "lly": 1845,
      "Ġbab": 1846,
      "Ġpret": 1847,
      "Ġseries": 1848,
      "ert": 1849,
      "Ġyes": 1850,
      "Ġriver": 1851,
      "ium": 1852,
      "Ġwaiting": 1853,
      "aching": 1854,
      "Ġsecret": 1855,
      "Ġpress": 1856,
      "Ġwindow": 1857,
      "aves": 1858,
      "idge": 1859,
      "Ġcam": 1860,
      "Ġappeared": 1861,
      "Ġtrave": 1862,
      "ement": 1863,
      "Ġconv": 1864,
      "ging": 1865,
      "Ġthirteen": 1866,
      "Ġrock": 1867,
      "Ġelect": 1868,
      "port": 1869,
      "ili": 1870,
      "ghed": 1871,
      "Ġdad": 1872,
      "Ġfle": 1873,
      "unk": 1874,
      "Ġmeans": 1875,
      "Ġcharacter": 1876,
      "Ġround": 1877,
      "Ġguess": 1878,
      "ude": 1879,
      "Ġcannot": 1880,
      "que": 1881,
      "Ġeff": 1882,
      "Ġrad": 1883,
      "Ġshoulder": 1884,
      "Ġgreen": 1885,
      "Ġdoub": 1886,
      "Ġage": 1887,
      "Ġwest": 1888,
      "Ġrunning": 1889,
      "Ġfail": 1890,
      "Ġappear": 1891,
      "Ġfourteen": 1892,
      "Ġfield": 1893,
      "ha": 1894,
      "Ġcho": 1895,
      "Ġir": 1896,
      "Ġbott": 1897,
      "Ġshot": 1898,
      "Ġchair": 1899,
      "aled": 1900,
      "Ġunivers": 1901,
      "Ġchest": 1902,
      "Ġdoct": 1903,
      "Ġmod": 1904,
      "Ġcry": 1905,
      "Ġhappy": 1906,
      "Ġcaught": 1907,
      "ively": 1908,
      "ored": 1909,
      "Ġbene": 1910,
      "ara": 1911,
      "Ġwait": 1912,
      "why": 1913,
      "ries": 1914,
      "Ġsuddenly": 1915,
      "Ġchance": 1916,
      "Ġda": 1917,
      "Ġperfect": 1918,
      "ift": 1919,
      "Ġmad": 1920,
      "ery": 1921,
      "Ġskin": 1922,
      "Ġenjo": 1923,
      "ped": 1924,
      "Ġcouple": 1925,
      "atever": 1926,
      "Ġlaugh": 1927,
      "iling": 1928,
      "Ġamerican": 1929,
      "bing": 1930,
      "ope": 1931,
      "ns": 1932,
      "Ġcommon": 1933,
      "atic": 1934,
      "ooks": 1935,
      "Ġsort": 1936,
      "Ġclot": 1937,
      "Ġdie": 1938,
      "more": 1939,
      "Ġorgan": 1940,
      "itted": 1941,
      "Ġmass": 1942,
      "Ġslight": 1943,
      "str": 1944,
      "ee": 1945,
      "Ġstraight": 1946,
      "Ġpen": 1947,
      "Ġperhaps": 1948,
      "lu": 1949,
      "Ġdin": 1950,
      "ply": 1951,
      "Ġfut": 1952,
      "raft": 1953,
      "Ġsitting": 1954,
      "ffe": 1955,
      "Ġthird": 1956,
      "Ġange": 1957,
      "Ġlooks": 1958,
      "Ġlab": 1959,
      "ording": 1960,
      "Ġpot": 1961,
      "ality": 1962,
      "dom": 1963,
      "Ġkit": 1964,
      "cially": 1965,
      "Ġinformation": 1966,
      "Ġfeat": 1967,
      "Ġguy": 1968,
      "iddle": 1969,
      "Ġitself": 1970,
      "Ġagre": 1971,
      "Ġguard": 1972,
      "Ġcas": 1973,
      "cious": 1974,
      "ana": 1975,
      "Ġpretty": 1976,
      "ilar": 1977,
      "Ġpath": 1978,
      "Ġfav": 1979,
      "Ġfine": 1980,
      "right": 1981,
      "Ġprocess": 1982,
      "Ġmeant": 1983,
      "cial": 1984,
      "Ġtrust": 1985,
      "Ġneck": 1986,
      "bert": 1987,
      "Ġproper": 1988,
      "use": 1989,
      "Ġbattle": 1990,
      "Ġbrit": 1991,
      "Ġexact": 1992,
      "Ġwatch": 1993,
      "Ġstar": 1994,
      "Ġinvol": 1995,
      "Ġdefe": 1996,
      "Ġlaughed": 1997,
      "Ġmir": 1998,
      "light": 1999,
      "Ġsorry": 2000,
      "Ġfoc": 2001,
      "Ġden": 2002,
      "Ġparents": 2003,
      "Ġauthor": 2004,
      "ology": 2005,
      "while": 2006,
      "Ġpost": 2007,
      "Ġcy": 2008,
      "rupt": 2009,
      "Ġreceived": 2010,
      "Ġmonths": 2011,
      "Ġfinal": 2012,
      "itions": 2013,
      "Ġmakes": 2014,
      "Ġband": 2015,
      "Ġbow": 2016,
      "Ġsitu": 2017,
      "Ġgra": 2018,
      "Ġdiffic": 2019,
      "Ġparticular": 2020,
      "Ġparty": 2021,
      "Ġintern": 2022,
      "Ġtech": 2023,
      "asure": 2024,
      "Ġfast": 2025,
      "old": 2026,
      "ike": 2027,
      "Ġbeautiful": 2028,
      "Ġiss": 2029,
      "rop": 2030,
      "Ġdisco": 2031,
      "Ġben": 2032,
      "Ġgaz": 2033,
      "Ġdrag": 2034,
      "acing": 2035,
      "Ġstri": 2036,
      "hy": 2037,
      "Ġcop": 2038,
      "ball": 2039,
      "Ġburn": 2040,
      "Ġreve": 2041,
      "Ġrich": 2042,
      "Ġphys": 2043,
      "Ġkilled": 2044,
      "wards": 2045,
      "acy": 2046,
      "Ġtrack": 2047,
      "Ġalbum": 2048,
      "Ġenc": 2049,
      "Ġwide": 2050,
      "Ġisn": 2051,
      "Ġhy": 2052,
      "erm": 2053,
      "ocked": 2054,
      "ray": 2055,
      "Ġsex": 2056,
      "Ġdied": 2057,
      "Ġleaving": 2058,
      "ency": 2059,
      "Ġplease": 2060,
      "Ġarmy": 2061,
      "Ġrecogn": 2062,
      "Ġcover": 2063,
      "Ġsafe": 2064,
      "Ġyourself": 2065,
      "itive": 2066,
      "Ġball": 2067,
      "Ġmiddle": 2068,
      "Ġconnect": 2069,
      "Ġfingers": 2070,
      "Ġru": 2071,
      "Ġtight": 2072,
      "Ġpray": 2073,
      "Ġvi": 2074,
      "ulation": 2075,
      "pend": 2076,
      "Ġtot": 2077,
      "Ġapart": 2078,
      "mal": 2079,
      "Ġpict": 2080,
      "itten": 2081,
      "unt": 2082,
      "unch": 2083,
      "por": 2084,
      "Ġtrou": 2085,
      "Ġadded": 2086,
      "Ġspecial": 2087,
      "Ġproblem": 2088,
      "Ġthoughts": 2089,
      "zz": 2090,
      "Ġdue": 2091,
      "Ġaust": 2092,
      "Ġhig": 2093,
      "Ġnational": 2094,
      "Ġsett": 2095,
      "Ġsir": 2096,
      "Ġexcept": 2097,
      "Ġforg": 2098,
      "Ġholding": 2099,
      "aded": 2100,
      "fer": 2101,
      "Ġplaced": 2102,
      "mon": 2103,
      "Ġclaim": 2104,
      "Ġcrit": 2105,
      "Ġmis": 2106,
      "Ġener": 2107,
      "Ġcourt": 2108,
      "Ġnature": 2109,
      "atter": 2110,
      "su": 2111,
      "Ġworked": 2112,
      "Ġstone": 2113,
      "Ġhung": 2114,
      "uce": 2115,
      "Ġfair": 2116,
      "Ġepis": 2117,
      "sb": 2118,
      "Ġstared": 2119,
      "Ġwhether": 2120,
      "chen": 2121,
      "Ġraised": 2122,
      "Ġbag": 2123,
      "Ġund": 2124,
      "Ġrese": 2125,
      "Ġwarm": 2126,
      "ode": 2127,
      "Ġvol": 2128,
      "ration": 2129,
      "ey": 2130,
      "Ġseat": 2131,
      "ially": 2132,
      "line": 2133,
      "Ġcollect": 2134,
      "Ġfuture": 2135,
      "Ġexist": 2136,
      "Ġsuff": 2137,
      "Ġgar": 2138,
      "sc": 2139,
      "Ġwit": 2140,
      "pecially": 2141,
      "wered": 2142,
      "Ġmoving": 2143,
      "Ġmillion": 2144,
      "ledge": 2145,
      "Ġarg": 2146,
      "Ġimmediately": 2147,
      "Ġpolice": 2148,
      "Ġrelations": 2149,
      "Ġisland": 2150,
      "ael": 2151,
      "Ġcrow": 2152,
      "Ġtar": 2153,
      "uction": 2154,
      "Ġsight": 2155,
      "Ġrespect": 2156,
      "Ġbox": 2157,
      "Ġdesp": 2158,
      "gs": 2159,
      "ham": 2160,
      "Ġclim": 2161,
      "Ġpolit": 2162,
      "Ġident": 2163,
      "ribut": 2164,
      "Ġwatching": 2165,
      "Ġsister": 2166,
      "Ġsea": 2167,
      "Ġnon": 2168,
      "ceed": 2169,
      "Ġpan": 2170,
      "Ġsurv": 2171,
      "Ġaff": 2172,
      "Ġscream": 2173,
      "Ġhistory": 2174,
      "Ġreleased": 2175,
      "men": 2176,
      "po": 2177,
      "Ġdan": 2178,
      "bl": 2179,
      "Ġtreat": 2180,
      "ession": 2181,
      "lished": 2182,
      "val": 2183,
      "Ġactiv": 2184,
      "Ġimm": 2185,
      "Ġmid": 2186,
      "Ġwhatever": 2187,
      "Ġdav": 2188,
      "Ġcaptain": 2189,
      "Ġvill": 2190,
      "Ġsand": 2191,
      "ences": 2192,
      "Ġstepped": 2193,
      "Ġeat": 2194,
      "Ġconvers": 2195,
      "Ġexpression": 2196,
      "Ġshut": 2197,
      "yle": 2198,
      "rief": 2199,
      "Ġeast": 2200,
      "Ġtele": 2201,
      "Ġbal": 2202,
      "yn": 2203,
      "Ġpark": 2204,
      "ament": 2205,
      "thirty": 2206,
      "aven": 2207,
      "Ġheavy": 2208,
      "ivid": 2209,
      "Ġjump": 2210,
      "Ġcomb": 2211,
      "Ġsometimes": 2212,
      "Ġpriv": 2213,
      "Ġfly": 2214,
      "Ġlady": 2215,
      "ges": 2216,
      "Ġcomes": 2217,
      "ously": 2218,
      "ishing": 2219,
      "mar": 2220,
      "Ġprep": 2221,
      "Ġur": 2222,
      "Ġsixteen": 2223,
      "Ġcirc": 2224,
      "Ġinvest": 2225,
      "Ġlegs": 2226,
      "gram": 2227,
      "Ġpoor": 2228,
      "Ġfinished": 2229,
      "Ġnecess": 2230,
      "Ġnoticed": 2231,
      "Ġanswered": 2232,
      "Ġobject": 2233,
      "cy": 2234,
      "Ġlives": 2235,
      "ship": 2236,
      "tr": 2237,
      "Ġexperience": 2238,
      "usion": 2239,
      "Ġhurt": 2240,
      "sidered": 2241,
      "Ġseeing": 2242,
      "Ġbey": 2243,
      "Ġbright": 2244,
      "Ġsimply": 2245,
      "ires": 2246,
      "Ġspot": 2247,
      "Ġale": 2248,
      "Ġnice": 2249,
      "enteen": 2250,
      "Ġrose": 2251,
      "Ġcompletely": 2252,
      "some": 2253,
      "iny": 2254,
      "Ġsoul": 2255,
      "pper": 2256,
      "Ġmembers": 2257,
      "....": 2258,
      "oci": 2259,
      "miss": 2260,
      "Ġvers": 2261,
      "Ġperform": 2262,
      "Ġrom": 2263,
      "using": 2264,
      "la": 2265,
      "Ġdestro": 2266,
      "Ġbare": 2267,
      "Ġfigure": 2268,
      "Ġservice": 2269,
      "Ġgiving": 2270,
      "Ġlocal": 2271,
      "Ġsimilar": 2272,
      "Ġconsidered": 2273,
      "Ġstrange": 2274,
      "Ġfort": 2275,
      "Ġdaughter": 2276,
      "Ġrob": 2277,
      "Ġnearly": 2278,
      "Ġut": 2279,
      "orge": 2280,
      "Ġshad": 2281,
      "itor": 2282,
      "Ġespecially": 2283,
      "Ġsad": 2284,
      "ises": 2285,
      "Ġfilled": 2286,
      "Ġsky": 2287,
      "plo": 2288,
      "formed": 2289,
      "Ġdanger": 2290,
      "Ġproject": 2291,
      "Ġ...": 2292,
      "Ġweap": 2293,
      "Ġarrived": 2294,
      "Ġgas": 2295,
      "Ġsubject": 2296,
      "Ġconsider": 2297,
      "Ġchap": 2298,
      "Ġcolle": 2299,
      "Ġjour": 2300,
      "Ġpeace": 2301,
      "Ġtechn": 2302,
      "may": 2303,
      "Ġbecom": 2304,
      "ought": 2305,
      "Ġcarry": 2306,
      "Ġseems": 2307,
      "Ġstation": 2308,
      "Ġmist": 2309,
      "Ġnar": 2310,
      "Ġpack": 2311,
      "Ġshout": 2312,
      "sy": 2313,
      "Ġtree": 2314,
      "Ġcloser": 2315,
      "Ġtouch": 2316,
      "ius": 2317,
      "Ġenergy": 2318,
      "Ġletter": 2319,
      "Ġdirection": 2320,
      "Ġmaster": 2321,
      "Ġyork": 2322,
      "Ġbrown": 2323,
      "Ġplayed": 2324,
      "Ġwalking": 2325,
      "zy": 2326,
      "Ġmut": 2327,
      "Ġcomfort": 2328,
      "Ġfem": 2329,
      "Ġhappen": 2330,
      "Ġkitchen": 2331,
      "Ġdecl": 2332,
      "aked": 2333,
      "Ġchanged": 2334,
      "Ġloud": 2335,
      "Ġokay": 2336,
      "Ġgrabbed": 2337,
      "tend": 2338,
      "Ġhill": 2339,
      "ague": 2340,
      "itary": 2341,
      "Ġcorner": 2342,
      "Ġperio": 2343,
      "Ġfaith": 2344,
      "yeah": 2345,
      "reng": 2346,
      "Ġmine": 2347,
      "Ġdraw": 2348,
      "bar": 2349,
      "ival": 2350,
      "Ġrout": 2351,
      "ining": 2352,
      "Ġmention": 2353,
      "Ġrelig": 2354,
      "play": 2355,
      "however": 2356,
      "Ġwhom": 2357,
      "Ġeasy": 2358,
      "Ġcenter": 2359,
      "Ġsin": 2360,
      "Ġweeks": 2361,
      "yal": 2362,
      "Ġspent": 2363,
      "Ġgirls": 2364,
      "Ġshar": 2365,
      "Ġgrin": 2366,
      "Ġjer": 2367,
      "Ġdrive": 2368,
      "Ġmal": 2369,
      "ek": 2370,
      "Ġremained": 2371,
      "Ġtour": 2372,
      "thern": 2373,
      "Ġdropped": 2374,
      "Ġknows": 2375,
      "fif": 2376,
      "Ġthreat": 2377,
      "ask": 2378,
      "Ġobv": 2379,
      "Ġdifficult": 2380,
      "Ġbeyond": 2381,
      "Ġwild": 2382,
      "Ġvan": 2383,
      "can": 2384,
      "Ġrub": 2385,
      "Ġdom": 2386,
      "ashed": 2387,
      "Ġjan": 2388,
      "Ġeffort": 2389,
      "Ġthro": 2390,
      "ented": 2391,
      "Ġexactly": 2392,
      "Ġones": 2393,
      "Ġbaby": 2394,
      "Ġrepres": 2395,
      "hen": 2396,
      "Ġaccom": 2397,
      "Ġuniversity": 2398,
      "Ġprogram": 2399,
      "Ġmot": 2400,
      ".,": 2401,
      "orrow": 2402,
      "gress": 2403,
      "Ġstreng": 2404,
      "Ġzero": 2405,
      "Ġflow": 2406,
      "Ġdeterm": 2407,
      "Ġtit": 2408,
      "Ġlu": 2409,
      "oof": 2410,
      "Ġearli": 2411,
      "ails": 2412,
      "Ġcompl": 2413,
      "Ġwond": 2414,
      "Ġpaper": 2415,
      "Ġrealized": 2416,
      "Ġenem": 2417,
      "ama": 2418,
      "Ġoffe": 2419,
      "Ġtears": 2420,
      "Ġton": 2421,
      "Ġcost": 2422,
      "aint": 2423,
      "asing": 2424,
      "pered": 2425,
      "Ġpushed": 2426,
      "Ġsurround": 2427,
      "Ġgerman": 2428,
      "Ġindivid": 2429,
      "Ġpicked": 2430,
      "Ġaut": 2431,
      "Ġassoci": 2432,
      "Ġpurp": 2433,
      "Ġentered": 2434,
      "dered": 2435,
      "min": 2436,
      "wor": 2437,
      "iers": 2438,
      "Ġclub": 2439,
      "Ġallowed": 2440,
      "Ġwritten": 2441,
      "Ġbuilt": 2442,
      "asion": 2443,
      "Ġmeeting": 2444,
      "Ġcovered": 2445,
      "Ġstuff": 2446,
      "Ġahead": 2447,
      "ager": 2448,
      "Ġaccount": 2449,
      "rench": 2450,
      "reen": 2451,
      "seven": 2452,
      "Ġquestions": 2453,
      "Ġwish": 2454,
      "Ġedge": 2455,
      "Ġdiscuss": 2456,
      "ization": 2457,
      "Ġenglish": 2458,
      "Ġrelationship": 2459,
      "Ġeighteen": 2460,
      "Ġclean": 2461,
      "Ġdress": 2462,
      "Ġhang": 2463,
      "Ġdepart": 2464,
      "Ġdoubt": 2465,
      "Ġsituation": 2466,
      "Ġrain": 2467,
      "Ġaug": 2468,
      "aling": 2469,
      "Ġheaven": 2470,
      "ograp": 2471,
      "hel": 2472,
      "Ġtrees": 2473,
      "Ġwrote": 2474,
      "Ġhosp": 2475,
      "Ġknowledge": 2476,
      "Ġhusb": 2477,
      "Ġbooks": 2478,
      "Ġepisode": 2479,
      "gen": 2480,
      "Ġeur": 2481,
      "sequ": 2482,
      "Ġhusband": 2483,
      "Ġsword": 2484,
      "Ġhorse": 2485,
      "cut": 2486,
      "Ġcause": 2487,
      "Ġregard": 2488,
      "Ġdoctor": 2489,
      "Ġloved": 2490,
      "Ġdece": 2491,
      "Ġhealth": 2492,
      "Ġphil": 2493,
      "Ġvisit": 2494,
      "Ġbritish": 2495,
      "Ġcrowd": 2496,
      "Ġshowed": 2497,
      "Ġsilence": 2498,
      "ume": 2499,
      "Ġpossib": 2500,
      "Ġsurf": 2501,
      "Ġaddition": 2502,
      "Ġwhose": 2503,
      "Ġevening": 2504,
      "Ġlie": 2505,
      "Ġbeat": 2506,
      "Ġcancer": 2507,
      "Ġmich": 2508,
      "ption": 2509,
      "Ġestab": 2510,
      "Ġworks": 2511,
      "Ġdistance": 2512,
      "Ġstat": 2513,
      "Ġbeginning": 2514,
      "Ġpointed": 2515,
      "Ġet": 2516,
      "Ġsour": 2517,
      "oring": 2518,
      "Ġworth": 2519,
      "Ġworry": 2520,
      "Ġbeside": 2521,
      "action": 2522,
      "Ġsoci": 2523,
      "Ġoccur": 2524,
      "Ġtall": 2525,
      "Ġindividual": 2526,
      "Ġris": 2527,
      "iment": 2528,
      "ky": 2529,
      "iction": 2530,
      "Ġclothes": 2531,
      "Ġweak": 2532,
      "Ġterr": 2533,
      "Ġcurrent": 2534,
      "Ġpersonal": 2535,
      "Ġbase": 2536,
      "Ġdisappe": 2537,
      "Ġmater": 2538,
      "Ġaction": 2539,
      "ential": 2540,
      "Ġsig": 2541,
      "den": 2542,
      "erved": 2543,
      "iel": 2544,
      "angu": 2545,
      "Ġperiod": 2546,
      "Ġsupposed": 2547,
      "Ġjames": 2548,
      "Ġknowing": 2549,
      "Ġturning": 2550,
      "ument": 2551,
      "bered": 2552,
      "Ġneg": 2553,
      "Ġnamed": 2554,
      "Ġbelow": 2555,
      "rect": 2556,
      "Ġsepar": 2557,
      "urity": 2558,
      "Ġinit": 2559,
      "nine": 2560,
      "ern": 2561,
      "Ġevil": 2562,
      "Ġcapt": 2563,
      "Ġpresident": 2564,
      "Ġarch": 2565,
      "Ġviol": 2566,
      "Ġreach": 2567,
      "Ġsweet": 2568,
      "Ġkey": 2569,
      "Ġsmell": 2570,
      "Ġthick": 2571,
      "Ġforest": 2572,
      "Ġanal": 2573,
      "ruction": 2574,
      "Ġthank": 2575,
      "Ġformer": 2576,
      "ata": 2577,
      "Ġavo": 2578,
      "Ġpaul": 2579,
      "eteen": 2580,
      "apt": 2581,
      "Ġcra": 2582,
      "Ġrespons": 2583,
      "Ġrespond": 2584,
      "Ġbrief": 2585,
      "Ġgames": 2586,
      "Ġstrugg": 2587,
      "aped": 2588,
      "Ġord": 2589,
      "Ġspecies": 2590,
      "Ġdrink": 2591,
      "even": 2592,
      "Ġsocial": 2593,
      "Ġrepe": 2594,
      "Ġmrs": 2595,
      "Ġign": 2596,
      "Ġlived": 2597,
      "Ġx": 2598,
      "Ġemer": 2599,
      "Ġhen": 2600,
      "ips": 2601,
      "Ġlos": 2602,
      "acher": 2603,
      "Ġtakes": 2604,
      "Ġmel": 2605,
      "Ġcult": 2606,
      "Ġrul": 2607,
      "ocks": 2608,
      "Ġprim": 2609,
      "reg": 2610,
      "cher": 2611,
      "Ġmarch": 2612,
      "Ġbased": 2613,
      "Ġmiles": 2614,
      "Ġsept": 2615,
      "Ġempty": 2616,
      "Ġcreated": 2617,
      "Ġcab": 2618,
      "Ġspeed": 2619,
      "Ġdi": 2620,
      "reek": 2621,
      "Ġdut": 2622,
      "Ġaugust": 2623,
      "Ġcomput": 2624,
      "ston": 2625,
      "Ġtelling": 2626,
      "Ġpun": 2627,
      "Ġcentury": 2628,
      "work": 2629,
      "Ġvarious": 2630,
      "Ġoct": 2631,
      "olution": 2632,
      "Ġearlier": 2633,
      "Ġminute": 2634,
      "Ġgent": 2635,
      "ites": 2636,
      "Ġnatural": 2637,
      "raid": 2638,
      "Ġglanced": 2639,
      "Ġplaying": 2640,
      "Ġwaited": 2641,
      "rel": 2642,
      "Ġcheck": 2643,
      "Ġintrod": 2644,
      "bit": 2645,
      "Ġinflu": 2646,
      "Ġstudy": 2647,
      "Ġinn": 2648,
      "Ġleaned": 2649,
      "Ġvide": 2650,
      "inct": 2651,
      "Ġdemand": 2652,
      "ounced": 2653,
      "Ġmilitary": 2654,
      "Ġusually": 2655,
      "Ġforced": 2656,
      "Ġpiece": 2657,
      "Ġoriginal": 2658,
      "Ġanyway": 2659,
      "hered": 2660,
      "resh": 2661,
      "lin": 2662,
      "Ġexpected": 2663,
      "ference": 2664,
      "Ġaud": 2665,
      "Ġcoffe": 2666,
      "onse": 2667,
      "Ġreview": 2668,
      "Ġcup": 2669,
      "off": 2670,
      "Ġrole": 2671,
      "Ġtrad": 2672,
      "Ġhospital": 2673,
      "Ġluc": 2674,
      "Ġthus": 2675,
      "hib": 2676,
      "Ġalex": 2677,
      "reme": 2678,
      "Ġconversation": 2679,
      "Ġborn": 2680,
      "Ġcarried": 2681,
      "icated": 2682,
      "Ġbri": 2683,
      "Ġluck": 2684,
      "orm": 2685,
      "Ġaccording": 2686,
      "ories": 2687,
      "imin": 2688,
      "Ġnone": 2689,
      "Ġseventeen": 2690,
      "cil": 2691,
      "Ġlearn": 2692,
      "Ġbroad": 2693,
      "these": 2694,
      "who": 2695,
      "Ġwound": 2696,
      "hic": 2697,
      "Ġpick": 2698,
      "Ġoppos": 2699,
      "Ġbroken": 2700,
      "Ġcells": 2701,
      "Ġremo": 2702,
      "anks": 2703,
      "Ġwondered": 2704,
      "Ġtrouble": 2705,
      "Ġwalls": 2706,
      "Ġham": 2707,
      "bor": 2708,
      "Ġcoffee": 2709,
      "uary": 2710,
      "Ġhaven": 2711,
      "ndon": 2712,
      "Ġslightly": 2713,
      "Ġsignific": 2714,
      "Ġsimple": 2715,
      "gar": 2716,
      "Ġlower": 2717,
      "itch": 2718,
      "Ġresponse": 2719,
      "Ġmult": 2720,
      "Ġdesk": 2721,
      "set": 2722,
      "tended": 2723,
      "Ġguys": 2724,
      "iles": 2725,
      "Ġtherefore": 2726,
      "Ġlikely": 2727,
      "Ġstom": 2728,
      "ev": 2729,
      "Ġwants": 2730,
      "Ġseptember": 2731,
      "Ġgro": 2732,
      "Ġsen": 2733,
      "Ġsmo": 2734,
      "Ġafraid": 2735,
      "ature": 2736,
      "ensive": 2737,
      "Ġcontact": 2738,
      "ushing": 2739,
      "Ġmaterial": 2740,
      "Ġmix": 2741,
      "Ġlangu": 2742,
      "Ġdavid": 2743,
      "Ġfrench": 2744,
      "Ġwhispered": 2745,
      "Ġshoulders": 2746,
      "Ġaustral": 2747,
      "ram": 2748,
      "Ġagreed": 2749,
      "Ġwriting": 2750,
      "Ġsteps": 2751,
      "Ġthroat": 2752,
      "ese": 2753,
      "Ġmanaged": 2754,
      "Ġdemon": 2755,
      "ades": 2756,
      "Ġmach": 2757,
      "Ġsurprised": 2758,
      "Ġthrow": 2759,
      "inite": 2760,
      "Ġeurope": 2761,
      "Ġbrain": 2762,
      "Ġpock": 2763,
      "Ġstrength": 2764,
      "Ġneeds": 2765,
      "Ġstorm": 2766,
      "Ġeventually": 2767,
      "Ġhuge": 2768,
      "Ġmoder": 2769,
      "every": 2770,
      "enced": 2771,
      "Ġengine": 2772,
      "Ġprison": 2773,
      "ober": 2774,
      "Ġexample": 2775,
      "Ġsan": 2776,
      "Ġciv": 2777,
      "het": 2778,
      "Ġspread": 2779,
      "Ġdog": 2780,
      "Ġmic": 2781,
      "Ġboard": 2782,
      "Ġsave": 2783,
      "Ġbod": 2784,
      "Ġsend": 2785,
      "Ġkids": 2786,
      "erve": 2787,
      "Ġpresence": 2788,
      "Ġhol": 2789,
      "hood": 2790,
      "Ġdescribed": 2791,
      "Ġcaused": 2792,
      "Ġlack": 2793,
      "Ġremind": 2794,
      "Ġwilliam": 2795,
      "Ġremem": 2796,
      "des": 2797,
      "itude": 2798,
      "Ġoffered": 2799,
      "Ġdu": 2800,
      "ov": 2801,
      "ena": 2802,
      "Ġapr": 2803,
      "Ġemplo": 2804,
      "izing": 2805,
      "gu": 2806,
      "Ġpred": 2807,
      "Ġbirth": 2808,
      "Ġsar": 2809,
      "Ġsuit": 2810,
      "ify": 2811,
      "Ġclou": 2812,
      "Ġhelped": 2813,
      "Ġaware": 2814,
      "Ġmary": 2815,
      "Ġnav": 2816,
      "over": 2817,
      "ford": 2818,
      "Ġincluded": 2819,
      "ength": 2820,
      "from": 2821,
      "Ġgaze": 2822,
      "back": 2823,
      "Ġserious": 2824,
      "Ġoh": 2825,
      "Ġboys": 2826,
      "Ġimpro": 2827,
      "Ġexplained": 2828,
      "Ġalive": 2829,
      "Ġphot": 2830,
      "Ġfrown": 2831,
      "time": 2832,
      "Ġtum": 2833,
      "Ġsighed": 2834,
      "Ġring": 2835,
      "Ġbi": 2836,
      "Ġheaded": 2837,
      "Ġpurpose": 2838,
      "cons": 2839,
      "Ġquar": 2840,
      "fl": 2841,
      "Ġgard": 2842,
      "Ġeasily": 2843,
      "icking": 2844,
      "Ġways": 2845,
      "ald": 2846,
      "good": 2847,
      "Ġbull": 2848,
      "Ġchoice": 2849,
      "Ġglad": 2850,
      "Ġfac": 2851,
      "Ġstore": 2852,
      "Ġbath": 2853,
      "iliar": 2854,
      "Ġcollege": 2855,
      "Ġbroke": 2856,
      "Ġnet": 2857,
      "bel": 2858,
      "Ġmotion": 2859,
      "Ġnormal": 2860,
      "Ġcontinue": 2861,
      "ica": 2862,
      "Ġdinner": 2863,
      "Ġgoes": 2864,
      "Ġhost": 2865,
      "Ġcool": 2866,
      "riage": 2867,
      "Ġoctober": 2868,
      "Ġkid": 2869,
      "Ġcalm": 2870,
      "Ġsecurity": 2871,
      "conom": 2872,
      "Ġdisp": 2873,
      "Ġhom": 2874,
      "Ġtur": 2875,
      "Ġcertainly": 2876,
      "Ġble": 2877,
      "Ġjune": 2878,
      "Ġsociety": 2879,
      "Ġgri": 2880,
      "Ġneigh": 2881,
      "ortun": 2882,
      "Ġremain": 2883,
      "Ġment": 2884,
      "owed": 2885,
      "Ġfinger": 2886,
      "Ġenv": 2887,
      "urs": 2888,
      "Ġreading": 2889,
      "Ġdevelopment": 2890,
      "kes": 2891,
      "Ġlad": 2892,
      "Ġsick": 2893,
      "Ġmax": 2894,
      "Ġder": 2895,
      "Ġlondon": 2896,
      "Ġmagic": 2897,
      "Ġscene": 2898,
      "arm": 2899,
      "Ġdarkness": 2900,
      "ustom": 2901,
      "Ġopening": 2902,
      "eral": 2903,
      "Ġcrew": 2904,
      "fo": 2905,
      "Ġstaring": 2906,
      "Ġpow": 2907,
      "Ġevents": 2908,
      "Ġopportun": 2909,
      "Ġplanet": 2910,
      "Ġfavor": 2911,
      "Ġlines": 2912,
      "isf": 2913,
      "bec": 2914,
      "ners": 2915,
      "Ġdar": 2916,
      "Ġinvolved": 2917,
      "Ġdespite": 2918,
      "Ġintell": 2919,
      "Ġspl": 2920,
      "arily": 2921,
      "Ġtonight": 2922,
      "Ġvir": 2923,
      "Ġbelieved": 2924,
      "Ġfix": 2925,
      "uel": 2926,
      "rem": 2927,
      "Ġdig": 2928,
      "Ġtarget": 2929,
      "Ġstage": 2930,
      "forty": 2931,
      "Ġqueen": 2932,
      "itation": 2933,
      "Ġfresh": 2934,
      "ta": 2935,
      "Ġdru": 2936,
      "Ġchristian": 2937,
      "ien": 2938,
      "ability": 2939,
      "Ġtone": 2940,
      "omb": 2941,
      "Ġmatch": 2942,
      "Ġsurprise": 2943,
      "Ġforget": 2944,
      "Ġavail": 2945,
      "sure": 2946,
      "istic": 2947,
      "Ġstret": 2948,
      "Ġsurface": 2949,
      "Ġwel": 2950,
      "Ġspo": 2951,
      "Ġdoors": 2952,
      "Ġoffer": 2953,
      "Ġprinc": 2954,
      "ases": 2955,
      "Ġnecessary": 2956,
      "Ġseconds": 2957,
      "Ġstro": 2958,
      "Ġloss": 2959,
      "Ġkingdom": 2960,
      "under": 2961,
      "Ġtype": 2962,
      "vember": 2963,
      "Ġplaces": 2964,
      "Ġevidence": 2965,
      "Ġvideo": 2966,
      "Ġcivil": 2967,
      "idden": 2968,
      "Ġkne": 2969,
      "Ġhat": 2970,
      "Ġmarried": 2971,
      "Ġshare": 2972,
      "Ġwearing": 2973,
      "Ġfit": 2974,
      "lls": 2975,
      "Ġnote": 2976,
      "wise": 2977,
      "Ġweight": 2978,
      "ilities": 2979,
      "omas": 2980,
      "Ġdeli": 2981,
      "Ġjuly": 2982,
      "Ġsac": 2983,
      "Ġstated": 2984,
      "Ġlearned": 2985,
      "!'": 2986,
      "umed": 2987,
      "Ġta": 2988,
      "Ġapril": 2989,
      "ya": 2990,
      "Ġgrew": 2991,
      "Ġnose": 2992,
      "Ġjew": 2993,
      "cr": 2994,
      "Ġcand": 2995,
      "apan": 2996,
      "Ġamount": 2997,
      "Ġrelease": 2998,
      "Ġescape": 2999,
      "Ġnotice": 3000,
      "oted": 3001,
      "ipp": 3002,
      "Ġarr": 3003,
      "Ġdeb": 3004,
      "Ġdoc": 3005,
      "Ġclearly": 3006,
      "Ġsounds": 3007,
      "Ġeconom": 3008,
      "Ġended": 3009,
      "Ġach": 3010,
      "Ġhigher": 3011,
      "Ġcatch": 3012,
      "ground": 3013,
      "Ġgentle": 3014,
      "Ġgeorge": 3015,
      "Ġfrank": 3016,
      "Ġai": 3017,
      "Ġmission": 3018,
      "Ġexperi": 3019,
      "Ġbelong": 3020,
      "Ġfro": 3021,
      "Ġcard": 3022,
      "umbled": 3023,
      "nin": 3024,
      "anna": 3025,
      "Ġthroughout": 3026,
      "Ġcouncil": 3027,
      "Ġchec": 3028,
      "Ġbank": 3029,
      "Ġforces": 3030,
      "Ġchief": 3031,
      "ators": 3032,
      "Ġwes": 3033,
      "Ġbridge": 3034,
      "Ġinj": 3035,
      "Ġtotal": 3036,
      "once": 3037,
      "Ġindeed": 3038,
      "Ġcompet": 3039,
      "Ġrap": 3040,
      "Ġmichael": 3041,
      "Ġwis": 3042,
      "Ġsummer": 3043,
      "Ġengland": 3044,
      "Ġprevious": 3045,
      "nds": 3046,
      "pro": 3047,
      "Ġteeth": 3048,
      "Ġmere": 3049,
      "Ġbud": 3050,
      "Ġthrew": 3051,
      "Ġleading": 3052,
      "Ġnovember": 3053,
      "Ġtomorrow": 3054,
      "Ġexplain": 3055,
      "Ġcoo": 3056,
      "Ġtyp": 3057,
      "Ġeduc": 3058,
      "Ġcompan": 3059,
      "Ġsoldiers": 3060,
      "Ġrid": 3061,
      "Ġpicture": 3062,
      "ique": 3063,
      "your": 3064,
      "Ġstomach": 3065,
      "enn": 3066,
      "uses": 3067,
      "Ġscreen": 3068,
      "Ġprincip": 3069,
      "sev": 3070,
      "ests": 3071,
      "Ġdirectly": 3072,
      "mp": 3073,
      "Ġamaz": 3074,
      "Ġprivate": 3075,
      "Ġstaff": 3076,
      "Ġpowerful": 3077,
      "Ġbottom": 3078,
      "Ġrail": 3079,
      "gged": 3080,
      "Ġofficer": 3081,
      "Ġpair": 3082,
      "ancing": 3083,
      "Ġstruct": 3084,
      "Ġworse": 3085,
      "Ġfemale": 3086,
      "Ġparts": 3087,
      "esh": 3088,
      "essed": 3089,
      "Ġmessage": 3090,
      "oose": 3091,
      "Ġbarely": 3092,
      "Ġroyal": 3093,
      "Ġneither": 3094,
      "Ġspeaking": 3095,
      "ients": 3096,
      "Ġapparent": 3097,
      "hold": 3098,
      "Ġlifted": 3099,
      "Ġsomewhere": 3100,
      "Ġmetal": 3101,
      "ension": 3102,
      "Ġlength": 3103,
      "Ġshoot": 3104,
      "Ġsize": 3105,
      "Ġcontr": 3106,
      "view": 3107,
      "Ġchamp": 3108,
      "Ġrace": 3109,
      "although": 3110,
      "Ġdrew": 3111,
      "Ġnineteen": 3112,
      "Ġmale": 3113,
      "claim": 3114,
      "Ġchall": 3115,
      "Ġinvestig": 3116,
      "board": 3117,
      "maybe": 3118,
      "Ġremembered": 3119,
      "Ġentr": 3120,
      "Ġjoined": 3121,
      "Ġdear": 3122,
      "Ġcomment": 3123,
      "uit": 3124,
      "Ġcrack": 3125,
      "will": 3126,
      "Ġdetect": 3127,
      "Ġfat": 3128,
      "Ġassist": 3129,
      "Ġrolled": 3130,
      "Ġ)": 3131,
      "zen": 3132,
      "Ġcounter": 3133,
      "Ġtra": 3134,
      "vin": 3135,
      "Ġtraining": 3136,
      "icks": 3137,
      "Ġsilent": 3138,
      "Ġly": 3139,
      "anted": 3140,
      "key": 3141,
      "Ġpra": 3142,
      "Ġtun": 3143,
      "Ġflight": 3144,
      "Ġcolor": 3145,
      "Ġkm": 3146,
      "Ġtrail": 3147,
      "alled": 3148,
      "hu": 3149,
      "Ġolder": 3150,
      "Ġfal": 3151,
      "cast": 3152,
      "Ġcomputer": 3153,
      "onna": 3154,
      "Ġgets": 3155,
      "Ġfirm": 3156,
      "ris": 3157,
      "ological": 3158,
      "Ġlisten": 3159,
      "Ġmemory": 3160,
      "Ġvari": 3161,
      "Ġdecision": 3162,
      "ays": 3163,
      "Ġvillage": 3164,
      "fifty": 3165,
      "ding": 3166,
      "Ġjapan": 3167,
      "Ġmeaning": 3168,
      "Ġnarrow": 3169,
      "Ġforth": 3170,
      "Ġaccess": 3171,
      "Ġshirt": 3172,
      "Ġfamiliar": 3173,
      "Ġordered": 3174,
      "Ġdry": 3175,
      "Ġpolitical": 3176,
      "bes": 3177,
      "Ġoccasion": 3178,
      "Ġheat": 3179,
      "Ġholy": 3180,
      "Ġforgot": 3181,
      "Ġsilver": 3182,
      "Ġresearch": 3183,
      "Ġice": 3184,
      "Ġmoon": 3185,
      "okay": 3186,
      "cul": 3187,
      "Ġangry": 3188,
      "noon": 3189,
      "rible": 3190,
      "Ġtrain": 3191,
      "Ġfed": 3192,
      "Ġjanuary": 3193,
      "Ġbat": 3194,
      "Ġamerica": 3195,
      "Ġbeneath": 3196,
      "Ġgrad": 3197,
      "pet": 3198,
      "Ġextra": 3199,
      "Ġphysical": 3200,
      "see": 3201,
      "Ġanger": 3202,
      "olute": 3203,
      "Ġdecember": 3204,
      "Ġmetho": 3205,
      "Ġtong": 3206,
      "acc": 3207,
      "Ġchapter": 3208,
      "aur": 3209,
      "Ġpu": 3210,
      "Ġbound": 3211,
      "hey": 3212,
      "Ġmovement": 3213,
      "Ġenter": 3214,
      "ae": 3215,
      "ingly": 3216,
      "Ġattract": 3217,
      "Ġmarket": 3218,
      "ico": 3219,
      "Ġenemy": 3220,
      "lt": 3221,
      "Ġsnow": 3222,
      "Ġbodies": 3223,
      "Ġpeter": 3224,
      "rat": 3225,
      "andon": 3226,
      "Ġproblems": 3227,
      "Ġash": 3228,
      "Ġasking": 3229,
      "during": 3230,
      "car": 3231,
      "Ġpoints": 3232,
      "Ġjim": 3233,
      "Ġwra": 3234,
      "Ġjoy": 3235,
      "Ġlanguage": 3236,
      "Ġshit": 3237,
      "ils": 3238,
      "Ġlying": 3239,
      "Ġdesire": 3240,
      "yl": 3241,
      "ander": 3242,
      "cho": 3243,
      "Ġpaid": 3244,
      "Ġformed": 3245,
      "bru": 3246,
      "Ġappre": 3247,
      "Ġspecific": 3248,
      "cles": 3249,
      "did": 3250,
      "ille": 3251,
      "Ġdra": 3252,
      "Ġfully": 3253,
      "Ġgrace": 3254,
      "Ġlaid": 3255,
      "Ġrepresent": 3256,
      "Ġdate": 3257,
      "wood": 3258,
      "Ġess": 3259,
      "Ġlit": 3260,
      "pan": 3261,
      "Ġwitness": 3262,
      "because": 3263,
      "cient": 3264,
      "Ġships": 3265,
      "ada": 3266,
      "ables": 3267,
      "inking": 3268,
      "Ġnerv": 3269,
      "vision": 3270,
      "Ġstairs": 3271,
      "Ġtast": 3272,
      "Ġhide": 3273,
      "Ġmountain": 3274,
      "Ġsatisf": 3275,
      "ancy": 3276,
      "Ġweren": 3277,
      "Ġscient": 3278,
      "Ġpocket": 3279,
      "Ġtired": 3280,
      "owing": 3281,
      "Ġliked": 3282,
      "Ġcoast": 3283,
      "Ġlat": 3284,
      "frie": 3285,
      "Ġkeeping": 3286,
      "Ġimposs": 3287,
      "ucking": 3288,
      "iron": 3289,
      "Ġdisplay": 3290,
      "Ġhous": 3291,
      "Ġfighting": 3292,
      "Ġavailable": 3293,
      "Ġmov": 3294,
      "Ġafternoon": 3295,
      "Ġmodern": 3296,
      "ples": 3297,
      "Ġstarting": 3298,
      "Ġstup": 3299,
      "bb": 3300,
      "Ġfellow": 3301,
      "craft": 3302,
      "olf": 3303,
      "Ġchuck": 3304,
      "Ġroute": 3305,
      "anda": 3306,
      "Ġpopular": 3307,
      "oured": 3308,
      "Ġhes": 3309,
      "Ġcred": 3310,
      "Ġshop": 3311,
      "Ġcried": 3312,
      "enth": 3313,
      "Ġlose": 3314,
      "Ġreality": 3315,
      "Ġachie": 3316,
      "Ġversion": 3317,
      "Ġreported": 3318,
      "Ġmart": 3319,
      "Ġlake": 3320,
      "Ġhoped": 3321,
      "Ġmember": 3322,
      "Ġhumans": 3323,
      "-\"": 3324,
      "anged": 3325,
      "gest": 3326,
      "Ġgate": 3327,
      "Ġenjoy": 3328,
      "Ġfocus": 3329,
      "astic": 3330,
      "ios": 3331,
      "Ġwrite": 3332,
      "ocking": 3333,
      "Ġacqu": 3334,
      "Ġbenef": 3335,
      "erson": 3336,
      "Ġgently": 3337,
      "Ġmanner": 3338,
      "Ġdust": 3339,
      "Ġcarefully": 3340,
      "Ġturns": 3341,
      "Ġbedroom": 3342,
      "Ġtruly": 3343,
      "nel": 3344,
      "Ġproduct": 3345,
      "Ġjoin": 3346,
      "rid": 3347,
      "Ġtrip": 3348,
      "iverse": 3349,
      "Ġhistor": 3350,
      "Ġbuy": 3351,
      "Ġstories": 3352,
      "Ġfinding": 3353,
      "Ġtax": 3354,
      "ulf": 3355,
      "met": 3356,
      "Ġanimals": 3357,
      "Ġears": 3358,
      "Ġofficial": 3359,
      "Ġgreater": 3360,
      "Ġpaused": 3361,
      "Ġcalling": 3362,
      "Ġcustom": 3363,
      "Ġpromise": 3364,
      "illed": 3365,
      "nes": 3366,
      "Ġstudents": 3367,
      "ification": 3368,
      "Ġfool": 3369,
      "inting": 3370,
      "Ġbear": 3371,
      "Ġmaintain": 3372,
      "ifted": 3373,
      "Ġdressed": 3374,
      "Ġserved": 3375,
      "cing": 3376,
      "nown": 3377,
      "ki": 3378,
      "igned": 3379,
      "asons": 3380,
      "Ġamb": 3381,
      "Ġcommunity": 3382,
      "Ġq": 3383,
      "Ġsomehow": 3384,
      "Ġscri": 3385,
      "Ġlights": 3386,
      "aches": 3387,
      "Ġimage": 3388,
      "rated": 3389,
      "Ġanimal": 3390,
      "Ġsear": 3391,
      "Ġcru": 3392,
      "Ġrequired": 3393,
      "Ġjul": 3394,
      "Ġaver": 3395,
      "Ġcentral": 3396,
      "Ġemotion": 3397,
      "Ġdeveloped": 3398,
      "Ġproduction": 3399,
      "Ġquietly": 3400,
      "Ġcorrect": 3401,
      "Ġmoments": 3402,
      "Ġpsy": 3403,
      "Ġcamer": 3404,
      "Ġcommit": 3405,
      "Ġstupid": 3406,
      "Ġleader": 3407,
      "Ġsav": 3408,
      "Ġcommunic": 3409,
      "Ġanymore": 3410,
      "Ġflat": 3411,
      "Ġgrowing": 3412,
      "rs": 3413,
      "Ġnovel": 3414,
      "Ġfish": 3415,
      "Ġhonest": 3416,
      "Ġaffect": 3417,
      "Ġbay": 3418,
      "Ġdoll": 3419,
      "Ġliter": 3420,
      "Ġusual": 3421,
      "lle": 3422,
      "Ġscience": 3423,
      "antic": 3424,
      "rugged": 3425,
      "Ġvehic": 3426,
      "Ġiron": 3427,
      "Ġbreast": 3428,
      "Ġregular": 3429,
      "ills": 3430,
      "Ġinternational": 3431,
      "lected": 3432,
      "Ġodd": 3433,
      "sp": 3434,
      "Ġability": 3435,
      "bruary": 3436,
      "Ġtiny": 3437,
      "Ġindust": 3438,
      "Ġexe": 3439,
      "Ġsounded": 3440,
      "Ġruss": 3441,
      "Ġfreed": 3442,
      "Ġpleasure": 3443,
      "Ġharm": 3444,
      "Ġhanded": 3445,
      "Ġindic": 3446,
      "Ġproduced": 3447,
      "bur": 3448,
      "Ġbecoming": 3449,
      "Ġban": 3450,
      "Ġboat": 3451,
      "Ġresist": 3452,
      "Ġpound": 3453,
      "gl": 3454,
      "Ġworried": 3455,
      "aging": 3456,
      "Ġleague": 3457,
      "Ġmanage": 3458,
      "Ġrange": 3459,
      "Ġregion": 3460,
      "Ġapartment": 3461,
      "Ġplat": 3462,
      "field": 3463,
      "house": 3464,
      "ino": 3465,
      "Ġsuggested": 3466,
      "zed": 3467,
      "Ġdivision": 3468,
      "chan": 3469,
      "Ġtext": 3470,
      "Ġfeed": 3471,
      "Ġblank": 3472,
      "Ġopportunity": 3473,
      "Ġremoved": 3474,
      "Ġprovided": 3475,
      "Ġjumped": 3476,
      "oses": 3477,
      "Ġplans": 3478,
      "Ġtill": 3479,
      "Ġbob": 3480,
      "Ġaren": 3481,
      "Ġavoid": 3482,
      "Ġunderstanding": 3483,
      "Ġcareer": 3484,
      "fast": 3485,
      "Ġpressed": 3486,
      "vere": 3487,
      "Ġpit": 3488,
      "Ġpil": 3489,
      "Ġsharp": 3490,
      "Ġhotel": 3491,
      "Ġstars": 3492,
      "Ġsearch": 3493,
      "Ġimpossible": 3494,
      "nal": 3495,
      "ker": 3496,
      "atory": 3497,
      "Ġoccup": 3498,
      "Ġyellow": 3499,
      "Ġdrove": 3500,
      "yer": 3501,
      "Ġdance": 3502,
      "Ġfailed": 3503,
      "Ġeld": 3504,
      "Ġradio": 3505,
      "Ġcreate": 3506,
      "ka": 3507,
      "Ġteacher": 3508,
      "Ġprepared": 3509,
      "Ġshouted": 3510,
      "Ġsides": 3511,
      "fin": 3512,
      "Ġconscious": 3513,
      "Ġwestern": 3514,
      "Ġgrass": 3515,
      "Ġpractice": 3516,
      "Ġrisk": 3517,
      "Ġappearance": 3518,
      "Ġextreme": 3519,
      "ception": 3520,
      "Ġplayer": 3521,
      "Ġwed": 3522,
      "Ġgreek": 3523,
      "Ġkissed": 3524,
      "Ġdim": 3525,
      "Ġfeatures": 3526,
      "Ġdeg": 3527,
      "Ġdiscovered": 3528,
      "Ġtalked": 3529,
      "inary": 3530,
      "Ġentrance": 3531,
      "thank": 3532,
      "Ġconfir": 3533,
      "Ġscar": 3534,
      "Ġapproached": 3535,
      "Ġannounced": 3536,
      "Ġimagine": 3537,
      "Ġfer": 3538,
      "igg": 3539,
      "Ġprovide": 3540,
      "Ġfeelings": 3541,
      "Ġcounty": 3542,
      "Ġtelevision": 3543,
      "Ġdamage": 3544,
      "Ġareas": 3545,
      "Ġfebruary": 3546,
      "Ġtruck": 3547,
      "Ġtroo": 3548,
      "ett": 3549,
      "Ġrelax": 3550,
      "Ġshrugged": 3551,
      "Ġfarm": 3552,
      "Ġspr": 3553,
      "Ġgives": 3554,
      "Ġinclude": 3555,
      "Ġpulling": 3556,
      "Ġdata": 3557,
      "Ġopin": 3558,
      "Ġcheek": 3559,
      "aming": 3560,
      "ipping": 3561,
      "Ġfrequ": 3562,
      "Ġstream": 3563,
      "cell": 3564,
      "imate": 3565,
      "Ġaim": 3566,
      "Ġuncle": 3567,
      "Ġtravel": 3568,
      "Ġspend": 3569,
      "Ġthomas": 3570,
      "Ġrare": 3571,
      "Ġunderstood": 3572,
      "mit": 3573,
      "mas": 3574,
      "pa": 3575,
      "Ġvision": 3576,
      "Ġknees": 3577,
      "Ġwilling": 3578,
      "pected": 3579,
      "Ġmort": 3580,
      "Ġpercent": 3581,
      "ste": 3582,
      "stand": 3583,
      "Ġstayed": 3584,
      "Ġmac": 3585,
      "Ġguards": 3586,
      "Ġbusy": 3587,
      "Ġfalling": 3588,
      "ems": 3589,
      "Ġtouched": 3590,
      "Ġhoping": 3591,
      "ibility": 3592,
      "Ġhearing": 3593,
      "Ġrefer": 3594,
      "Ġnames": 3595,
      "Ġabsolute": 3596,
      "Ġancient": 3597,
      "Ġcondition": 3598,
      "Ġdesper": 3599,
      "pic": 3600,
      "Ġmedical": 3601,
      "Ġpopulation": 3602,
      "know": 3603,
      "Ġproceed": 3604,
      "Ġdrop": 3605,
      "amb": 3606,
      "Ġputting": 3607,
      "Ġrobert": 3608,
      "Ġwave": 3609,
      "Ġcharge": 3610,
      "Ġafric": 3611,
      "Ġpolic": 3612,
      "ashing": 3613,
      "Ġhunt": 3614,
      "Ġblind": 3615,
      "Ġcit": 3616,
      "Ġcrossed": 3617,
      "Ġsquare": 3618,
      "Ġpieces": 3619,
      "Ġapproach": 3620,
      "ca": 3621,
      "Ġjudge": 3622,
      "Ġcastle": 3623,
      "Ġnoted": 3624,
      "Ġleaves": 3625,
      "imately": 3626,
      "Ġopposite": 3627,
      "ission": 3628,
      "Ġflesh": 3629,
      "Ġaward": 3630,
      "Ġfold": 3631,
      "Ġwindows": 3632,
      "ading": 3633,
      "Ġcircum": 3634,
      "Ġresults": 3635,
      "aning": 3636,
      "Ġunable": 3637,
      "ping": 3638,
      "Ġgarden": 3639,
      "Ġmissing": 3640,
      "Ġsuppose": 3641,
      "Ġadam": 3642,
      "Ġride": 3643,
      "rick": 3644,
      "Ġanti": 3645,
      "Ġpositive": 3646,
      "arsh": 3647,
      "Ġweapons": 3648,
      "somet": 3649,
      "Ġsource": 3650,
      "lebr": 3651,
      "Ġjourney": 3652,
      "Ġexistence": 3653,
      "ointed": 3654,
      "Ġsport": 3655,
      "Ġheads": 3656,
      "Ġmagn": 3657,
      "Ġchanges": 3658,
      "Ġthanks": 3659,
      "initely": 3660,
      "Ġtongue": 3661,
      "Ġsmiling": 3662,
      "ocr": 3663,
      "Ġber": 3664,
      "ele": 3665,
      "Ġmyster": 3666,
      "Ġspring": 3667,
      "Ġconcent": 3668,
      "Ġmatt": 3669,
      "before": 3670,
      "Ġhero": 3671,
      "Ġmodel": 3672,
      "Ġincreased": 3673,
      "Ġvalue": 3674,
      "Ġmostly": 3675,
      "Ġeric": 3676,
      "Ġforever": 3677,
      "Ġhandle": 3678,
      "Ġexpress": 3679,
      "ird": 3680,
      "Ġflying": 3681,
      "Ġcontract": 3682,
      "Ġleaders": 3683,
      "char": 3684,
      "Ġhors": 3685,
      "Ġprec": 3686,
      "Ġcomplex": 3687,
      "Ġprince": 3688,
      "Ġperformance": 3689,
      "Ġjac": 3690,
      "Ġinstit": 3691,
      "aly": 3692,
      "Ġsna": 3693,
      "Ġmarriage": 3694,
      "illy": 3695,
      "night": 3696,
      "roud": 3697,
      "Ġrealize": 3698,
      "Ġpublished": 3699,
      "Ġjon": 3700,
      "leep": 3701,
      "Ġwet": 3702,
      "Ġrepeated": 3703,
      "Ġparticularly": 3704,
      "Ġwore": 3705,
      "Ġwine": 3706,
      "Ġrelief": 3707,
      "Ġcrazy": 3708,
      "athan": 3709,
      "Ġaside": 3710,
      "aries": 3711,
      "Ġsongs": 3712,
      "Ġcreature": 3713,
      "Ġmc": 3714,
      "Ġwashing": 3715,
      "Ġindepend": 3716,
      "asy": 3717,
      "Ġsubst": 3718,
      "bre": 3719,
      "Ġagree": 3720,
      "Ġbeach": 3721,
      "Ġven": 3722,
      "Ġplant": 3723,
      "Ġsaf": 3724,
      "Ġmentioned": 3725,
      "Ġinterrupt": 3726,
      "Ġgall": 3727,
      "Ġprofession": 3728,
      "Ġshadow": 3729,
      "Ġcelebr": 3730,
      "Ġinstruct": 3731,
      "Ġsmoke": 3732,
      "Ġju": 3733,
      "Ġpassing": 3734,
      "Ġrough": 3735,
      "Ġsite": 3736,
      "Ġconduct": 3737,
      "friend": 3738,
      "Ġmas": 3739,
      "Ġsouthern": 3740,
      "Ġdouble": 3741,
      "Ġtitle": 3742,
      "Ġcham": 3743,
      "etic": 3744,
      "ech": 3745,
      "Ġtu": 3746,
      "Ġunless": 3747,
      "Ġhate": 3748,
      "Ġbeast": 3749,
      "Ġsection": 3750,
      "loo": 3751,
      "Ġhidden": 3752,
      "Ġsettled": 3753,
      "hem": 3754,
      "Ġtradition": 3755,
      "fortun": 3756,
      "Ġpure": 3757,
      "Ġgest": 3758,
      "Ġelev": 3759,
      "hest": 3760,
      "Ġlarger": 3761,
      "Ġourselves": 3762,
      "Ġintellig": 3763,
      "eds": 3764,
      "Ġdriver": 3765,
      "uls": 3766,
      "aign": 3767,
      "Ġmike": 3768,
      "ulated": 3769,
      "ested": 3770,
      "Ġstruck": 3771,
      "Ġtemper": 3772,
      "Ġdangerous": 3773,
      "itated": 3774,
      "Ġpin": 3775,
      "Ġrights": 3776,
      "orted": 3777,
      "Ġcabin": 3778,
      "inated": 3779,
      "Ġtransport": 3780,
      "Ġencour": 3781,
      "Ġshaking": 3782,
      "Ġansw": 3783,
      "Ġgoal": 3784,
      "Ġprior": 3785,
      "Ġideas": 3786,
      "Ġdisappeared": 3787,
      "Ġfuck": 3788,
      "Ġterms": 3789,
      "har": 3790,
      "ores": 3791,
      "Ġtow": 3792,
      "Ġissue": 3793,
      "Ġlocked": 3794,
      "Ġcases": 3795,
      "nday": 3796,
      "Ġperformed": 3797,
      "Ġox": 3798,
      "Ġgenerally": 3799,
      "Ġhighway": 3800,
      "Ġanx": 3801,
      "bu": 3802,
      "Ġhole": 3803,
      "Ġuniverse": 3804,
      "Ġnearby": 3805,
      "Ġburst": 3806,
      "Ġgroups": 3807,
      "Ġappreci": 3808,
      "Ġshock": 3809,
      "Ġunf": 3810,
      "Ġexch": 3811,
      "Ġweapon": 3812,
      "Ġestablished": 3813,
      "Ġenviron": 3814,
      "Ġprogress": 3815,
      "Ġrapid": 3816,
      "Ġvall": 3817,
      "pir": 3818,
      "Ġcro": 3819,
      "Ġoce": 3820,
      "Ġinterested": 3821,
      "look": 3822,
      "Ġhorses": 3823,
      "Ġconcerned": 3824,
      "fall": 3825,
      "down": 3826,
      "Ġnoise": 3827,
      "Ġhun": 3828,
      "spe": 3829,
      "Ġol": 3830,
      "pre": 3831,
      "Ġfootball": 3832,
      "Ġgray": 3833,
      "Ġpressure": 3834,
      "Ġshown": 3835,
      "Ġproduc": 3836,
      "Ġell": 3837,
      "rict": 3838,
      "ait": 3839,
      "win": 3840,
      "Ġze": 3841,
      "Ġobvious": 3842,
      "Ġshows": 3843,
      "Ġfourth": 3844,
      "Ġstyle": 3845,
      "Ġmachine": 3846,
      "Ġactions": 3847,
      "ias": 3848,
      "Ġmissed": 3849,
      "Ġartic": 3850,
      "Ġmechan": 3851,
      "Ġasks": 3852,
      "lie": 3853,
      "ublic": 3854,
      "Ġlin": 3855,
      "Ġwrapped": 3856,
      "add": 3857,
      "Ġrule": 3858,
      "Ġliber": 3859,
      "Ġproperty": 3860,
      "Ġlunch": 3861,
      "tom": 3862,
      "Ġfaces": 3863,
      "Ġangel": 3864,
      "Ġdise": 3865,
      "Ġdamn": 3866,
      "Ġaid": 3867,
      "Ġlock": 3868,
      "Ġstick": 3869,
      "Ġbehav": 3870,
      "Ġbell": 3871,
      "Ġstuck": 3872,
      "Ġpossibly": 3873,
      "war": 3874,
      "new": 3875,
      "oph": 3876,
      "Ġdifference": 3877,
      "Ġhenry": 3878,
      "Ġaddress": 3879,
      "Ġmurder": 3880,
      "Ġfinish": 3881,
      "Ġcontribut": 3882,
      "ares": 3883,
      "rael": 3884,
      "Ġfallen": 3885,
      "Ġtoss": 3886,
      "Ġfund": 3887,
      "ols": 3888,
      "antage": 3889,
      "attered": 3890,
      "Ġnumbers": 3891,
      "Ġwinter": 3892,
      "Ġinterview": 3893,
      "Ġlog": 3894,
      "Ġgal": 3895,
      "Ġron": 3896,
      "col": 3897,
      "agon": 3898,
      "Ġcharacters": 3899,
      "Ġchart": 3900,
      "Ġfreedom": 3901,
      "iot": 3902,
      "Ġpor": 3903,
      "Ġscen": 3904,
      "Ġtells": 3905,
      "Ġrise": 3906,
      "Ġult": 3907,
      "Ġconstit": 3908,
      "Ġaccepted": 3909,
      "usted": 3910,
      "Ġpsych": 3911,
      "Ġlaughing": 3912,
      "ours": 3913,
      "Ġslid": 3914,
      "Ġplanned": 3915,
      "ucked": 3916,
      "ims": 3917,
      "Ġ--": 3918,
      "Ġtumor": 3919,
      "dr": 3920,
      "Ġry": 3921,
      "Ġobviously": 3922,
      "year": 3923,
      "Ġconc": 3924,
      "Ġpleas": 3925,
      "Ġcampaign": 3926,
      "Ġslam": 3927,
      "which": 3928,
      "Ġshowing": 3929,
      "Ġslipped": 3930,
      "ateg": 3931,
      "Ġflood": 3932,
      "oon": 3933,
      "Ġupper": 3934,
      "Ġbathroom": 3935,
      "Ġpotential": 3936,
      "Ġtreatment": 3937,
      "Ġscript": 3938,
      "Ġalt": 3939,
      "Ġguns": 3940,
      "Ġcompared": 3941,
      "Ġspiritual": 3942,
      "Ġremaining": 3943,
      "Ġadmin": 3944,
      "Ġcountries": 3945,
      "Ġbrothers": 3946,
      "Ġwid": 3947,
      "Ġgolden": 3948,
      "Ġinteresting": 3949,
      "Ġrefused": 3950,
      "Ġremains": 3951,
      "Ġparticip": 3952,
      "Ġvictor": 3953,
      "Ġ:": 3954,
      "Ġrevealed": 3955,
      "anch": 3956,
      "Ġbible": 3957,
      "iven": 3958,
      "Ġsuccessful": 3959,
      "Ġwonderful": 3960,
      "Ġactivity": 3961,
      "Ġcontinu": 3962,
      "Ġque": 3963,
      "Ġabandon": 3964,
      "Ġaccident": 3965,
      "Ġasleep": 3966,
      "Ġtea": 3967,
      "Ġinfluence": 3968,
      "Ġswall": 3969,
      "Ġrang": 3970,
      "athered": 3971,
      "mission": 3972,
      "Ġhonor": 3973,
      "ga": 3974,
      "Ġinh": 3975,
      "Ġcritic": 3976,
      "ropical": 3977,
      "Ġspan": 3978,
      "Ġvirt": 3979,
      "Ġdetermined": 3980,
      "Ġserve": 3981,
      "Ġlibr": 3982,
      "was": 3983,
      "Ġreligious": 3984,
      "aret": 3985,
      "Ġwooden": 3986,
      "Ġtheory": 3987,
      "Ġflash": 3988,
      "Ġsquad": 3989,
      "olic": 3990,
      "Ġsaved": 3991,
      "Ġchoose": 3992,
      "Ġterm": 3993,
      "Ġjake": 3994,
      "Ġbottle": 3995,
      "Ġpurch": 3996,
      "Ġsigh": 3997,
      "Ġorders": 3998,
      "Ġblock": 3999
    },
    "merges": [
      [
        "Ġ",
        "t"
      ],
      [
        "h",
        "e"
      ],
      [
        "Ġ",
        "a"
      ],
      [
        "i",
        "n"
      ],
      [
        "Ġ",
        "s"
      ],
      [
        "Ġt",
        "he"
      ],
      [
        "Ġ",
        "w"
      ],
      [
        "r",
        "e"
      ],
      [
        "Ġ",
        "o"
      ],
      [
        "n",
        "d"
      ],
      [
        "Ġ",
        "b"
      ],
      [
        "e",
        "r"
      ],
      [
        "o",
        "u"
      ],
      [
        "e",
        "d"
      ],
      [
        "Ġ",
        "h"
      ],
      [
        "Ġ",
        "f"
      ],
      [
        "Ġ",
        "c"
      ],
      [
        "Ġ",
        "m"
      ],
      [
        "a",
        "t"
      ],
      [
        "i",
        "t"
      ],
      [
        "o",
        "n"
      ],
      [
        "e",
        "n"
      ],
      [
        "in",
        "g"
      ],
      [
        "i",
        "s"
      ],
      [
        "Ġt",
        "o"
      ],
      [
        "Ġ",
        "d"
      ],
      [
        "Ġ",
        "p"
      ],
      [
        "o",
        "r"
      ],
      [
        "Ġt",
        "h"
      ],
      [
        "a",
        "n"
      ],
      [
        "Ġa",
        "nd"
      ],
      [
        "e",
        "s"
      ],
      [
        "Ġo",
        "f"
      ],
      [
        "a",
        "r"
      ],
      [
        "Ġ",
        "l"
      ],
      [
        "a",
        "s"
      ],
      [
        "l",
        "l"
      ],
      [
        "Ġ",
        "in"
      ],
      [
        "Ġ",
        "he"
      ],
      [
        "Ġ",
        "n"
      ],
      [
        "Ġ",
        "g"
      ],
      [
        "o",
        "m"
      ],
      [
        "Ġ",
        "e"
      ],
      [
        "Ġ",
        "i"
      ],
      [
        "l",
        "e"
      ],
      [
        "i",
        "c"
      ],
      [
        "Ġb",
        "e"
      ],
      [
        "Ġo",
        "n"
      ],
      [
        "a",
        "l"
      ],
      [
        "v",
        "e"
      ],
      [
        "a",
        "d"
      ],
      [
        "o",
        "w"
      ],
      [
        "o",
        "t"
      ],
      [
        "Ġ",
        "y"
      ],
      [
        "u",
        "t"
      ],
      [
        "Ġ",
        "re"
      ],
      [
        "s",
        "t"
      ],
      [
        "a",
        "c"
      ],
      [
        "en",
        "t"
      ],
      [
        "i",
        "d"
      ],
      [
        "Ġw",
        "as"
      ],
      [
        "g",
        "h"
      ],
      [
        "i",
        "on"
      ],
      [
        "e",
        "t"
      ],
      [
        "Ġ",
        "u"
      ],
      [
        "l",
        "d"
      ],
      [
        "l",
        "y"
      ],
      [
        "Ġs",
        "t"
      ],
      [
        "Ġy",
        "ou"
      ],
      [
        "Ġ",
        "it"
      ],
      [
        "Ġth",
        "at"
      ],
      [
        "i",
        "m"
      ],
      [
        "a",
        "y"
      ],
      [
        "s",
        "e"
      ],
      [
        "Ġ",
        "r"
      ],
      [
        "i",
        "r"
      ],
      [
        "Ġf",
        "or"
      ],
      [
        "v",
        "er"
      ],
      [
        "Ġa",
        "s"
      ],
      [
        "a",
        "nd"
      ],
      [
        "Ġw",
        "h"
      ],
      [
        "u",
        "r"
      ],
      [
        "Ġw",
        "e"
      ],
      [
        "it",
        "h"
      ],
      [
        "Ġh",
        "is"
      ],
      [
        "re",
        "d"
      ],
      [
        "gh",
        "t"
      ],
      [
        "a",
        "m"
      ],
      [
        "Ġw",
        "ith"
      ],
      [
        "Ġhe",
        "r"
      ],
      [
        "'",
        "s"
      ],
      [
        "t",
        "he"
      ],
      [
        "Ġ",
        "k"
      ],
      [
        "Ġa",
        "n"
      ],
      [
        "Ġs",
        "e"
      ],
      [
        "Ġ",
        "\""
      ],
      [
        "o",
        "o"
      ],
      [
        "Ġ",
        "is"
      ],
      [
        "r",
        "o"
      ],
      [
        "a",
        "ll"
      ],
      [
        "c",
        "e"
      ],
      [
        "Ġs",
        "he"
      ],
      [
        "i",
        "ght"
      ],
      [
        "Ġa",
        "t"
      ],
      [
        "Ġ",
        "j"
      ],
      [
        "ou",
        "ld"
      ],
      [
        ".",
        "\""
      ],
      [
        "Ġf",
        "r"
      ],
      [
        "c",
        "t"
      ],
      [
        "c",
        "h"
      ],
      [
        "Ġon",
        "e"
      ],
      [
        "i",
        "l"
      ],
      [
        "t",
        "er"
      ],
      [
        "t",
        "h"
      ],
      [
        "k",
        "e"
      ],
      [
        "Ġm",
        "e"
      ],
      [
        "Ġh",
        "a"
      ],
      [
        "Ġh",
        "ad"
      ],
      [
        "Ġs",
        "h"
      ],
      [
        "i",
        "ll"
      ],
      [
        "a",
        "in"
      ],
      [
        "ou",
        "s"
      ],
      [
        "i",
        "f"
      ],
      [
        "Ġn",
        "ot"
      ],
      [
        "'",
        "t"
      ],
      [
        "Ġd",
        "e"
      ],
      [
        "p",
        "p"
      ],
      [
        "Ġn",
        "e"
      ],
      [
        "Ġh",
        "u"
      ],
      [
        "r",
        "i"
      ],
      [
        "Ġm",
        "y"
      ],
      [
        "o",
        "re"
      ],
      [
        "Ġb",
        "ut"
      ],
      [
        "u",
        "s"
      ],
      [
        "Ġc",
        "h"
      ],
      [
        "Ġt",
        "w"
      ],
      [
        "Ġc",
        "on"
      ],
      [
        "at",
        "ion"
      ],
      [
        "g",
        "e"
      ],
      [
        "Ġs",
        "u"
      ],
      [
        "Ġfr",
        "om"
      ],
      [
        "Ġd",
        "o"
      ],
      [
        "Ġh",
        "im"
      ],
      [
        "an",
        "t"
      ],
      [
        "i",
        "ve"
      ],
      [
        "i",
        "e"
      ],
      [
        "he",
        "r"
      ],
      [
        "Ġ",
        "v"
      ],
      [
        "om",
        "e"
      ],
      [
        "Ġa",
        "l"
      ],
      [
        "ac",
        "k"
      ],
      [
        "Ġs",
        "o"
      ],
      [
        "u",
        "l"
      ],
      [
        "Ġs",
        "a"
      ],
      [
        "es",
        "s"
      ],
      [
        "on",
        "e"
      ],
      [
        "ar",
        "d"
      ],
      [
        "in",
        "e"
      ],
      [
        "Ġha",
        "ve"
      ],
      [
        "Ġthe",
        "y"
      ],
      [
        "u",
        "st"
      ],
      [
        "e",
        "l"
      ],
      [
        "r",
        "ou"
      ],
      [
        "er",
        "s"
      ],
      [
        "Ġu",
        "n"
      ],
      [
        "q",
        "u"
      ],
      [
        "a",
        "b"
      ],
      [
        "Ġth",
        "is"
      ],
      [
        "p",
        "e"
      ],
      [
        "Ġb",
        "y"
      ],
      [
        "ou",
        "r"
      ],
      [
        "es",
        "t"
      ],
      [
        "Ġa",
        "ll"
      ],
      [
        "Ġl",
        "e"
      ],
      [
        "Ġe",
        "x"
      ],
      [
        "k",
        "ed"
      ],
      [
        "u",
        "n"
      ],
      [
        "nd",
        "red"
      ],
      [
        "o",
        "s"
      ],
      [
        "Ġhu",
        "ndred"
      ],
      [
        "Ġu",
        "p"
      ],
      [
        "Ġo",
        "ut"
      ],
      [
        "o",
        "l"
      ],
      [
        "Ġwe",
        "re"
      ],
      [
        "Ġo",
        "r"
      ],
      [
        "t",
        "y"
      ],
      [
        "Ġa",
        "b"
      ],
      [
        "Ġl",
        "i"
      ],
      [
        "at",
        "e"
      ],
      [
        "Ġw",
        "he"
      ],
      [
        "Ġg",
        "o"
      ],
      [
        "Ġa",
        "re"
      ],
      [
        "v",
        "en"
      ],
      [
        "is",
        "t"
      ],
      [
        "ou",
        "t"
      ],
      [
        "Ġc",
        "om"
      ],
      [
        "Ġk",
        "n"
      ],
      [
        "Ġin",
        "t"
      ],
      [
        "Ġt",
        "r"
      ],
      [
        "re",
        "s"
      ],
      [
        "i",
        "g"
      ],
      [
        "in",
        "d"
      ],
      [
        "Ġtw",
        "o"
      ],
      [
        "u",
        "m"
      ],
      [
        "o",
        "p"
      ],
      [
        "ar",
        "t"
      ],
      [
        "Ġw",
        "or"
      ],
      [
        "e",
        "m"
      ],
      [
        "ous",
        "and"
      ],
      [
        "Ġth",
        "ousand"
      ],
      [
        "k",
        "ing"
      ],
      [
        "Ġw",
        "ould"
      ],
      [
        "as",
        "t"
      ],
      [
        ".",
        "."
      ],
      [
        ",",
        "\""
      ],
      [
        "a",
        "p"
      ],
      [
        "Ġp",
        "l"
      ],
      [
        "Ġf",
        "e"
      ],
      [
        "on",
        "g"
      ],
      [
        "Ġp",
        "ro"
      ],
      [
        "Ġn",
        "o"
      ],
      [
        "all",
        "y"
      ],
      [
        "a",
        "g"
      ],
      [
        "oo",
        "d"
      ],
      [
        "ow",
        "n"
      ],
      [
        "Ġsa",
        "id"
      ],
      [
        "Ġthe",
        "m"
      ],
      [
        "Ġc",
        "l"
      ],
      [
        "am",
        "e"
      ],
      [
        "Ġc",
        "an"
      ],
      [
        "he",
        "d"
      ],
      [
        "id",
        "e"
      ],
      [
        "ic",
        "h"
      ],
      [
        "or",
        "t"
      ],
      [
        "Ġwh",
        "at"
      ],
      [
        "re",
        "e"
      ],
      [
        "Ġthe",
        "ir"
      ],
      [
        "?",
        "\""
      ],
      [
        "Ġm",
        "an"
      ],
      [
        "it",
        "y"
      ],
      [
        "o",
        "c"
      ],
      [
        "Ġthe",
        "re"
      ],
      [
        "ac",
        "e"
      ],
      [
        "the",
        "r"
      ],
      [
        "Ġwh",
        "o"
      ],
      [
        "Ġc",
        "ould"
      ],
      [
        "Ġm",
        "o"
      ],
      [
        "w",
        "e"
      ],
      [
        "Ġt",
        "im"
      ],
      [
        "Ġint",
        "o"
      ],
      [
        "Ġd",
        "id"
      ],
      [
        "Ġa",
        "r"
      ],
      [
        "Ġs",
        "p"
      ],
      [
        "Ġa",
        "g"
      ],
      [
        "Ġl",
        "oo"
      ],
      [
        "ver",
        "y"
      ],
      [
        "Ġ",
        "("
      ],
      [
        "i",
        "es"
      ],
      [
        "a",
        "u"
      ],
      [
        "a",
        "ke"
      ],
      [
        "Ġb",
        "ack"
      ],
      [
        "t",
        "e"
      ],
      [
        "Ġi",
        "f"
      ],
      [
        "Ġab",
        "out"
      ],
      [
        "Ġt",
        "e"
      ],
      [
        "Ġli",
        "ke"
      ],
      [
        "Ġu",
        "s"
      ],
      [
        "Ġr",
        "o"
      ],
      [
        "m",
        "ent"
      ],
      [
        "Ġyou",
        "r"
      ],
      [
        "Ġwhe",
        "n"
      ],
      [
        "Ġc",
        "o"
      ],
      [
        "Ġw",
        "ill"
      ],
      [
        "Ġb",
        "r"
      ],
      [
        "h",
        "ing"
      ],
      [
        "Ġ",
        "en"
      ],
      [
        "Ġbe",
        "en"
      ],
      [
        "a",
        "re"
      ],
      [
        "Ġo",
        "ver"
      ],
      [
        "w",
        "ay"
      ],
      [
        "Ġan",
        "y"
      ],
      [
        "e",
        "p"
      ],
      [
        "i",
        "x"
      ],
      [
        "Ġs",
        "ome"
      ],
      [
        "Ġb",
        "l"
      ],
      [
        "Ġwh",
        "ich"
      ],
      [
        "f",
        "e"
      ],
      [
        "r",
        "a"
      ],
      [
        "ic",
        "e"
      ],
      [
        "at",
        "ed"
      ],
      [
        "u",
        "d"
      ],
      [
        "n",
        "t"
      ],
      [
        "Ġtim",
        "e"
      ],
      [
        "Ġkn",
        "ow"
      ],
      [
        "u",
        "re"
      ],
      [
        "a",
        "k"
      ],
      [
        "Ġj",
        "ust"
      ],
      [
        "Ġ",
        "qu"
      ],
      [
        "r",
        "y"
      ],
      [
        "i",
        "v"
      ],
      [
        "se",
        "l"
      ],
      [
        "i",
        "p"
      ],
      [
        "Ġp",
        "r"
      ],
      [
        "Ġs",
        "c"
      ],
      [
        "Ġn",
        "ine"
      ],
      [
        "ur",
        "n"
      ],
      [
        "Ġm",
        "ore"
      ],
      [
        "Ġthe",
        "n"
      ],
      [
        "Ġo",
        "ther"
      ],
      [
        "Ġb",
        "o"
      ],
      [
        "ou",
        "nd"
      ],
      [
        "Ġa",
        "f"
      ],
      [
        "Ġg",
        "r"
      ],
      [
        "as",
        "s"
      ],
      [
        "Ġs",
        "m"
      ],
      [
        "p",
        "t"
      ],
      [
        "Ġof",
        "f"
      ],
      [
        "i",
        "le"
      ],
      [
        "p",
        "l"
      ],
      [
        "b",
        "er"
      ],
      [
        "Ġg",
        "et"
      ],
      [
        "Ġf",
        "l"
      ],
      [
        "k",
        "s"
      ],
      [
        "ent",
        "y"
      ],
      [
        "Ġa",
        "m"
      ],
      [
        "rou",
        "nd"
      ],
      [
        "Ġd",
        "own"
      ],
      [
        "Ġh",
        "and"
      ],
      [
        "Ġa",
        "d"
      ],
      [
        "re",
        "at"
      ],
      [
        "Ġi",
        "m"
      ],
      [
        "v",
        "ed"
      ],
      [
        "Ġto",
        "o"
      ],
      [
        "ac",
        "t"
      ],
      [
        "Ġl",
        "o"
      ],
      [
        "ot",
        "her"
      ],
      [
        "nd",
        "er"
      ],
      [
        "u",
        "c"
      ],
      [
        "Ġa",
        "c"
      ],
      [
        "Ġp",
        "e"
      ],
      [
        "f",
        "ore"
      ],
      [
        "Ġe",
        "ight"
      ],
      [
        "Ġth",
        "ou"
      ],
      [
        "Ġag",
        "ain"
      ],
      [
        "i",
        "re"
      ],
      [
        "a",
        "ge"
      ],
      [
        "an",
        "ce"
      ],
      [
        "it",
        "t"
      ],
      [
        "Ġbe",
        "c"
      ],
      [
        "ar",
        "s"
      ],
      [
        "Ġcon",
        "t"
      ],
      [
        "Ġd",
        "is"
      ],
      [
        "o",
        "se"
      ],
      [
        "an",
        "s"
      ],
      [
        "a",
        "v"
      ],
      [
        "Ġh",
        "ow"
      ],
      [
        "ic",
        "k"
      ],
      [
        "Ġw",
        "ant"
      ],
      [
        "it",
        "e"
      ],
      [
        "Ġs",
        "ix"
      ],
      [
        "p",
        "er"
      ],
      [
        "u",
        "ll"
      ],
      [
        "Ġse",
        "e"
      ],
      [
        "Ġth",
        "an"
      ],
      [
        "sel",
        "f"
      ],
      [
        "i",
        "z"
      ],
      [
        "s",
        "o"
      ],
      [
        "ab",
        "le"
      ],
      [
        "res",
        "s"
      ],
      [
        "ad",
        "e"
      ],
      [
        "Ġth",
        "ree"
      ],
      [
        "Ġn",
        "ow"
      ],
      [
        "u",
        "e"
      ],
      [
        "Ġon",
        "ly"
      ],
      [
        "ion",
        "s"
      ],
      [
        "ing",
        "s"
      ],
      [
        "ac",
        "h"
      ],
      [
        "Ġh",
        "as"
      ],
      [
        "Ġf",
        "ir"
      ],
      [
        "b",
        "le"
      ],
      [
        "i",
        "a"
      ],
      [
        "or",
        "d"
      ],
      [
        "Ġe",
        "y"
      ],
      [
        "en",
        "ce"
      ],
      [
        "c",
        "o"
      ],
      [
        "Ġbe",
        "fore"
      ],
      [
        "Ġf",
        "our"
      ],
      [
        "Ġ",
        "'"
      ],
      [
        "rou",
        "gh"
      ],
      [
        "in",
        "k"
      ],
      [
        "Ġcom",
        "p"
      ],
      [
        "Ġo",
        "ur"
      ],
      [
        "Ġaf",
        "ter"
      ],
      [
        "w",
        "ard"
      ],
      [
        "Ġw",
        "ay"
      ],
      [
        "Ġp",
        "o"
      ],
      [
        "Ġf",
        "ive"
      ],
      [
        "c",
        "l"
      ],
      [
        "ar",
        "y"
      ],
      [
        "Ġs",
        "l"
      ],
      [
        "Ġre",
        "s"
      ],
      [
        "Ġp",
        "er"
      ],
      [
        "i",
        "ous"
      ],
      [
        "Ġa",
        "pp"
      ],
      [
        "Ġth",
        "rough"
      ],
      [
        "b",
        "e"
      ],
      [
        "an",
        "g"
      ],
      [
        "Ġy",
        "e"
      ],
      [
        "a",
        "ve"
      ],
      [
        "w",
        "n"
      ],
      [
        "d",
        "e"
      ],
      [
        "Ġd",
        "on"
      ],
      [
        "Ġfir",
        "st"
      ],
      [
        "l",
        "ed"
      ],
      [
        "is",
        "h"
      ],
      [
        "Ġhe",
        "ad"
      ],
      [
        "Ġe",
        "very"
      ],
      [
        "Ġe",
        "ven"
      ],
      [
        "Ġs",
        "ay"
      ],
      [
        "at",
        "er"
      ],
      [
        "w",
        "h"
      ],
      [
        "f",
        "t"
      ],
      [
        "e",
        "ct"
      ],
      [
        "'",
        "m"
      ],
      [
        "Ġs",
        "pe"
      ],
      [
        "Ġne",
        "w"
      ],
      [
        "if",
        "e"
      ],
      [
        "Ġd",
        "ay"
      ],
      [
        "'",
        "d"
      ],
      [
        "Ġp",
        "re"
      ],
      [
        "i",
        "al"
      ],
      [
        "Ġm",
        "ar"
      ],
      [
        "r",
        "u"
      ],
      [
        "t",
        "ed"
      ],
      [
        "..",
        "."
      ],
      [
        "f",
        "or"
      ],
      [
        "om",
        "et"
      ],
      [
        "Ġre",
        "m"
      ],
      [
        "pp",
        "ed"
      ],
      [
        "at",
        "h"
      ],
      [
        "Ġf",
        "o"
      ],
      [
        "Ġh",
        "o"
      ],
      [
        "Ġbe",
        "t"
      ],
      [
        "i",
        "ld"
      ],
      [
        "i",
        "ed"
      ],
      [
        "Ġd",
        "es"
      ],
      [
        "f",
        "f"
      ],
      [
        "v",
        "ing"
      ],
      [
        "s",
        "he"
      ],
      [
        "Ġit",
        "s"
      ],
      [
        "Ġa",
        "round"
      ],
      [
        "Ġu",
        "nder"
      ],
      [
        "is",
        "s"
      ],
      [
        "Ġdid",
        "n"
      ],
      [
        "as",
        "e"
      ],
      [
        "op",
        "le"
      ],
      [
        "Ġne",
        "ed"
      ],
      [
        "Ġg",
        "u"
      ],
      [
        "Ġwhe",
        "re"
      ],
      [
        "au",
        "se"
      ],
      [
        "Ġm",
        "u"
      ],
      [
        "Ġt",
        "urn"
      ],
      [
        "i",
        "an"
      ],
      [
        "Ġl",
        "ong"
      ],
      [
        "re",
        "n"
      ],
      [
        "m",
        "an"
      ],
      [
        "Ġj",
        "o"
      ],
      [
        "Ġr",
        "ight"
      ],
      [
        "Ġsh",
        "ould"
      ],
      [
        "Ġhe",
        "re"
      ],
      [
        "ig",
        "n"
      ],
      [
        "Ġey",
        "es"
      ],
      [
        "Ġpe",
        "ople"
      ],
      [
        "Ġc",
        "r"
      ],
      [
        "Ġg",
        "l"
      ],
      [
        "y",
        "ou"
      ],
      [
        "Ġc",
        "ar"
      ],
      [
        "ic",
        "al"
      ],
      [
        "ou",
        "gh"
      ],
      [
        "n",
        "ing"
      ],
      [
        "Ġm",
        "ay"
      ],
      [
        "at",
        "her"
      ],
      [
        "en",
        "s"
      ],
      [
        "Ġm",
        "ade"
      ],
      [
        "Ġp",
        "art"
      ],
      [
        "Ġe",
        "m"
      ],
      [
        "Ġs",
        "omet"
      ],
      [
        "Ġthou",
        "ght"
      ],
      [
        "t",
        "ing"
      ],
      [
        "Ġg",
        "ood"
      ],
      [
        "Ġc",
        "ou"
      ],
      [
        "u",
        "b"
      ],
      [
        "a",
        "red"
      ],
      [
        "a",
        "il"
      ],
      [
        "Ġst",
        "ill"
      ],
      [
        "Ġth",
        "ir"
      ],
      [
        "Ġgo",
        "ing"
      ],
      [
        "Ġal",
        "so"
      ],
      [
        "'",
        "re"
      ],
      [
        "or",
        "y"
      ],
      [
        "Ġtw",
        "enty"
      ],
      [
        "Ġat",
        "t"
      ],
      [
        "Ġloo",
        "ked"
      ],
      [
        "Ġa",
        "ct"
      ],
      [
        "Ġcom",
        "m"
      ],
      [
        "d",
        "y"
      ],
      [
        "Ġth",
        "ink"
      ],
      [
        "Ġmu",
        "ch"
      ],
      [
        "Ġl",
        "et"
      ],
      [
        "ot",
        "h"
      ],
      [
        "i",
        "ly"
      ],
      [
        "Ġc",
        "all"
      ],
      [
        "Ġs",
        "er"
      ],
      [
        "Ġo",
        "p"
      ],
      [
        "'",
        "ll"
      ],
      [
        "n",
        "e"
      ],
      [
        "ation",
        "s"
      ],
      [
        "Ġm",
        "a"
      ],
      [
        "Ġa",
        "way"
      ],
      [
        "is",
        "e"
      ],
      [
        "a",
        "ir"
      ],
      [
        "Ġun",
        "k"
      ],
      [
        "en",
        "ed"
      ],
      [
        "th",
        "ing"
      ],
      [
        "ll",
        "ow"
      ],
      [
        "Ġne",
        "ver"
      ],
      [
        "Ġw",
        "r"
      ],
      [
        "or",
        "s"
      ],
      [
        "b",
        "ut"
      ],
      [
        "Ġbe",
        "l"
      ],
      [
        "Ġl",
        "ife"
      ],
      [
        "s",
        "ide"
      ],
      [
        "Ġwe",
        "ll"
      ],
      [
        "Ġm",
        "ake"
      ],
      [
        "itt",
        "le"
      ],
      [
        "an",
        "c"
      ],
      [
        "it",
        "ion"
      ],
      [
        "Ġar",
        "m"
      ],
      [
        "ar",
        "k"
      ],
      [
        "on",
        "s"
      ],
      [
        "Ġd",
        "r"
      ],
      [
        "te",
        "en"
      ],
      [
        "Ġk",
        "e"
      ],
      [
        "ul",
        "t"
      ],
      [
        "Ġl",
        "ittle"
      ],
      [
        "Ġe",
        "ar"
      ],
      [
        "Ġse",
        "ven"
      ],
      [
        "Ġwh",
        "ile"
      ],
      [
        "!",
        "\""
      ],
      [
        "Ġbe",
        "ing"
      ],
      [
        "Ġ",
        "very"
      ],
      [
        "Ġsomet",
        "hing"
      ],
      [
        "l",
        "es"
      ],
      [
        "Ġhe",
        "l"
      ],
      [
        "ad",
        "y"
      ],
      [
        "oc",
        "k"
      ],
      [
        "Ġs",
        "ur"
      ],
      [
        "f",
        "ul"
      ],
      [
        "Ġst",
        "r"
      ],
      [
        "Ġmo",
        "st"
      ],
      [
        "Ġ",
        "-"
      ],
      [
        "a",
        "h"
      ],
      [
        "Ġc",
        "he"
      ],
      [
        "Ġim",
        "p"
      ],
      [
        "Ġbe",
        "g"
      ],
      [
        "Ġp",
        "h"
      ],
      [
        "v",
        "es"
      ],
      [
        "i",
        "gh"
      ],
      [
        "Ġg",
        "ot"
      ],
      [
        "o",
        "g"
      ],
      [
        "Ġf",
        "ace"
      ],
      [
        "ct",
        "ion"
      ],
      [
        "Ġgo",
        "d"
      ],
      [
        "Ġbec",
        "ause"
      ],
      [
        "w",
        "he"
      ],
      [
        "os",
        "s"
      ],
      [
        "Ġf",
        "in"
      ],
      [
        "Ġfe",
        "el"
      ],
      [
        "s",
        "s"
      ],
      [
        "Ġf",
        "if"
      ],
      [
        "Ġt",
        "ake"
      ],
      [
        "Ġo",
        "wn"
      ],
      [
        "Ġw",
        "al"
      ],
      [
        "e",
        "w"
      ],
      [
        "et",
        "y"
      ],
      [
        "Ġ",
        "ent"
      ],
      [
        "n",
        "o"
      ],
      [
        "Ġre",
        "l"
      ],
      [
        "n",
        "ess"
      ],
      [
        "in",
        "t"
      ],
      [
        "ri",
        "ed"
      ],
      [
        "t",
        "ain"
      ],
      [
        "oo",
        "k"
      ],
      [
        "Ġro",
        "om"
      ],
      [
        "Ġthe",
        "se"
      ],
      [
        "c",
        "ess"
      ],
      [
        "t",
        "w"
      ],
      [
        "he",
        "s"
      ],
      [
        "Ġas",
        "ked"
      ],
      [
        "Ġe",
        "nd"
      ],
      [
        "Ġst",
        "art"
      ],
      [
        "c",
        "hed"
      ],
      [
        "Ġe",
        "v"
      ],
      [
        "Ġas",
        "s"
      ],
      [
        "g",
        "g"
      ],
      [
        "Ġdo",
        "or"
      ],
      [
        "ve",
        "l"
      ],
      [
        "Ġha",
        "pp"
      ],
      [
        "Ġc",
        "ome"
      ],
      [
        "ver",
        "s"
      ],
      [
        "ic",
        "t"
      ],
      [
        "Ġtoo",
        "k"
      ],
      [
        "ent",
        "s"
      ],
      [
        "Ġe",
        "l"
      ],
      [
        "Ġw",
        "ar"
      ],
      [
        "y",
        "ing"
      ],
      [
        "Ġth",
        "ose"
      ],
      [
        "Ġte",
        "ll"
      ],
      [
        "p",
        "s"
      ],
      [
        "m",
        "ed"
      ],
      [
        "g",
        "et"
      ],
      [
        "Ġwor",
        "ld"
      ],
      [
        "Ġre",
        "c"
      ],
      [
        "t",
        "o"
      ],
      [
        "Ġwor",
        "k"
      ],
      [
        "Ġb",
        "u"
      ],
      [
        "'",
        "ve"
      ],
      [
        "Ġloo",
        "k"
      ],
      [
        "x",
        "t"
      ],
      [
        "Ġse",
        "em"
      ],
      [
        "Ġc",
        "ame"
      ],
      [
        "i",
        "b"
      ],
      [
        "m",
        "o"
      ],
      [
        "Ġre",
        "al"
      ],
      [
        "Ġre",
        "p"
      ],
      [
        "Ġle",
        "ft"
      ],
      [
        "Ġf",
        "ound"
      ],
      [
        "a",
        "w"
      ],
      [
        "ow",
        "er"
      ],
      [
        "Ġan",
        "other"
      ],
      [
        "at",
        "ing"
      ],
      [
        "Ġre",
        "t"
      ],
      [
        "Ġf",
        "ind"
      ],
      [
        "ou",
        "se"
      ],
      [
        "Ġman",
        "y"
      ],
      [
        "Ġg",
        "reat"
      ],
      [
        "Ġo",
        "ld"
      ],
      [
        "oo",
        "l"
      ],
      [
        "pe",
        "ct"
      ],
      [
        "Ġo",
        "b"
      ],
      [
        "Ġfe",
        "w"
      ],
      [
        "Ġin",
        "ter"
      ],
      [
        "on",
        "t"
      ],
      [
        "y",
        "s"
      ],
      [
        "el",
        "t"
      ],
      [
        "Ġde",
        "c"
      ],
      [
        "Ġm",
        "om"
      ],
      [
        "it",
        "ed"
      ],
      [
        "Ġm",
        "in"
      ],
      [
        "Ġm",
        "at"
      ],
      [
        "Ġsu",
        "ch"
      ],
      [
        "Ġn",
        "or"
      ],
      [
        "p",
        "le"
      ],
      [
        "Ġs",
        "et"
      ],
      [
        "e",
        "ll"
      ],
      [
        "an",
        "ge"
      ],
      [
        "uc",
        "k"
      ],
      [
        "Ġhel",
        "p"
      ],
      [
        "d",
        "d"
      ],
      [
        "Ġs",
        "w"
      ],
      [
        "u",
        "al"
      ],
      [
        "ro",
        "ss"
      ],
      [
        "Ġw",
        "a"
      ],
      [
        "Ġw",
        "om"
      ],
      [
        "Ġpl",
        "ay"
      ],
      [
        "Ġt",
        "al"
      ],
      [
        "Ġp",
        "ers"
      ],
      [
        "i",
        "ble"
      ],
      [
        "Ġl",
        "ast"
      ],
      [
        "Ġagain",
        "st"
      ],
      [
        "Ġb",
        "oth"
      ],
      [
        "in",
        "ce"
      ],
      [
        "d",
        "s"
      ],
      [
        "Ġkn",
        "ew"
      ],
      [
        "Ġfo",
        "llow"
      ],
      [
        "Ġe",
        "le"
      ],
      [
        "Ġp",
        "ut"
      ],
      [
        "Ġye",
        "ars"
      ],
      [
        "p",
        "h"
      ],
      [
        "Ġd",
        "if"
      ],
      [
        "Ġs",
        "ame"
      ],
      [
        "n",
        "g"
      ],
      [
        "wh",
        "at"
      ],
      [
        "Ġch",
        "ar"
      ],
      [
        "Ġin",
        "d"
      ],
      [
        "Ġf",
        "elt"
      ],
      [
        "Ġg",
        "en"
      ],
      [
        "Ġl",
        "ight"
      ],
      [
        "Ġin",
        "st"
      ],
      [
        "Ġn",
        "in"
      ],
      [
        "n",
        "er"
      ],
      [
        "Ġac",
        "c"
      ],
      [
        "Ġn",
        "ight"
      ],
      [
        "at",
        "es"
      ],
      [
        "Ġpl",
        "ace"
      ],
      [
        "Ġp",
        "ass"
      ],
      [
        "Ġe",
        "ach"
      ],
      [
        "Ġturn",
        "ed"
      ],
      [
        "e",
        "red"
      ],
      [
        "Ġm",
        "ust"
      ],
      [
        "Ġbe",
        "h"
      ],
      [
        "l",
        "i"
      ],
      [
        "Ġcon",
        "s"
      ],
      [
        "a",
        "z"
      ],
      [
        "we",
        "en"
      ],
      [
        "Ġs",
        "k"
      ],
      [
        "Ġc",
        "or"
      ],
      [
        "Ġw",
        "ent"
      ],
      [
        "Ġw",
        "at"
      ],
      [
        "ur",
        "ing"
      ],
      [
        "Ġs",
        "ide"
      ],
      [
        "d",
        "er"
      ],
      [
        "l",
        "ing"
      ],
      [
        "Ġth",
        "ings"
      ],
      [
        "Ġp",
        "ar"
      ],
      [
        "t",
        "il"
      ],
      [
        "u",
        "ally"
      ],
      [
        "Ġ",
        "z"
      ],
      [
        "Ġc",
        "le"
      ],
      [
        "Ġv",
        "o"
      ],
      [
        "ie",
        "nd"
      ],
      [
        "Ġp",
        "res"
      ],
      [
        "Ġsm",
        "all"
      ],
      [
        "a",
        "king"
      ],
      [
        "Ġm",
        "ind"
      ],
      [
        "Ġh",
        "ome"
      ],
      [
        "co",
        "nd"
      ],
      [
        "Ġsu",
        "pp"
      ],
      [
        "Ġbet",
        "ween"
      ],
      [
        "Ġ",
        "."
      ],
      [
        "Ġfr",
        "iend"
      ],
      [
        "re",
        "nt"
      ],
      [
        "n",
        "ed"
      ],
      [
        "Ġm",
        "et"
      ],
      [
        "Ġre",
        "g"
      ],
      [
        "Ġthir",
        "ty"
      ],
      [
        "as",
        "on"
      ],
      [
        "an",
        "k"
      ],
      [
        "Ġs",
        "y"
      ],
      [
        "way",
        "s"
      ],
      [
        "Ġm",
        "en"
      ],
      [
        "n",
        "a"
      ],
      [
        "Ġf",
        "am"
      ],
      [
        "Ġt",
        "en"
      ],
      [
        "Ġm",
        "ight"
      ],
      [
        "is",
        "ed"
      ],
      [
        "Ġto",
        "ward"
      ],
      [
        "Ġst",
        "e"
      ],
      [
        "Ġto",
        "ld"
      ],
      [
        "Ġc",
        "our"
      ],
      [
        "the",
        "y"
      ],
      [
        "Ġdo",
        "es"
      ],
      [
        "Ġin",
        "v"
      ],
      [
        "Ġsh",
        "ow"
      ],
      [
        "Ġf",
        "ar"
      ],
      [
        "s",
        "h"
      ],
      [
        "ce",
        "pt"
      ],
      [
        "Ġre",
        "ally"
      ],
      [
        "Ġs",
        "ou"
      ],
      [
        "as",
        "ed"
      ],
      [
        "-",
        "-"
      ],
      [
        "Ġun",
        "til"
      ],
      [
        "Ġh",
        "ouse"
      ],
      [
        "Ġh",
        "igh"
      ],
      [
        "Ġin",
        "c"
      ],
      [
        "Ġbel",
        "ie"
      ],
      [
        "Ġsu",
        "re"
      ],
      [
        "fe",
        "ct"
      ],
      [
        "Ġwh",
        "y"
      ],
      [
        "Ġwith",
        "out"
      ],
      [
        "Ġhim",
        "self"
      ],
      [
        "Ġse",
        "v"
      ],
      [
        "Ġlo",
        "ve"
      ],
      [
        "Ġm",
        "on"
      ],
      [
        "Ġse",
        "cond"
      ],
      [
        "Ġb",
        "re"
      ],
      [
        "ar",
        "ing"
      ],
      [
        "Ġne",
        "xt"
      ],
      [
        "is",
        "hed"
      ],
      [
        "Ġfor",
        "m"
      ],
      [
        "o",
        "nd"
      ],
      [
        "Ġsa",
        "w"
      ],
      [
        "Ġhand",
        "s"
      ],
      [
        "Ġre",
        "st"
      ],
      [
        "i",
        "o"
      ],
      [
        "Ġch",
        "ild"
      ],
      [
        "r",
        "ow"
      ],
      [
        "Ġs",
        "im"
      ],
      [
        "Ġfif",
        "ty"
      ],
      [
        "u",
        "p"
      ],
      [
        "Ġa",
        "ir"
      ],
      [
        "th",
        "is"
      ],
      [
        "Ġsu",
        "b"
      ],
      [
        "e",
        "en"
      ],
      [
        "l",
        "and"
      ],
      [
        "Ġke",
        "ep"
      ],
      [
        "j",
        "ect"
      ],
      [
        "Ġs",
        "at"
      ],
      [
        "Ġbo",
        "dy"
      ],
      [
        "en",
        "c"
      ],
      [
        "Ġcont",
        "in"
      ],
      [
        "Ġthou",
        "gh"
      ],
      [
        "l",
        "ess"
      ],
      [
        "Ġop",
        "en"
      ],
      [
        "Ġd",
        "ist"
      ],
      [
        "Ġex",
        "p"
      ],
      [
        "Ġr",
        "un"
      ],
      [
        "Ġ",
        "ed"
      ],
      [
        "am",
        "p"
      ],
      [
        "p",
        "r"
      ],
      [
        "er",
        "o"
      ],
      [
        "b",
        "o"
      ],
      [
        "a",
        "f"
      ],
      [
        "Ġh",
        "ard"
      ],
      [
        "b",
        "ed"
      ],
      [
        "re",
        "w"
      ],
      [
        "c",
        "i"
      ],
      [
        "Ġl",
        "ar"
      ],
      [
        "Ġwas",
        "n"
      ],
      [
        "e",
        "ver"
      ],
      [
        "re",
        "am"
      ],
      [
        "for",
        "m"
      ],
      [
        "os",
        "ed"
      ],
      [
        "ain",
        "ed"
      ],
      [
        "ir",
        "l"
      ],
      [
        "re",
        "t"
      ],
      [
        "Ġen",
        "ough"
      ],
      [
        "it",
        "s"
      ],
      [
        "al",
        "s"
      ],
      [
        "ou",
        "nt"
      ],
      [
        "Ġpers",
        "on"
      ],
      [
        "Ġfor",
        "ty"
      ],
      [
        "th",
        "at"
      ],
      [
        "Ġwant",
        "ed"
      ],
      [
        "c",
        "k"
      ],
      [
        "au",
        "ght"
      ],
      [
        "Ġth",
        "ing"
      ],
      [
        "Ġapp",
        "e"
      ],
      [
        "Ġp",
        "ull"
      ],
      [
        "b",
        "y"
      ],
      [
        "cl",
        "ud"
      ],
      [
        "Ġc",
        "ap"
      ],
      [
        "Ġnot",
        "hing"
      ],
      [
        "Ġal",
        "ways"
      ],
      [
        "Ġm",
        "or"
      ],
      [
        "Ġcon",
        "f"
      ],
      [
        "Ġst",
        "and"
      ],
      [
        "Ġbeh",
        "ind"
      ],
      [
        "Ġc",
        "are"
      ],
      [
        ".",
        "'"
      ],
      [
        "t",
        "en"
      ],
      [
        ")",
        "."
      ],
      [
        "Ġany",
        "thing"
      ],
      [
        "Ġp",
        "ol"
      ],
      [
        "Ġnin",
        "ety"
      ],
      [
        "n",
        "ot"
      ],
      [
        "Ġad",
        "d"
      ],
      [
        "a",
        "le"
      ],
      [
        "Ġe",
        "ver"
      ],
      [
        "c",
        "er"
      ],
      [
        "if",
        "ic"
      ],
      [
        "ul",
        "ar"
      ],
      [
        "Ġc",
        "ent"
      ],
      [
        "ter",
        "s"
      ],
      [
        "the",
        "re"
      ],
      [
        "Ġf",
        "ather"
      ],
      [
        "d",
        "ay"
      ],
      [
        "ut",
        "h"
      ],
      [
        "Ġs",
        "ch"
      ],
      [
        "Ġon",
        "ce"
      ],
      [
        "mo",
        "st"
      ],
      [
        "Ġus",
        "ed"
      ],
      [
        "Ġc",
        "ur"
      ],
      [
        "Ġs",
        "ound"
      ],
      [
        "Ġret",
        "urn"
      ],
      [
        "in",
        "s"
      ],
      [
        "Ġvo",
        "ice"
      ],
      [
        "Ġl",
        "ater"
      ],
      [
        "Ġt",
        "er"
      ],
      [
        "Ġw",
        "ater"
      ],
      [
        "m",
        "y"
      ],
      [
        "Ġg",
        "irl"
      ],
      [
        "Ġ",
        ","
      ],
      [
        "us",
        "ed"
      ],
      [
        "i",
        "red"
      ],
      [
        "iz",
        "ed"
      ],
      [
        "Ġpl",
        "an"
      ],
      [
        "in",
        "ed"
      ],
      [
        "Ġn",
        "um"
      ],
      [
        "h",
        "ow"
      ],
      [
        "ent",
        "ly"
      ],
      [
        "Ġd",
        "ire"
      ],
      [
        "Ġen",
        "g"
      ],
      [
        "it",
        "ing"
      ],
      [
        "Ġmom",
        "ent"
      ],
      [
        "Ġp",
        "at"
      ],
      [
        ")",
        ","
      ],
      [
        "Ġne",
        "ar"
      ],
      [
        "Ġw",
        "ind"
      ],
      [
        "Ġex",
        "pl"
      ],
      [
        "Ġs",
        "ince"
      ],
      [
        "g",
        "er"
      ],
      [
        "Ġd",
        "ark"
      ],
      [
        "Ġdif",
        "fe"
      ],
      [
        "Ġfr",
        "ont"
      ],
      [
        "tw",
        "o"
      ],
      [
        "Ġbeg",
        "an"
      ],
      [
        "Ġb",
        "ar"
      ],
      [
        "ent",
        "ion"
      ],
      [
        "er",
        "ic"
      ],
      [
        "Ġco",
        "ll"
      ],
      [
        "Ġch",
        "r"
      ],
      [
        "Ġcall",
        "ed"
      ],
      [
        "at",
        "t"
      ],
      [
        "u",
        "res"
      ],
      [
        "as",
        "h"
      ],
      [
        "re",
        "st"
      ],
      [
        "Ġst",
        "ud"
      ],
      [
        "Ġp",
        "oss"
      ],
      [
        "l",
        "ic"
      ],
      [
        "ch",
        "ing"
      ],
      [
        "Ġg",
        "ive"
      ],
      [
        "id",
        "ed"
      ],
      [
        "Ġloo",
        "king"
      ],
      [
        "Ġu",
        "se"
      ],
      [
        "Ġs",
        "ign"
      ],
      [
        "ie",
        "w"
      ],
      [
        "Ġb",
        "ed"
      ],
      [
        "Ġk",
        "ill"
      ],
      [
        "Ġbet",
        "ter"
      ],
      [
        "Ġhe",
        "art"
      ],
      [
        "b",
        "r"
      ],
      [
        "c",
        "c"
      ],
      [
        "Ġm",
        "iss"
      ],
      [
        "Ġc",
        "ol"
      ],
      [
        "Ġp",
        "ower"
      ],
      [
        "ate",
        "ly"
      ],
      [
        "Ġm",
        "other"
      ],
      [
        "Ġb",
        "est"
      ],
      [
        "Ġle",
        "ad"
      ],
      [
        "t",
        "s"
      ],
      [
        "Ġm",
        "us"
      ],
      [
        "Ġd",
        "et"
      ],
      [
        "Ġs",
        "il"
      ],
      [
        "Ġ",
        "es"
      ],
      [
        "Ġyou",
        "ng"
      ],
      [
        "ab",
        "ly"
      ],
      [
        "en",
        "se"
      ],
      [
        "u",
        "ed"
      ],
      [
        "Ġb",
        "us"
      ],
      [
        "c",
        "ed"
      ],
      [
        "we",
        "ll"
      ],
      [
        "whe",
        "n"
      ],
      [
        "Ġl",
        "oc"
      ],
      [
        "Ġme",
        "m"
      ],
      [
        "Ġp",
        "le"
      ],
      [
        "t",
        "on"
      ],
      [
        "Ġn",
        "ame"
      ],
      [
        "Ġqu",
        "est"
      ],
      [
        "Ġcould",
        "n"
      ],
      [
        "Ġspe",
        "c"
      ],
      [
        "Ġunder",
        "st"
      ],
      [
        "i",
        "er"
      ],
      [
        "ac",
        "hed"
      ],
      [
        "Ġqu",
        "ick"
      ],
      [
        "Ġh",
        "al"
      ],
      [
        "Ġwom",
        "an"
      ],
      [
        "u",
        "red"
      ],
      [
        "Ġsix",
        "ty"
      ],
      [
        "it",
        "ies"
      ],
      [
        "at",
        "ive"
      ],
      [
        "Ġal",
        "ong"
      ],
      [
        "ull",
        "y"
      ],
      [
        "Ġre",
        "f"
      ],
      [
        "Ġbl",
        "ack"
      ],
      [
        "Ġre",
        "d"
      ],
      [
        "Ġcomp",
        "le"
      ],
      [
        "m",
        "s"
      ],
      [
        "Ġhe",
        "ard"
      ],
      [
        "Ġt",
        "ri"
      ],
      [
        "Ġv",
        "is"
      ],
      [
        "ac",
        "ed"
      ],
      [
        "Ġsev",
        "enty"
      ],
      [
        "r",
        "ic"
      ],
      [
        "m",
        "e"
      ],
      [
        "Ġpo",
        "int"
      ],
      [
        "Ġin",
        "clud"
      ],
      [
        "ak",
        "es"
      ],
      [
        "Ġre",
        "ad"
      ],
      [
        "Ġc",
        "a"
      ],
      [
        "Ġho",
        "ld"
      ],
      [
        "Ġan",
        "s"
      ],
      [
        "Ġf",
        "ore"
      ],
      [
        "Ġme",
        "an"
      ],
      [
        "it",
        "her"
      ],
      [
        "am",
        "es"
      ],
      [
        "Ġeight",
        "y"
      ],
      [
        "Ġcou",
        "nt"
      ],
      [
        "en",
        "e"
      ],
      [
        "Ġd",
        "uring"
      ],
      [
        "Ġl",
        "and"
      ],
      [
        "Ġr",
        "a"
      ],
      [
        "Ġg",
        "ave"
      ],
      [
        "Ġtr",
        "ans"
      ],
      [
        "Ġint",
        "e"
      ],
      [
        "g",
        "r"
      ],
      [
        "g",
        "ed"
      ],
      [
        "Ġg",
        "re"
      ],
      [
        "ment",
        "s"
      ],
      [
        "Ġm",
        "r"
      ],
      [
        "h",
        "o"
      ],
      [
        "Ġin",
        "s"
      ],
      [
        "ol",
        "og"
      ],
      [
        "Ġup",
        "on"
      ],
      [
        "Ġseem",
        "ed"
      ],
      [
        "Ġw",
        "all"
      ],
      [
        "Ġgen",
        "er"
      ],
      [
        "Ġl",
        "au"
      ],
      [
        "Ġy",
        "et"
      ],
      [
        "re",
        "ady"
      ],
      [
        "ut",
        "e"
      ],
      [
        "Ġse",
        "c"
      ],
      [
        "em",
        "ber"
      ],
      [
        "Ġwe",
        "e"
      ],
      [
        "il",
        "ed"
      ],
      [
        "Ġse",
        "en"
      ],
      [
        "Ġt",
        "re"
      ],
      [
        "in",
        "es"
      ],
      [
        "Ġk",
        "ind"
      ],
      [
        "Ġstart",
        "ed"
      ],
      [
        "Ġf",
        "act"
      ],
      [
        "Ġp",
        "ur"
      ],
      [
        "Ġfam",
        "ily"
      ],
      [
        "Ġi",
        "de"
      ],
      [
        "Ġb",
        "ig"
      ],
      [
        "Ġb",
        "ro"
      ],
      [
        "an",
        "e"
      ],
      [
        "ie",
        "ld"
      ],
      [
        "Ġfl",
        "o"
      ],
      [
        "h",
        "n"
      ],
      [
        "ter",
        "n"
      ],
      [
        "Ġal",
        "ready"
      ],
      [
        "c",
        "es"
      ],
      [
        "Ġst",
        "ood"
      ],
      [
        "Ġp",
        "ain"
      ],
      [
        "Ġpr",
        "ot"
      ],
      [
        "Ġd",
        "one"
      ],
      [
        "Ġac",
        "ross"
      ],
      [
        "Ġp",
        "a"
      ],
      [
        "Ġlar",
        "ge"
      ],
      [
        "Ġh",
        "our"
      ],
      [
        "get",
        "her"
      ],
      [
        "Ġto",
        "gether"
      ],
      [
        "er",
        "ing"
      ],
      [
        "Ġre",
        "pl"
      ],
      [
        "Ġday",
        "s"
      ],
      [
        "Ġst",
        "ate"
      ],
      [
        "Ġal",
        "most"
      ],
      [
        "Ġs",
        "ing"
      ],
      [
        "Ġd",
        "ri"
      ],
      [
        "Ġso",
        "on"
      ],
      [
        "et",
        "s"
      ],
      [
        "Ġb",
        "reat"
      ],
      [
        "Ġin",
        "side"
      ],
      [
        "Ġm",
        "ed"
      ],
      [
        "Ġle",
        "g"
      ],
      [
        "o",
        "ke"
      ],
      [
        "il",
        "ity"
      ],
      [
        "Ġsch",
        "ool"
      ],
      [
        "or",
        "n"
      ],
      [
        "ver",
        "al"
      ],
      [
        "g",
        "n"
      ],
      [
        "in",
        "ess"
      ],
      [
        "Ġpro",
        "d"
      ],
      [
        "Ġevery",
        "thing"
      ],
      [
        "Ġc",
        "ity"
      ],
      [
        "Ġmo",
        "ve"
      ],
      [
        "n",
        "ow"
      ],
      [
        "Ġye",
        "ar"
      ],
      [
        "Ġe",
        "as"
      ],
      [
        "Ġde",
        "ep"
      ],
      [
        "Ġk",
        "ing"
      ],
      [
        "Ġn",
        "at"
      ],
      [
        "Ġwor",
        "ds"
      ],
      [
        "Ġdiffe",
        "rent"
      ],
      [
        "Ġde",
        "m"
      ],
      [
        "Ġh",
        "ar"
      ],
      [
        "ap",
        "s"
      ],
      [
        "Ġs",
        "le"
      ],
      [
        "a",
        "pp"
      ],
      [
        "Ġcl",
        "ose"
      ],
      [
        "Ġres",
        "p"
      ],
      [
        "Ġhu",
        "man"
      ],
      [
        "Ġchr",
        "ist"
      ],
      [
        "Ġth",
        "in"
      ],
      [
        "j",
        "o"
      ],
      [
        "Ġother",
        "s"
      ],
      [
        "Ġha",
        "ving"
      ],
      [
        "c",
        "he"
      ],
      [
        "Ġd",
        "ro"
      ],
      [
        "Ġl",
        "ist"
      ],
      [
        "Ġg",
        "i"
      ],
      [
        "i",
        "et"
      ],
      [
        "Ġsome",
        "one"
      ],
      [
        "Ġhe",
        "ld"
      ],
      [
        "ri",
        "e"
      ],
      [
        "Ġfe",
        "et"
      ],
      [
        "Ġl",
        "ot"
      ],
      [
        "um",
        "p"
      ],
      [
        "Ġst",
        "o"
      ],
      [
        "Ġbu",
        "ild"
      ],
      [
        "Ġad",
        "v"
      ],
      [
        "Ġel",
        "se"
      ],
      [
        "Ġtr",
        "ying"
      ],
      [
        "i",
        "ver"
      ],
      [
        "Ġwal",
        "ked"
      ],
      [
        "Ġsl",
        "ow"
      ],
      [
        "Ġm",
        "ag"
      ],
      [
        "ic",
        "s"
      ],
      [
        "Ġin",
        "f"
      ],
      [
        "ation",
        "al"
      ],
      [
        "Ġunderst",
        "and"
      ],
      [
        "Ġp",
        "ub"
      ],
      [
        "er",
        "tain"
      ],
      [
        "i",
        "ence"
      ],
      [
        "Ġp",
        "ast"
      ],
      [
        "Ġst",
        "ay"
      ],
      [
        "Ġhal",
        "f"
      ],
      [
        "Ġg",
        "rou"
      ],
      [
        "ak",
        "en"
      ],
      [
        "ic",
        "ally"
      ],
      [
        "Ġde",
        "p"
      ],
      [
        "id",
        "ent"
      ],
      [
        "Ġde",
        "ath"
      ],
      [
        "Ġha",
        "ir"
      ],
      [
        "Ġse",
        "veral"
      ],
      [
        "ant",
        "s"
      ],
      [
        "\"",
        "."
      ],
      [
        "Ġf",
        "il"
      ],
      [
        "Ġdo",
        "ing"
      ],
      [
        "af",
        "ter"
      ],
      [
        "h",
        "ip"
      ],
      [
        "Ġtim",
        "es"
      ],
      [
        "Ġb",
        "it"
      ],
      [
        "z",
        "ero"
      ],
      [
        "Ġapp",
        "ro"
      ],
      [
        "Ġm",
        "il"
      ],
      [
        "id",
        "d"
      ],
      [
        "Ġg",
        "round"
      ],
      [
        "Ġbl",
        "ood"
      ],
      [
        "Ġpr",
        "om"
      ],
      [
        "n",
        "y"
      ],
      [
        "Ġf",
        "all"
      ],
      [
        "Ġde",
        "f"
      ],
      [
        "Ġp",
        "ri"
      ],
      [
        "im",
        "e"
      ],
      [
        "Ġex",
        "per"
      ],
      [
        "ress",
        "ed"
      ],
      [
        "Ġs",
        "qu"
      ],
      [
        "Ġab",
        "le"
      ],
      [
        "Ġwh",
        "ite"
      ],
      [
        "an",
        "y"
      ],
      [
        "ot",
        "t"
      ],
      [
        "th",
        "ough"
      ],
      [
        "iz",
        "e"
      ],
      [
        "one",
        "y"
      ],
      [
        "Ġme",
        "et"
      ],
      [
        "Ġsh",
        "ort"
      ],
      [
        "are",
        "nt"
      ],
      [
        "whe",
        "re"
      ],
      [
        "Ġh",
        "ur"
      ],
      [
        "u",
        "g"
      ],
      [
        "Ġm",
        "ain"
      ],
      [
        "ver",
        "n"
      ],
      [
        "Ġs",
        "it"
      ],
      [
        "Ġbelie",
        "ve"
      ],
      [
        "Ġto",
        "p"
      ],
      [
        "Ġf",
        "ire"
      ],
      [
        "Ġt",
        "ried"
      ],
      [
        "Ġp",
        "os"
      ],
      [
        "nd",
        "ed"
      ],
      [
        "Ġex",
        "t"
      ],
      [
        "Ġa",
        "w"
      ],
      [
        "Ġle",
        "ast"
      ],
      [
        "Ġl",
        "a"
      ],
      [
        "Ġg",
        "ame"
      ],
      [
        "Ġcour",
        "se"
      ],
      [
        "Ġdire",
        "ct"
      ],
      [
        "Ġle",
        "ave"
      ],
      [
        "ou",
        "th"
      ],
      [
        "Ġf",
        "ur"
      ],
      [
        "Ġc",
        "re"
      ],
      [
        "o",
        "ve"
      ],
      [
        "ow",
        "s"
      ],
      [
        "Ġsay",
        "s"
      ],
      [
        "Ġnum",
        "ber"
      ],
      [
        "y",
        "e"
      ],
      [
        "Ġw",
        "on"
      ],
      [
        "Ġo",
        "cc"
      ],
      [
        "Ġdis",
        "c"
      ],
      [
        "Ġc",
        "al"
      ],
      [
        "Ġf",
        "ull"
      ],
      [
        "Ġcont",
        "ro"
      ],
      [
        "id",
        "es"
      ],
      [
        "Ġl",
        "ess"
      ],
      [
        "Ġsh",
        "ip"
      ],
      [
        "pp",
        "ing"
      ],
      [
        "el",
        "ve"
      ],
      [
        "r",
        "on"
      ],
      [
        "is",
        "ion"
      ],
      [
        "Ġar",
        "t"
      ],
      [
        "Ġcou",
        "n"
      ],
      [
        "Ġhe",
        "ar"
      ],
      [
        "g",
        "in"
      ],
      [
        "c",
        "ri"
      ],
      [
        "i",
        "ent"
      ],
      [
        "Ġt",
        "able"
      ],
      [
        "Ġtoward",
        "s"
      ],
      [
        "Ġbec",
        "ame"
      ],
      [
        "g",
        "o"
      ],
      [
        "ard",
        "s"
      ],
      [
        "Ġsu",
        "c"
      ],
      [
        "Ġpull",
        "ed"
      ],
      [
        "Ġb",
        "ook"
      ],
      [
        "Ġa",
        "p"
      ],
      [
        "Ġmy",
        "self"
      ],
      [
        "Ġst",
        "op"
      ],
      [
        "Ġwith",
        "in"
      ],
      [
        "Ġpro",
        "v"
      ],
      [
        "Ġh",
        "or"
      ],
      [
        "a",
        "x"
      ],
      [
        "Ġma",
        "king"
      ],
      [
        "ious",
        "ly"
      ],
      [
        "ist",
        "s"
      ],
      [
        "o",
        "h"
      ],
      [
        "Ġb",
        "ad"
      ],
      [
        "Ġarm",
        "s"
      ],
      [
        "Ġjo",
        "hn"
      ],
      [
        "is",
        "on"
      ],
      [
        "f",
        "ully"
      ],
      [
        "Ġam",
        "eric"
      ],
      [
        "Ġr",
        "an"
      ],
      [
        "Ġst",
        "ep"
      ],
      [
        "Ġre",
        "le"
      ],
      [
        "Ġher",
        "self"
      ],
      [
        "ag",
        "ed"
      ],
      [
        "vel",
        "op"
      ],
      [
        "Ġde",
        "ad"
      ],
      [
        "u",
        "es"
      ],
      [
        "ll",
        "ed"
      ],
      [
        "Ġcon",
        "st"
      ],
      [
        "Ġo",
        "pp"
      ],
      [
        "Ġl",
        "aw"
      ],
      [
        "ain",
        "s"
      ],
      [
        "Ġte",
        "am"
      ],
      [
        "st",
        "em"
      ],
      [
        "g",
        "an"
      ],
      [
        "le",
        "t"
      ],
      [
        "a",
        "ut"
      ],
      [
        "c",
        "om"
      ],
      [
        "Ġsu",
        "n"
      ],
      [
        "Ġcle",
        "ar"
      ],
      [
        "Ġf",
        "ree"
      ],
      [
        "Ġst",
        "re"
      ],
      [
        "Ġs",
        "we"
      ],
      [
        "Ġmor",
        "ning"
      ],
      [
        "ou",
        "n"
      ],
      [
        "sel",
        "ves"
      ],
      [
        "Ġcom",
        "ing"
      ],
      [
        "Ġt",
        "y"
      ],
      [
        "is",
        "ter"
      ],
      [
        "Ġa",
        "v"
      ],
      [
        "h",
        "is"
      ],
      [
        "Ġsp",
        "ir"
      ],
      [
        "Ġsm",
        "ile"
      ],
      [
        "Ġc",
        "ell"
      ],
      [
        "Ġro",
        "ad"
      ],
      [
        "Ġquick",
        "ly"
      ],
      [
        "Ġre",
        "ce"
      ],
      [
        "Ġflo",
        "or"
      ],
      [
        "iv",
        "ed"
      ],
      [
        "Ġf",
        "ing"
      ],
      [
        "Ġf",
        "ight"
      ],
      [
        "us",
        "s"
      ],
      [
        "Ġs",
        "ent"
      ],
      [
        "Ġchild",
        "ren"
      ],
      [
        "Ġpro",
        "b"
      ],
      [
        "ag",
        "es"
      ],
      [
        "Ġle",
        "ar"
      ],
      [
        "Ġg",
        "e"
      ],
      [
        "Ġre",
        "ason"
      ],
      [
        "Ġget",
        "ting"
      ],
      [
        "c",
        "on"
      ],
      [
        "Ġmo",
        "ved"
      ],
      [
        "he",
        "ad"
      ],
      [
        "Ġw",
        "in"
      ],
      [
        "Ġm",
        "outh"
      ],
      [
        "w",
        "er"
      ],
      [
        "Ġkn",
        "own"
      ],
      [
        "itt",
        "ing"
      ],
      [
        "Ġrec",
        "ord"
      ],
      [
        "y",
        "es"
      ],
      [
        "u",
        "ff"
      ],
      [
        "Ġall",
        "ow"
      ],
      [
        "ut",
        "es"
      ],
      [
        "Ġad",
        "m"
      ],
      [
        "i",
        "ans"
      ],
      [
        "or",
        "k"
      ],
      [
        "Ġmay",
        "be"
      ],
      [
        "as",
        "ter"
      ],
      [
        "Ġhow",
        "ever"
      ],
      [
        "Ġwho",
        "le"
      ],
      [
        "Ġl",
        "ine"
      ],
      [
        "Ġc",
        "at"
      ],
      [
        "Ġc",
        "ertain"
      ],
      [
        "Ġcontin",
        "ued"
      ],
      [
        "the",
        "n"
      ],
      [
        "Ġs",
        "on"
      ],
      [
        "Ġd",
        "ou"
      ],
      [
        "is",
        "m"
      ],
      [
        "Ġwor",
        "d"
      ],
      [
        "Ġsy",
        "stem"
      ],
      [
        "Ġoff",
        "ic"
      ],
      [
        "ic",
        "ked"
      ],
      [
        "Ġtal",
        "k"
      ],
      [
        "r",
        "act"
      ],
      [
        "ve",
        "red"
      ],
      [
        "Ġbec",
        "ome"
      ],
      [
        "f",
        "ort"
      ],
      [
        "Ġneed",
        "ed"
      ],
      [
        "Ġw",
        "o"
      ],
      [
        "d",
        "o"
      ],
      [
        "Ġser",
        "v"
      ],
      [
        "f",
        "ive"
      ],
      [
        "iv",
        "es"
      ],
      [
        "Ġinte",
        "rest"
      ],
      [
        "st",
        "er"
      ],
      [
        "Ġbr",
        "other"
      ],
      [
        "um",
        "b"
      ],
      [
        "Ġquest",
        "ion"
      ],
      [
        "Ġl",
        "ord"
      ],
      [
        "w",
        "ith"
      ],
      [
        "Ġto",
        "m"
      ],
      [
        "ress",
        "ion"
      ],
      [
        "Ġb",
        "ur"
      ],
      [
        "Ġ",
        "ve"
      ],
      [
        "Ġ",
        "est"
      ],
      [
        "Ġt",
        "ou"
      ],
      [
        "i",
        "k"
      ],
      [
        "rou",
        "ght"
      ],
      [
        "Ġf",
        "un"
      ],
      [
        "Ġide",
        "a"
      ],
      [
        "Ġear",
        "th"
      ],
      [
        "Ġs",
        "n"
      ],
      [
        "Ġre",
        "ached"
      ],
      [
        "Ġsm",
        "iled"
      ],
      [
        "Ġs",
        "ong"
      ],
      [
        "ut",
        "ion"
      ],
      [
        "Ġop",
        "ened"
      ],
      [
        "ain",
        "ing"
      ],
      [
        "s",
        "on"
      ],
      [
        "r",
        "al"
      ],
      [
        "Ġbo",
        "y"
      ],
      [
        "Ġgi",
        "ven"
      ],
      [
        "Ġl",
        "ive"
      ],
      [
        "Ġm",
        "oney"
      ],
      [
        "Ġm",
        "ill"
      ],
      [
        "ir",
        "t"
      ],
      [
        "Ġgrou",
        "p"
      ],
      [
        "Ġtw",
        "elve"
      ],
      [
        "Ġlo",
        "st"
      ],
      [
        "Ġde",
        "velop"
      ],
      [
        "Ġex",
        "pect"
      ],
      [
        "Ġimp",
        "ort"
      ],
      [
        "Ġgo",
        "vern"
      ],
      [
        "Ġto",
        "wn"
      ],
      [
        "ot",
        "e"
      ],
      [
        "c",
        "ent"
      ],
      [
        "g",
        "y"
      ],
      [
        "Ġf",
        "ig"
      ],
      [
        "a",
        "im"
      ],
      [
        "ra",
        "w"
      ],
      [
        "us",
        "hed"
      ],
      [
        "em",
        "pt"
      ],
      [
        "Ġor",
        "der"
      ],
      [
        "Ġco",
        "nd"
      ],
      [
        "Ġmon",
        "th"
      ],
      [
        "b",
        "ers"
      ],
      [
        "in",
        "ted"
      ],
      [
        "m",
        "er"
      ],
      [
        "Ġst",
        "ory"
      ],
      [
        "Ġe",
        "ither"
      ],
      [
        "Ġt",
        "aken"
      ],
      [
        "Ġpre",
        "v"
      ],
      [
        "Ġstr",
        "ong"
      ],
      [
        "Ġd",
        "am"
      ],
      [
        "m",
        "a"
      ],
      [
        "Ġey",
        "e"
      ],
      [
        "Ġg",
        "one"
      ],
      [
        "en",
        "ing"
      ],
      [
        "Ġatt",
        "ack"
      ],
      [
        "Ġc",
        "ase"
      ],
      [
        "e",
        "ad"
      ],
      [
        "Ġas",
        "k"
      ],
      [
        "ac",
        "es"
      ],
      [
        "Ġwould",
        "n"
      ],
      [
        "te",
        "red"
      ],
      [
        "Ġf",
        "a"
      ],
      [
        ",",
        "'"
      ],
      [
        "Ġch",
        "ang"
      ],
      [
        "nd",
        "ing"
      ],
      [
        "Ġpart",
        "ic"
      ],
      [
        "Ġt",
        "aking"
      ],
      [
        "i",
        "vers"
      ],
      [
        "u",
        "ct"
      ],
      [
        "Ġgr",
        "ow"
      ],
      [
        "Ġb",
        "rought"
      ],
      [
        "Ġc",
        "ir"
      ],
      [
        "ru",
        "ct"
      ],
      [
        "Ġd",
        "est"
      ],
      [
        "Ġv",
        "ar"
      ],
      [
        "Ġfo",
        "ot"
      ],
      [
        "Ġre",
        "v"
      ],
      [
        "Ġno",
        "dd"
      ],
      [
        "Ġre",
        "qu"
      ],
      [
        "Ġl",
        "ow"
      ],
      [
        "ep",
        "t"
      ],
      [
        "Ġre",
        "co"
      ],
      [
        "in",
        "a"
      ],
      [
        "Ġhapp",
        "ened"
      ],
      [
        "Ġprob",
        "ably"
      ],
      [
        "Ġsh",
        "all"
      ],
      [
        "Ġnor",
        "th"
      ],
      [
        "dd",
        "en"
      ],
      [
        "k",
        "en"
      ],
      [
        "Ġevery",
        "one"
      ],
      [
        "Ġsle",
        "ep"
      ],
      [
        "Ġd",
        "iv"
      ],
      [
        "Ġcl",
        "os"
      ],
      [
        "Ġsh",
        "o"
      ],
      [
        "Ġ",
        "er"
      ],
      [
        "Ġc",
        "e"
      ],
      [
        "Ġde",
        "v"
      ],
      [
        "Ġmin",
        "utes"
      ],
      [
        "Ġmat",
        "ter"
      ],
      [
        "Ġar",
        "ri"
      ],
      [
        "Ġcl",
        "ass"
      ],
      [
        "Ġi",
        "d"
      ],
      [
        "th",
        "ree"
      ],
      [
        "Ġcomple",
        "te"
      ],
      [
        "c",
        "le"
      ],
      [
        "Ġout",
        "side"
      ],
      [
        "Ġear",
        "ly"
      ],
      [
        "et",
        "h"
      ],
      [
        "ot",
        "s"
      ],
      [
        "ur",
        "y"
      ],
      [
        "l",
        "o"
      ],
      [
        "if",
        "ied"
      ],
      [
        "Ġfriend",
        "s"
      ],
      [
        "Ġfor",
        "ward"
      ],
      [
        "Ġp",
        "op"
      ],
      [
        "y",
        "ed"
      ],
      [
        "\"",
        ","
      ],
      [
        "Ġrem",
        "ember"
      ],
      [
        "Ġpro",
        "p"
      ],
      [
        "Ġho",
        "pe"
      ],
      [
        "Ġfin",
        "ally"
      ],
      [
        "Ġchar",
        "ac"
      ],
      [
        "un",
        "g"
      ],
      [
        "Ġsto",
        "pped"
      ],
      [
        "av",
        "ing"
      ],
      [
        "Ġf",
        "ood"
      ],
      [
        "Ġb",
        "att"
      ],
      [
        "Ġfeel",
        "ing"
      ],
      [
        "Ġst",
        "or"
      ],
      [
        "ur",
        "al"
      ],
      [
        "Ġsu",
        "dden"
      ],
      [
        "Ġb",
        "ir"
      ],
      [
        "it",
        "al"
      ],
      [
        "Ġtr",
        "ue"
      ],
      [
        "Ġpro",
        "ble"
      ],
      [
        "on",
        "y"
      ],
      [
        "Ġmar",
        "k"
      ],
      [
        "Ġch",
        "ur"
      ],
      [
        "Ġv",
        "al"
      ],
      [
        "Ġsur",
        "pr"
      ],
      [
        "f",
        "fect"
      ],
      [
        "f",
        "our"
      ],
      [
        "Ġhis",
        "t"
      ],
      [
        "Ġbr",
        "ing"
      ],
      [
        "Ġo",
        "ri"
      ],
      [
        "ro",
        "om"
      ],
      [
        "l",
        "f"
      ],
      [
        "Ġtr",
        "y"
      ],
      [
        "Ġc",
        "ross"
      ],
      [
        "s",
        "ix"
      ],
      [
        "Ġcomm",
        "and"
      ],
      [
        "Ġbreat",
        "h"
      ],
      [
        "Ġc",
        "ut"
      ],
      [
        "ie",
        "f"
      ],
      [
        "us",
        "h"
      ],
      [
        "Ġk",
        "ept"
      ],
      [
        "Ġcontro",
        "l"
      ],
      [
        "Ġh",
        "ot"
      ],
      [
        "Ġbre",
        "ak"
      ],
      [
        "Ġfollow",
        "ed"
      ],
      [
        "Ġwom",
        "en"
      ],
      [
        "ic",
        "es"
      ],
      [
        "Ġspe",
        "ak"
      ],
      [
        "air",
        "s"
      ],
      [
        "Ġch",
        "ange"
      ],
      [
        "ot",
        "ion"
      ],
      [
        "er",
        "v"
      ],
      [
        "Ġal",
        "one"
      ],
      [
        "ar",
        "ch"
      ],
      [
        "Ġbe",
        "aut"
      ],
      [
        "le",
        "y"
      ],
      [
        "i",
        "or"
      ],
      [
        "id",
        "er"
      ],
      [
        "Ġs",
        "al"
      ],
      [
        "Ġf",
        "re"
      ],
      [
        "tw",
        "enty"
      ],
      [
        "Ġare",
        "a"
      ],
      [
        "Ġc",
        "reat"
      ],
      [
        "Ġh",
        "all"
      ],
      [
        "Ġm",
        "ess"
      ],
      [
        "Ġany",
        "one"
      ],
      [
        "Ġe",
        "p"
      ],
      [
        "Ġpres",
        "ent"
      ],
      [
        "a",
        "pe"
      ],
      [
        "Ġnodd",
        "ed"
      ],
      [
        "Ġqu",
        "ite"
      ],
      [
        "Ġam",
        "ong"
      ],
      [
        "Ġl",
        "ou"
      ],
      [
        "Ġan",
        "n"
      ],
      [
        "Ġof",
        "ten"
      ],
      [
        "Ġspir",
        "it"
      ],
      [
        "k",
        "ay"
      ],
      [
        "Ġpro",
        "f"
      ],
      [
        "?",
        "'"
      ],
      [
        "Ġdoes",
        "n"
      ],
      [
        "Ġw",
        "ood"
      ],
      [
        "in",
        "c"
      ],
      [
        "is",
        "ing"
      ],
      [
        "Ġg",
        "un"
      ],
      [
        "Ġli",
        "ving"
      ],
      [
        "iv",
        "ing"
      ],
      [
        "z",
        "e"
      ],
      [
        "Ġwo",
        "nder"
      ],
      [
        "Ġde",
        "l"
      ],
      [
        "Ġre",
        "ady"
      ],
      [
        "Ġv",
        "iew"
      ],
      [
        "Ġsou",
        "th"
      ],
      [
        "Ġon",
        "to"
      ],
      [
        "Ġe",
        "ffect"
      ],
      [
        "l",
        "er"
      ],
      [
        "..",
        ".\""
      ],
      [
        "Ġl",
        "if"
      ],
      [
        "r",
        "ap"
      ],
      [
        "ren",
        "ce"
      ],
      [
        "c",
        "hes"
      ],
      [
        "Ġl",
        "ay"
      ],
      [
        "am",
        "ed"
      ],
      [
        "Ġj",
        "e"
      ],
      [
        "Ġs",
        "or"
      ],
      [
        "es",
        "us"
      ],
      [
        "Ġb",
        "as"
      ],
      [
        "at",
        "s"
      ],
      [
        "Ġp",
        "ort"
      ],
      [
        "Ġbeg",
        "in"
      ],
      [
        "al",
        "th"
      ],
      [
        "un",
        "e"
      ],
      [
        "Ġbus",
        "iness"
      ],
      [
        "Ġrep",
        "ort"
      ],
      [
        "Ġs",
        "am"
      ],
      [
        "b",
        "s"
      ],
      [
        "Ġf",
        "ill"
      ],
      [
        "i",
        "pped"
      ],
      [
        "Ġmus",
        "ic"
      ],
      [
        "Ġab",
        "ove"
      ],
      [
        "h",
        "aps"
      ],
      [
        "m",
        "b"
      ],
      [
        "Ġr",
        "ather"
      ],
      [
        "Ġk",
        "iss"
      ],
      [
        "Ġcomm",
        "un"
      ],
      [
        "Ġma",
        "j"
      ],
      [
        "Ġrepl",
        "ied"
      ],
      [
        "j",
        "ust"
      ],
      [
        "il",
        "t"
      ],
      [
        "Ġh",
        "op"
      ],
      [
        "Ġfif",
        "teen"
      ],
      [
        "Ġele",
        "ven"
      ],
      [
        "Ġp",
        "ay"
      ],
      [
        "Ġgr",
        "ab"
      ],
      [
        "Ġp",
        "et"
      ],
      [
        "Ġh",
        "on"
      ],
      [
        "o",
        "f"
      ],
      [
        "id",
        "s"
      ],
      [
        "Ġtr",
        "uth"
      ],
      [
        "Ġex",
        "am"
      ],
      [
        "Ġan",
        "t"
      ],
      [
        "Ġb",
        "ill"
      ],
      [
        "Ġt",
        "em"
      ],
      [
        "re",
        "ad"
      ],
      [
        "Ġchur",
        "ch"
      ],
      [
        "li",
        "ke"
      ],
      [
        "en",
        "g"
      ],
      [
        "Ġj",
        "ack"
      ],
      [
        "anc",
        "ed"
      ],
      [
        "Ġt",
        "est"
      ],
      [
        "Ġm",
        "er"
      ],
      [
        "Ġthin",
        "king"
      ],
      [
        "Ġsay",
        "ing"
      ],
      [
        "Ġso",
        "l"
      ],
      [
        "on",
        "es"
      ],
      [
        "Ġl",
        "ed"
      ],
      [
        "Ġposs",
        "ible"
      ],
      [
        "m",
        "ing"
      ],
      [
        "in",
        "ation"
      ],
      [
        "im",
        "es"
      ],
      [
        "os",
        "p"
      ],
      [
        "el",
        "s"
      ],
      [
        "Ġdec",
        "ided"
      ],
      [
        "Ġj",
        "ud"
      ],
      [
        "Ġd",
        "ream"
      ],
      [
        "Ġsupp",
        "ort"
      ],
      [
        "id",
        "ing"
      ],
      [
        "Ġfollow",
        "ing"
      ],
      [
        "Ġsuc",
        "cess"
      ],
      [
        "Ġgr",
        "and"
      ],
      [
        "Ġslow",
        "ly"
      ],
      [
        "at",
        "or"
      ],
      [
        "Ġent",
        "ire"
      ],
      [
        "Ġhe",
        "av"
      ],
      [
        "ant",
        "ly"
      ],
      [
        "Ġwr",
        "ong"
      ],
      [
        "Ġcon",
        "cer"
      ],
      [
        "p",
        "ar"
      ],
      [
        "Ġdes",
        "cri"
      ],
      [
        "Ġoff",
        "ice"
      ],
      [
        "Ġfe",
        "ll"
      ],
      [
        "Ġs",
        "ense"
      ],
      [
        "med",
        "i"
      ],
      [
        "Ġhour",
        "s"
      ],
      [
        "Ġe",
        "qu"
      ],
      [
        "Ġwal",
        "k"
      ],
      [
        "Ġin",
        "form"
      ],
      [
        "Ġan",
        "g"
      ],
      [
        "Ġi",
        "ll"
      ],
      [
        "Ġh",
        "it"
      ],
      [
        "ang",
        "er"
      ],
      [
        "if",
        "f"
      ],
      [
        "uc",
        "ed"
      ],
      [
        "Ġpub",
        "lic"
      ],
      [
        "Ġso",
        "ld"
      ],
      [
        "Ġso",
        "ft"
      ],
      [
        "Ġph",
        "one"
      ],
      [
        "Ġprot",
        "ect"
      ],
      [
        "aught",
        "er"
      ],
      [
        "Ġcount",
        "ry"
      ],
      [
        "Ġwat",
        "ched"
      ],
      [
        "it",
        "er"
      ],
      [
        "anc",
        "es"
      ],
      [
        "Ġhe",
        "ll"
      ],
      [
        "Ġbuild",
        "ing"
      ],
      [
        "Ġhad",
        "n"
      ],
      [
        "Ġori",
        "gin"
      ],
      [
        "Ġhu",
        "m"
      ],
      [
        "Ġfur",
        "ther"
      ],
      [
        "Ġqu",
        "iet"
      ],
      [
        "Ġreturn",
        "ed"
      ],
      [
        "Ġl",
        "im"
      ],
      [
        "Ġl",
        "ate"
      ],
      [
        "Ġm",
        "ount"
      ],
      [
        "Ġact",
        "ually"
      ],
      [
        "i",
        "am"
      ],
      [
        "Ġp",
        "ap"
      ],
      [
        "Ġfe",
        "ar"
      ],
      [
        "Ġsing",
        "le"
      ],
      [
        "Ġex",
        "c"
      ],
      [
        "e",
        "ight"
      ],
      [
        "e",
        "x"
      ],
      [
        "bo",
        "dy"
      ],
      [
        "Ġc",
        "ast"
      ],
      [
        "ru",
        "gg"
      ],
      [
        "Ġc",
        "amp"
      ],
      [
        "an",
        "n"
      ],
      [
        "Ġnew",
        "s"
      ],
      [
        "Ġo",
        "per"
      ],
      [
        "Ġin",
        "de"
      ],
      [
        "Ġlong",
        "er"
      ],
      [
        "Ġb",
        "es"
      ],
      [
        "Ġes",
        "c"
      ],
      [
        "Ġpass",
        "ed"
      ],
      [
        "Ġst",
        "ates"
      ],
      [
        "f",
        "r"
      ],
      [
        "Ġstre",
        "et"
      ],
      [
        "Ġwee",
        "k"
      ],
      [
        "l",
        "s"
      ],
      [
        "Ġto",
        "day"
      ],
      [
        "Ġinst",
        "ead"
      ],
      [
        "Ġde",
        "al"
      ],
      [
        "Ġsp",
        "oke"
      ],
      [
        "Ġinc",
        "re"
      ],
      [
        "Ġp",
        "ie"
      ],
      [
        "Ġbl",
        "ue"
      ],
      [
        "Ġco",
        "ld"
      ],
      [
        "Ġem",
        "p"
      ],
      [
        "ic",
        "ed"
      ],
      [
        "Ġob",
        "s"
      ],
      [
        "Ġsu",
        "per"
      ],
      [
        "Ġan",
        "im"
      ],
      [
        "th",
        "ir"
      ],
      [
        "Ġs",
        "us"
      ],
      [
        "Ġm",
        "ur"
      ],
      [
        "Ġsh",
        "ook"
      ],
      [
        "Ġthem",
        "selves"
      ],
      [
        "Ġdes",
        "ign"
      ],
      [
        "Ġinclud",
        "ing"
      ],
      [
        "Ġfil",
        "m"
      ],
      [
        "a",
        "i"
      ],
      [
        "Ġg",
        "er"
      ],
      [
        "Ġfor",
        "ce"
      ],
      [
        "Ġimport",
        "ant"
      ],
      [
        "Ġst",
        "ra"
      ],
      [
        "Ġwh",
        "is"
      ],
      [
        "le",
        "ct"
      ],
      [
        "Ġw",
        "ife"
      ],
      [
        "Ġwor",
        "king"
      ],
      [
        "Ġev",
        "ent"
      ],
      [
        "Ġatt",
        "ention"
      ],
      [
        "Ġp",
        "arent"
      ],
      [
        "ne",
        "y"
      ],
      [
        "r",
        "ing"
      ],
      [
        "Ġj",
        "esus"
      ],
      [
        "Ġse",
        "lf"
      ],
      [
        "Ġtal",
        "king"
      ],
      [
        "Ġstand",
        "ing"
      ],
      [
        "Ġgener",
        "al"
      ],
      [
        "Ġle",
        "vel"
      ],
      [
        "Ġcl",
        "osed"
      ],
      [
        "l",
        "ish"
      ],
      [
        "Ġag",
        "o"
      ],
      [
        "Ġcon",
        "n"
      ],
      [
        "Ġans",
        "wer"
      ],
      [
        "d",
        "on"
      ],
      [
        "c",
        "ome"
      ],
      [
        "Ġdis",
        "app"
      ],
      [
        "gg",
        "est"
      ],
      [
        "a",
        "ff"
      ],
      [
        "Ġim",
        "ag"
      ],
      [
        "m",
        "ber"
      ],
      [
        "Ġsp",
        "ace"
      ],
      [
        "Ġatt",
        "empt"
      ],
      [
        "Ġv",
        "ict"
      ],
      [
        "Ġgovern",
        "ment"
      ],
      [
        "Ġse",
        "ason"
      ],
      [
        "o",
        "b"
      ],
      [
        "he",
        "re"
      ],
      [
        "Ġsu",
        "m"
      ],
      [
        "Ġsu",
        "ggest"
      ],
      [
        "Ġdif",
        "f"
      ],
      [
        "u",
        "ly"
      ],
      [
        "Ġth",
        "r"
      ],
      [
        "if",
        "ul"
      ],
      [
        "Ġgl",
        "ass"
      ],
      [
        "Ġgo",
        "ld"
      ],
      [
        "ro",
        "d"
      ],
      [
        "Ġa",
        "uth"
      ],
      [
        "an",
        "ed"
      ],
      [
        "ll",
        "ing"
      ],
      [
        "Ġmaj",
        "or"
      ],
      [
        "Ġjo",
        "b"
      ],
      [
        "Ġal",
        "b"
      ],
      [
        "Ġres",
        "ult"
      ],
      [
        "Ġab",
        "s"
      ],
      [
        "ist",
        "ed"
      ],
      [
        "Ġto",
        "r"
      ],
      [
        "Ġs",
        "ens"
      ],
      [
        "Ġim",
        "medi"
      ],
      [
        "Ġ",
        "ver"
      ],
      [
        "u",
        "nd"
      ],
      [
        "Ġp",
        "al"
      ],
      [
        "id",
        "ence"
      ],
      [
        "Ġcomp",
        "any"
      ],
      [
        "Ġpr",
        "act"
      ],
      [
        "Ġli",
        "ps"
      ],
      [
        "Ġal",
        "though"
      ],
      [
        "Ġun",
        "ited"
      ],
      [
        "Ġpos",
        "ition"
      ],
      [
        "Ġus",
        "ing"
      ],
      [
        "Ġac",
        "cept"
      ],
      [
        "o",
        "d"
      ],
      [
        "r",
        "or"
      ],
      [
        "ll",
        "y"
      ],
      [
        "Ġb",
        "ab"
      ],
      [
        "Ġpre",
        "t"
      ],
      [
        "Ġser",
        "ies"
      ],
      [
        "er",
        "t"
      ],
      [
        "Ġy",
        "es"
      ],
      [
        "Ġr",
        "iver"
      ],
      [
        "i",
        "um"
      ],
      [
        "Ġwa",
        "iting"
      ],
      [
        "ac",
        "hing"
      ],
      [
        "Ġsec",
        "ret"
      ],
      [
        "Ġp",
        "ress"
      ],
      [
        "Ġwind",
        "ow"
      ],
      [
        "av",
        "es"
      ],
      [
        "id",
        "ge"
      ],
      [
        "Ġc",
        "am"
      ],
      [
        "Ġappe",
        "ared"
      ],
      [
        "Ġtr",
        "ave"
      ],
      [
        "em",
        "ent"
      ],
      [
        "Ġcon",
        "v"
      ],
      [
        "g",
        "ing"
      ],
      [
        "Ġthir",
        "teen"
      ],
      [
        "Ġr",
        "ock"
      ],
      [
        "Ġele",
        "ct"
      ],
      [
        "p",
        "ort"
      ],
      [
        "il",
        "i"
      ],
      [
        "g",
        "hed"
      ],
      [
        "Ġd",
        "ad"
      ],
      [
        "Ġf",
        "le"
      ],
      [
        "un",
        "k"
      ],
      [
        "Ġme",
        "ans"
      ],
      [
        "Ġcharac",
        "ter"
      ],
      [
        "Ġr",
        "ound"
      ],
      [
        "Ġgu",
        "ess"
      ],
      [
        "ud",
        "e"
      ],
      [
        "Ġcan",
        "not"
      ],
      [
        "qu",
        "e"
      ],
      [
        "Ġe",
        "ff"
      ],
      [
        "Ġr",
        "ad"
      ],
      [
        "Ġshould",
        "er"
      ],
      [
        "Ġgre",
        "en"
      ],
      [
        "Ġdou",
        "b"
      ],
      [
        "Ġa",
        "ge"
      ],
      [
        "Ġw",
        "est"
      ],
      [
        "Ġrun",
        "ning"
      ],
      [
        "Ġf",
        "ail"
      ],
      [
        "Ġappe",
        "ar"
      ],
      [
        "Ġfour",
        "teen"
      ],
      [
        "Ġf",
        "ield"
      ],
      [
        "h",
        "a"
      ],
      [
        "Ġch",
        "o"
      ],
      [
        "Ġi",
        "r"
      ],
      [
        "Ġb",
        "ott"
      ],
      [
        "Ġsh",
        "ot"
      ],
      [
        "Ġch",
        "air"
      ],
      [
        "al",
        "ed"
      ],
      [
        "Ġun",
        "ivers"
      ],
      [
        "Ġche",
        "st"
      ],
      [
        "Ġdo",
        "ct"
      ],
      [
        "Ġmo",
        "d"
      ],
      [
        "Ġc",
        "ry"
      ],
      [
        "Ġhapp",
        "y"
      ],
      [
        "Ġc",
        "aught"
      ],
      [
        "ive",
        "ly"
      ],
      [
        "o",
        "red"
      ],
      [
        "Ġb",
        "ene"
      ],
      [
        "ar",
        "a"
      ],
      [
        "Ġwa",
        "it"
      ],
      [
        "wh",
        "y"
      ],
      [
        "ri",
        "es"
      ],
      [
        "Ġsudden",
        "ly"
      ],
      [
        "Ġch",
        "ance"
      ],
      [
        "Ġd",
        "a"
      ],
      [
        "Ġper",
        "fect"
      ],
      [
        "if",
        "t"
      ],
      [
        "Ġm",
        "ad"
      ],
      [
        "er",
        "y"
      ],
      [
        "Ġsk",
        "in"
      ],
      [
        "Ġen",
        "jo"
      ],
      [
        "p",
        "ed"
      ],
      [
        "Ġcou",
        "ple"
      ],
      [
        "ate",
        "ver"
      ],
      [
        "Ġlau",
        "gh"
      ],
      [
        "il",
        "ing"
      ],
      [
        "Ġameric",
        "an"
      ],
      [
        "b",
        "ing"
      ],
      [
        "o",
        "pe"
      ],
      [
        "n",
        "s"
      ],
      [
        "Ġcomm",
        "on"
      ],
      [
        "at",
        "ic"
      ],
      [
        "oo",
        "ks"
      ],
      [
        "Ġs",
        "ort"
      ],
      [
        "Ġcl",
        "ot"
      ],
      [
        "Ġd",
        "ie"
      ],
      [
        "m",
        "ore"
      ],
      [
        "Ġor",
        "gan"
      ],
      [
        "itt",
        "ed"
      ],
      [
        "Ġm",
        "ass"
      ],
      [
        "Ġsl",
        "ight"
      ],
      [
        "st",
        "r"
      ],
      [
        "e",
        "e"
      ],
      [
        "Ġstra",
        "ight"
      ],
      [
        "Ġp",
        "en"
      ],
      [
        "Ġper",
        "haps"
      ],
      [
        "l",
        "u"
      ],
      [
        "Ġd",
        "in"
      ],
      [
        "p",
        "ly"
      ],
      [
        "Ġf",
        "ut"
      ],
      [
        "ra",
        "ft"
      ],
      [
        "Ġs",
        "itting"
      ],
      [
        "f",
        "fe"
      ],
      [
        "Ġthir",
        "d"
      ],
      [
        "Ġan",
        "ge"
      ],
      [
        "Ġloo",
        "ks"
      ],
      [
        "Ġl",
        "ab"
      ],
      [
        "ord",
        "ing"
      ],
      [
        "Ġp",
        "ot"
      ],
      [
        "al",
        "ity"
      ],
      [
        "d",
        "om"
      ],
      [
        "Ġk",
        "it"
      ],
      [
        "ci",
        "ally"
      ],
      [
        "Ġinform",
        "ation"
      ],
      [
        "Ġfe",
        "at"
      ],
      [
        "Ġgu",
        "y"
      ],
      [
        "idd",
        "le"
      ],
      [
        "Ġit",
        "self"
      ],
      [
        "Ġag",
        "re"
      ],
      [
        "Ġgu",
        "ard"
      ],
      [
        "Ġc",
        "as"
      ],
      [
        "c",
        "ious"
      ],
      [
        "an",
        "a"
      ],
      [
        "Ġpret",
        "ty"
      ],
      [
        "il",
        "ar"
      ],
      [
        "Ġp",
        "ath"
      ],
      [
        "Ġf",
        "av"
      ],
      [
        "Ġf",
        "ine"
      ],
      [
        "r",
        "ight"
      ],
      [
        "Ġpro",
        "cess"
      ],
      [
        "Ġme",
        "ant"
      ],
      [
        "c",
        "ial"
      ],
      [
        "Ġtr",
        "ust"
      ],
      [
        "Ġne",
        "ck"
      ],
      [
        "ber",
        "t"
      ],
      [
        "Ġpro",
        "per"
      ],
      [
        "u",
        "se"
      ],
      [
        "Ġbatt",
        "le"
      ],
      [
        "Ġbr",
        "it"
      ],
      [
        "Ġex",
        "act"
      ],
      [
        "Ġwat",
        "ch"
      ],
      [
        "Ġst",
        "ar"
      ],
      [
        "Ġinv",
        "ol"
      ],
      [
        "Ġde",
        "fe"
      ],
      [
        "Ġlau",
        "ghed"
      ],
      [
        "Ġm",
        "ir"
      ],
      [
        "l",
        "ight"
      ],
      [
        "Ġsor",
        "ry"
      ],
      [
        "Ġf",
        "oc"
      ],
      [
        "Ġd",
        "en"
      ],
      [
        "Ġparent",
        "s"
      ],
      [
        "Ġauth",
        "or"
      ],
      [
        "olog",
        "y"
      ],
      [
        "wh",
        "ile"
      ],
      [
        "Ġpo",
        "st"
      ],
      [
        "Ġc",
        "y"
      ],
      [
        "ru",
        "pt"
      ],
      [
        "Ġrece",
        "ived"
      ],
      [
        "Ġmonth",
        "s"
      ],
      [
        "Ġfin",
        "al"
      ],
      [
        "it",
        "ions"
      ],
      [
        "Ġm",
        "akes"
      ],
      [
        "Ġb",
        "and"
      ],
      [
        "Ġb",
        "ow"
      ],
      [
        "Ġsit",
        "u"
      ],
      [
        "Ġg",
        "ra"
      ],
      [
        "Ġdiff",
        "ic"
      ],
      [
        "Ġpartic",
        "ular"
      ],
      [
        "Ġpar",
        "ty"
      ],
      [
        "Ġinter",
        "n"
      ],
      [
        "Ġte",
        "ch"
      ],
      [
        "as",
        "ure"
      ],
      [
        "Ġf",
        "ast"
      ],
      [
        "o",
        "ld"
      ],
      [
        "i",
        "ke"
      ],
      [
        "Ġbeaut",
        "iful"
      ],
      [
        "Ġis",
        "s"
      ],
      [
        "ro",
        "p"
      ],
      [
        "Ġdis",
        "co"
      ],
      [
        "Ġb",
        "en"
      ],
      [
        "Ġg",
        "az"
      ],
      [
        "Ġdr",
        "ag"
      ],
      [
        "ac",
        "ing"
      ],
      [
        "Ġst",
        "ri"
      ],
      [
        "h",
        "y"
      ],
      [
        "Ġc",
        "op"
      ],
      [
        "b",
        "all"
      ],
      [
        "Ġb",
        "urn"
      ],
      [
        "Ġre",
        "ve"
      ],
      [
        "Ġr",
        "ich"
      ],
      [
        "Ġph",
        "ys"
      ],
      [
        "Ġkill",
        "ed"
      ],
      [
        "ward",
        "s"
      ],
      [
        "ac",
        "y"
      ],
      [
        "Ġtr",
        "ack"
      ],
      [
        "Ġalb",
        "um"
      ],
      [
        "Ġen",
        "c"
      ],
      [
        "Ġw",
        "ide"
      ],
      [
        "Ġis",
        "n"
      ],
      [
        "Ġh",
        "y"
      ],
      [
        "er",
        "m"
      ],
      [
        "oc",
        "ked"
      ],
      [
        "r",
        "ay"
      ],
      [
        "Ġse",
        "x"
      ],
      [
        "Ġd",
        "ied"
      ],
      [
        "Ġle",
        "aving"
      ],
      [
        "enc",
        "y"
      ],
      [
        "Ġple",
        "ase"
      ],
      [
        "Ġarm",
        "y"
      ],
      [
        "Ġreco",
        "gn"
      ],
      [
        "Ġco",
        "ver"
      ],
      [
        "Ġsa",
        "fe"
      ],
      [
        "Ġyour",
        "self"
      ],
      [
        "it",
        "ive"
      ],
      [
        "Ġb",
        "all"
      ],
      [
        "Ġm",
        "iddle"
      ],
      [
        "Ġconn",
        "ect"
      ],
      [
        "Ġfing",
        "ers"
      ],
      [
        "Ġr",
        "u"
      ],
      [
        "Ġt",
        "ight"
      ],
      [
        "Ġpr",
        "ay"
      ],
      [
        "Ġv",
        "i"
      ],
      [
        "ul",
        "ation"
      ],
      [
        "pe",
        "nd"
      ],
      [
        "Ġto",
        "t"
      ],
      [
        "Ġap",
        "art"
      ],
      [
        "m",
        "al"
      ],
      [
        "Ġp",
        "ict"
      ],
      [
        "itt",
        "en"
      ],
      [
        "un",
        "t"
      ],
      [
        "un",
        "ch"
      ],
      [
        "p",
        "or"
      ],
      [
        "Ġt",
        "rou"
      ],
      [
        "Ġadd",
        "ed"
      ],
      [
        "Ġspec",
        "ial"
      ],
      [
        "Ġproble",
        "m"
      ],
      [
        "Ġthought",
        "s"
      ],
      [
        "z",
        "z"
      ],
      [
        "Ġd",
        "ue"
      ],
      [
        "Ġa",
        "ust"
      ],
      [
        "Ġh",
        "ig"
      ],
      [
        "Ġn",
        "ational"
      ],
      [
        "Ġset",
        "t"
      ],
      [
        "Ġs",
        "ir"
      ],
      [
        "Ġex",
        "cept"
      ],
      [
        "Ġfor",
        "g"
      ],
      [
        "Ġhold",
        "ing"
      ],
      [
        "ad",
        "ed"
      ],
      [
        "f",
        "er"
      ],
      [
        "Ġpl",
        "aced"
      ],
      [
        "m",
        "on"
      ],
      [
        "Ġcl",
        "aim"
      ],
      [
        "Ġcr",
        "it"
      ],
      [
        "Ġm",
        "is"
      ],
      [
        "Ġen",
        "er"
      ],
      [
        "Ġcour",
        "t"
      ],
      [
        "Ġnat",
        "ure"
      ],
      [
        "at",
        "ter"
      ],
      [
        "s",
        "u"
      ],
      [
        "Ġwor",
        "ked"
      ],
      [
        "Ġst",
        "one"
      ],
      [
        "Ġhu",
        "ng"
      ],
      [
        "u",
        "ce"
      ],
      [
        "Ġf",
        "air"
      ],
      [
        "Ġep",
        "is"
      ],
      [
        "s",
        "b"
      ],
      [
        "Ġst",
        "ared"
      ],
      [
        "Ġwhe",
        "ther"
      ],
      [
        "che",
        "n"
      ],
      [
        "Ġra",
        "ised"
      ],
      [
        "Ġb",
        "ag"
      ],
      [
        "Ġu",
        "nd"
      ],
      [
        "Ġre",
        "se"
      ],
      [
        "Ġwar",
        "m"
      ],
      [
        "o",
        "de"
      ],
      [
        "Ġv",
        "ol"
      ],
      [
        "r",
        "ation"
      ],
      [
        "e",
        "y"
      ],
      [
        "Ġse",
        "at"
      ],
      [
        "i",
        "ally"
      ],
      [
        "l",
        "ine"
      ],
      [
        "Ġcoll",
        "ect"
      ],
      [
        "Ġfut",
        "ure"
      ],
      [
        "Ġex",
        "ist"
      ],
      [
        "Ġsu",
        "ff"
      ],
      [
        "Ġg",
        "ar"
      ],
      [
        "s",
        "c"
      ],
      [
        "Ġw",
        "it"
      ],
      [
        "pe",
        "cially"
      ],
      [
        "we",
        "red"
      ],
      [
        "Ġmo",
        "ving"
      ],
      [
        "Ġmill",
        "ion"
      ],
      [
        "led",
        "ge"
      ],
      [
        "Ġar",
        "g"
      ],
      [
        "Ġimmedi",
        "ately"
      ],
      [
        "Ġpol",
        "ice"
      ],
      [
        "Ġrel",
        "ations"
      ],
      [
        "Ġis",
        "land"
      ],
      [
        "a",
        "el"
      ],
      [
        "Ġcr",
        "ow"
      ],
      [
        "Ġt",
        "ar"
      ],
      [
        "u",
        "ction"
      ],
      [
        "Ġs",
        "ight"
      ],
      [
        "Ġres",
        "pect"
      ],
      [
        "Ġbo",
        "x"
      ],
      [
        "Ġdes",
        "p"
      ],
      [
        "g",
        "s"
      ],
      [
        "h",
        "am"
      ],
      [
        "Ġcl",
        "im"
      ],
      [
        "Ġpol",
        "it"
      ],
      [
        "Ġid",
        "ent"
      ],
      [
        "ri",
        "but"
      ],
      [
        "Ġwat",
        "ching"
      ],
      [
        "Ġs",
        "ister"
      ],
      [
        "Ġse",
        "a"
      ],
      [
        "Ġn",
        "on"
      ],
      [
        "ce",
        "ed"
      ],
      [
        "Ġp",
        "an"
      ],
      [
        "Ġsur",
        "v"
      ],
      [
        "Ġaf",
        "f"
      ],
      [
        "Ġsc",
        "ream"
      ],
      [
        "Ġhist",
        "ory"
      ],
      [
        "Ġrele",
        "ased"
      ],
      [
        "m",
        "en"
      ],
      [
        "p",
        "o"
      ],
      [
        "Ġd",
        "an"
      ],
      [
        "b",
        "l"
      ],
      [
        "Ġt",
        "reat"
      ],
      [
        "ess",
        "ion"
      ],
      [
        "l",
        "ished"
      ],
      [
        "v",
        "al"
      ],
      [
        "Ġact",
        "iv"
      ],
      [
        "Ġim",
        "m"
      ],
      [
        "Ġm",
        "id"
      ],
      [
        "Ġwh",
        "atever"
      ],
      [
        "Ġd",
        "av"
      ],
      [
        "Ġcap",
        "tain"
      ],
      [
        "Ġv",
        "ill"
      ],
      [
        "Ġs",
        "and"
      ],
      [
        "enc",
        "es"
      ],
      [
        "Ġste",
        "pped"
      ],
      [
        "Ġe",
        "at"
      ],
      [
        "Ġcon",
        "vers"
      ],
      [
        "Ġexp",
        "ression"
      ],
      [
        "Ġsh",
        "ut"
      ],
      [
        "y",
        "le"
      ],
      [
        "rie",
        "f"
      ],
      [
        "Ġe",
        "ast"
      ],
      [
        "Ġte",
        "le"
      ],
      [
        "Ġb",
        "al"
      ],
      [
        "y",
        "n"
      ],
      [
        "Ġp",
        "ark"
      ],
      [
        "am",
        "ent"
      ],
      [
        "thir",
        "ty"
      ],
      [
        "a",
        "ven"
      ],
      [
        "Ġheav",
        "y"
      ],
      [
        "iv",
        "id"
      ],
      [
        "Ġj",
        "ump"
      ],
      [
        "Ġcom",
        "b"
      ],
      [
        "Ġsomet",
        "imes"
      ],
      [
        "Ġpri",
        "v"
      ],
      [
        "Ġf",
        "ly"
      ],
      [
        "Ġl",
        "ady"
      ],
      [
        "g",
        "es"
      ],
      [
        "Ġcom",
        "es"
      ],
      [
        "ous",
        "ly"
      ],
      [
        "is",
        "hing"
      ],
      [
        "m",
        "ar"
      ],
      [
        "Ġpre",
        "p"
      ],
      [
        "Ġu",
        "r"
      ],
      [
        "Ġsix",
        "teen"
      ],
      [
        "Ġcir",
        "c"
      ],
      [
        "Ġinv",
        "est"
      ],
      [
        "Ġleg",
        "s"
      ],
      [
        "gr",
        "am"
      ],
      [
        "Ġpo",
        "or"
      ],
      [
        "Ġfin",
        "ished"
      ],
      [
        "Ġne",
        "cess"
      ],
      [
        "Ġnot",
        "iced"
      ],
      [
        "Ġans",
        "wered"
      ],
      [
        "Ġob",
        "ject"
      ],
      [
        "c",
        "y"
      ],
      [
        "Ġli",
        "ves"
      ],
      [
        "sh",
        "ip"
      ],
      [
        "t",
        "r"
      ],
      [
        "Ġexper",
        "ience"
      ],
      [
        "us",
        "ion"
      ],
      [
        "Ġhur",
        "t"
      ],
      [
        "side",
        "red"
      ],
      [
        "Ġsee",
        "ing"
      ],
      [
        "Ġbe",
        "y"
      ],
      [
        "Ġbr",
        "ight"
      ],
      [
        "Ġsim",
        "ply"
      ],
      [
        "i",
        "res"
      ],
      [
        "Ġsp",
        "ot"
      ],
      [
        "Ġa",
        "le"
      ],
      [
        "Ġn",
        "ice"
      ],
      [
        "ent",
        "een"
      ],
      [
        "Ġro",
        "se"
      ],
      [
        "Ġcomplete",
        "ly"
      ],
      [
        "s",
        "ome"
      ],
      [
        "in",
        "y"
      ],
      [
        "Ġsou",
        "l"
      ],
      [
        "pp",
        "er"
      ],
      [
        "Ġmem",
        "bers"
      ],
      [
        "..",
        ".."
      ],
      [
        "oc",
        "i"
      ],
      [
        "m",
        "iss"
      ],
      [
        "Ġ",
        "vers"
      ],
      [
        "Ġper",
        "form"
      ],
      [
        "Ġr",
        "om"
      ],
      [
        "us",
        "ing"
      ],
      [
        "l",
        "a"
      ],
      [
        "Ġdest",
        "ro"
      ],
      [
        "Ġb",
        "are"
      ],
      [
        "Ġfig",
        "ure"
      ],
      [
        "Ġserv",
        "ice"
      ],
      [
        "Ġg",
        "iving"
      ],
      [
        "Ġloc",
        "al"
      ],
      [
        "Ġsim",
        "ilar"
      ],
      [
        "Ġcon",
        "sidered"
      ],
      [
        "Ġstr",
        "ange"
      ],
      [
        "Ġfor",
        "t"
      ],
      [
        "Ġd",
        "aughter"
      ],
      [
        "Ġro",
        "b"
      ],
      [
        "Ġnear",
        "ly"
      ],
      [
        "Ġ",
        "ut"
      ],
      [
        "or",
        "ge"
      ],
      [
        "Ġsh",
        "ad"
      ],
      [
        "it",
        "or"
      ],
      [
        "Ġes",
        "pecially"
      ],
      [
        "Ġs",
        "ad"
      ],
      [
        "is",
        "es"
      ],
      [
        "Ġfill",
        "ed"
      ],
      [
        "Ġsk",
        "y"
      ],
      [
        "pl",
        "o"
      ],
      [
        "for",
        "med"
      ],
      [
        "Ġd",
        "anger"
      ],
      [
        "Ġpro",
        "ject"
      ],
      [
        "Ġ",
        "..."
      ],
      [
        "Ġwe",
        "ap"
      ],
      [
        "Ġarri",
        "ved"
      ],
      [
        "Ġg",
        "as"
      ],
      [
        "Ġsub",
        "ject"
      ],
      [
        "Ġcons",
        "ider"
      ],
      [
        "Ġch",
        "ap"
      ],
      [
        "Ġcoll",
        "e"
      ],
      [
        "Ġj",
        "our"
      ],
      [
        "Ġpe",
        "ace"
      ],
      [
        "Ġtech",
        "n"
      ],
      [
        "m",
        "ay"
      ],
      [
        "Ġbec",
        "om"
      ],
      [
        "ou",
        "ght"
      ],
      [
        "Ġcar",
        "ry"
      ],
      [
        "Ġseem",
        "s"
      ],
      [
        "Ġst",
        "ation"
      ],
      [
        "Ġm",
        "ist"
      ],
      [
        "Ġn",
        "ar"
      ],
      [
        "Ġp",
        "ack"
      ],
      [
        "Ġsh",
        "out"
      ],
      [
        "s",
        "y"
      ],
      [
        "Ġt",
        "ree"
      ],
      [
        "Ġclos",
        "er"
      ],
      [
        "Ġtou",
        "ch"
      ],
      [
        "i",
        "us"
      ],
      [
        "Ġener",
        "gy"
      ],
      [
        "Ġlet",
        "ter"
      ],
      [
        "Ġdire",
        "ction"
      ],
      [
        "Ġm",
        "aster"
      ],
      [
        "Ġy",
        "ork"
      ],
      [
        "Ġbr",
        "own"
      ],
      [
        "Ġplay",
        "ed"
      ],
      [
        "Ġwal",
        "king"
      ],
      [
        "z",
        "y"
      ],
      [
        "Ġm",
        "ut"
      ],
      [
        "Ġcom",
        "fort"
      ],
      [
        "Ġf",
        "em"
      ],
      [
        "Ġhapp",
        "en"
      ],
      [
        "Ġkit",
        "chen"
      ],
      [
        "Ġde",
        "cl"
      ],
      [
        "a",
        "ked"
      ],
      [
        "Ġchang",
        "ed"
      ],
      [
        "Ġlou",
        "d"
      ],
      [
        "Ġo",
        "kay"
      ],
      [
        "Ġgrab",
        "bed"
      ],
      [
        "te",
        "nd"
      ],
      [
        "Ġh",
        "ill"
      ],
      [
        "ag",
        "ue"
      ],
      [
        "it",
        "ary"
      ],
      [
        "Ġcor",
        "ner"
      ],
      [
        "Ġper",
        "io"
      ],
      [
        "Ġfa",
        "ith"
      ],
      [
        "ye",
        "ah"
      ],
      [
        "ren",
        "g"
      ],
      [
        "Ġm",
        "ine"
      ],
      [
        "Ġd",
        "raw"
      ],
      [
        "b",
        "ar"
      ],
      [
        "iv",
        "al"
      ],
      [
        "Ġr",
        "out"
      ],
      [
        "in",
        "ing"
      ],
      [
        "Ġm",
        "ention"
      ],
      [
        "Ġrel",
        "ig"
      ],
      [
        "pl",
        "ay"
      ],
      [
        "how",
        "ever"
      ],
      [
        "Ġwh",
        "om"
      ],
      [
        "Ġeas",
        "y"
      ],
      [
        "Ġcent",
        "er"
      ],
      [
        "Ġs",
        "in"
      ],
      [
        "Ġwee",
        "ks"
      ],
      [
        "y",
        "al"
      ],
      [
        "Ġsp",
        "ent"
      ],
      [
        "Ġgirl",
        "s"
      ],
      [
        "Ġsh",
        "ar"
      ],
      [
        "Ġgr",
        "in"
      ],
      [
        "Ġj",
        "er"
      ],
      [
        "Ġdri",
        "ve"
      ],
      [
        "Ġm",
        "al"
      ],
      [
        "e",
        "k"
      ],
      [
        "Ġrem",
        "ained"
      ],
      [
        "Ġt",
        "our"
      ],
      [
        "ther",
        "n"
      ],
      [
        "Ġdro",
        "pped"
      ],
      [
        "Ġknow",
        "s"
      ],
      [
        "f",
        "if"
      ],
      [
        "Ġth",
        "reat"
      ],
      [
        "as",
        "k"
      ],
      [
        "Ġob",
        "v"
      ],
      [
        "Ġdiffic",
        "ult"
      ],
      [
        "Ġbey",
        "ond"
      ],
      [
        "Ġw",
        "ild"
      ],
      [
        "Ġv",
        "an"
      ],
      [
        "c",
        "an"
      ],
      [
        "Ġr",
        "ub"
      ],
      [
        "Ġd",
        "om"
      ],
      [
        "as",
        "hed"
      ],
      [
        "Ġj",
        "an"
      ],
      [
        "Ġeff",
        "ort"
      ],
      [
        "Ġth",
        "ro"
      ],
      [
        "ent",
        "ed"
      ],
      [
        "Ġexact",
        "ly"
      ],
      [
        "Ġon",
        "es"
      ],
      [
        "Ġbab",
        "y"
      ],
      [
        "Ġrep",
        "res"
      ],
      [
        "he",
        "n"
      ],
      [
        "Ġacc",
        "om"
      ],
      [
        "Ġunivers",
        "ity"
      ],
      [
        "Ġpro",
        "gram"
      ],
      [
        "Ġm",
        "ot"
      ],
      [
        ".",
        ","
      ],
      [
        "or",
        "row"
      ],
      [
        "g",
        "ress"
      ],
      [
        "Ġst",
        "reng"
      ],
      [
        "Ġz",
        "ero"
      ],
      [
        "Ġfl",
        "ow"
      ],
      [
        "Ġdet",
        "erm"
      ],
      [
        "Ġt",
        "it"
      ],
      [
        "Ġl",
        "u"
      ],
      [
        "oo",
        "f"
      ],
      [
        "Ġear",
        "li"
      ],
      [
        "ail",
        "s"
      ],
      [
        "Ġcom",
        "pl"
      ],
      [
        "Ġw",
        "ond"
      ],
      [
        "Ġpap",
        "er"
      ],
      [
        "Ġreal",
        "ized"
      ],
      [
        "Ġen",
        "em"
      ],
      [
        "am",
        "a"
      ],
      [
        "Ġof",
        "fe"
      ],
      [
        "Ġte",
        "ars"
      ],
      [
        "Ġt",
        "on"
      ],
      [
        "Ġco",
        "st"
      ],
      [
        "ain",
        "t"
      ],
      [
        "as",
        "ing"
      ],
      [
        "pe",
        "red"
      ],
      [
        "Ġp",
        "ushed"
      ],
      [
        "Ġsur",
        "round"
      ],
      [
        "Ġger",
        "man"
      ],
      [
        "Ġind",
        "ivid"
      ],
      [
        "Ġp",
        "icked"
      ],
      [
        "Ġa",
        "ut"
      ],
      [
        "Ġass",
        "oci"
      ],
      [
        "Ġpur",
        "p"
      ],
      [
        "Ġent",
        "ered"
      ],
      [
        "de",
        "red"
      ],
      [
        "m",
        "in"
      ],
      [
        "w",
        "or"
      ],
      [
        "i",
        "ers"
      ],
      [
        "Ġcl",
        "ub"
      ],
      [
        "Ġallow",
        "ed"
      ],
      [
        "Ġwr",
        "itten"
      ],
      [
        "Ġbu",
        "ilt"
      ],
      [
        "as",
        "ion"
      ],
      [
        "Ġmeet",
        "ing"
      ],
      [
        "Ġco",
        "vered"
      ],
      [
        "Ġst",
        "uff"
      ],
      [
        "Ġa",
        "head"
      ],
      [
        "ag",
        "er"
      ],
      [
        "Ġacc",
        "ount"
      ],
      [
        "ren",
        "ch"
      ],
      [
        "re",
        "en"
      ],
      [
        "se",
        "ven"
      ],
      [
        "Ġquest",
        "ions"
      ],
      [
        "Ġw",
        "ish"
      ],
      [
        "Ġed",
        "ge"
      ],
      [
        "Ġdisc",
        "uss"
      ],
      [
        "iz",
        "ation"
      ],
      [
        "Ġeng",
        "lish"
      ],
      [
        "Ġrelations",
        "hip"
      ],
      [
        "Ġeight",
        "een"
      ],
      [
        "Ġcle",
        "an"
      ],
      [
        "Ġd",
        "ress"
      ],
      [
        "Ġh",
        "ang"
      ],
      [
        "Ġdep",
        "art"
      ],
      [
        "Ġdoub",
        "t"
      ],
      [
        "Ġsitu",
        "ation"
      ],
      [
        "Ġr",
        "ain"
      ],
      [
        "Ġa",
        "ug"
      ],
      [
        "al",
        "ing"
      ],
      [
        "Ġhe",
        "aven"
      ],
      [
        "og",
        "rap"
      ],
      [
        "he",
        "l"
      ],
      [
        "Ġtre",
        "es"
      ],
      [
        "Ġwr",
        "ote"
      ],
      [
        "Ġh",
        "osp"
      ],
      [
        "Ġknow",
        "ledge"
      ],
      [
        "Ġhu",
        "sb"
      ],
      [
        "Ġb",
        "ooks"
      ],
      [
        "Ġepis",
        "ode"
      ],
      [
        "g",
        "en"
      ],
      [
        "Ġe",
        "ur"
      ],
      [
        "se",
        "qu"
      ],
      [
        "Ġhusb",
        "and"
      ],
      [
        "Ġsw",
        "ord"
      ],
      [
        "Ġhor",
        "se"
      ],
      [
        "c",
        "ut"
      ],
      [
        "Ġc",
        "ause"
      ],
      [
        "Ġreg",
        "ard"
      ],
      [
        "Ġdoct",
        "or"
      ],
      [
        "Ġlo",
        "ved"
      ],
      [
        "Ġde",
        "ce"
      ],
      [
        "Ġhe",
        "alth"
      ],
      [
        "Ġph",
        "il"
      ],
      [
        "Ġvis",
        "it"
      ],
      [
        "Ġbrit",
        "ish"
      ],
      [
        "Ġcrow",
        "d"
      ],
      [
        "Ġshow",
        "ed"
      ],
      [
        "Ġsil",
        "ence"
      ],
      [
        "um",
        "e"
      ],
      [
        "Ġposs",
        "ib"
      ],
      [
        "Ġsur",
        "f"
      ],
      [
        "Ġadd",
        "ition"
      ],
      [
        "Ġwho",
        "se"
      ],
      [
        "Ġeven",
        "ing"
      ],
      [
        "Ġl",
        "ie"
      ],
      [
        "Ġbe",
        "at"
      ],
      [
        "Ġcan",
        "cer"
      ],
      [
        "Ġm",
        "ich"
      ],
      [
        "pt",
        "ion"
      ],
      [
        "Ġest",
        "ab"
      ],
      [
        "Ġwor",
        "ks"
      ],
      [
        "Ġdist",
        "ance"
      ],
      [
        "Ġst",
        "at"
      ],
      [
        "Ġbegin",
        "ning"
      ],
      [
        "Ġpo",
        "inted"
      ],
      [
        "Ġe",
        "t"
      ],
      [
        "Ġs",
        "our"
      ],
      [
        "or",
        "ing"
      ],
      [
        "Ġwor",
        "th"
      ],
      [
        "Ġwor",
        "ry"
      ],
      [
        "Ġbes",
        "ide"
      ],
      [
        "act",
        "ion"
      ],
      [
        "Ġso",
        "ci"
      ],
      [
        "Ġocc",
        "ur"
      ],
      [
        "Ġt",
        "all"
      ],
      [
        "Ġindivid",
        "ual"
      ],
      [
        "Ġr",
        "is"
      ],
      [
        "im",
        "ent"
      ],
      [
        "k",
        "y"
      ],
      [
        "ict",
        "ion"
      ],
      [
        "Ġclot",
        "hes"
      ],
      [
        "Ġwe",
        "ak"
      ],
      [
        "Ġter",
        "r"
      ],
      [
        "Ġcur",
        "rent"
      ],
      [
        "Ġperson",
        "al"
      ],
      [
        "Ġb",
        "ase"
      ],
      [
        "Ġdisapp",
        "e"
      ],
      [
        "Ġm",
        "ater"
      ],
      [
        "Ġact",
        "ion"
      ],
      [
        "ent",
        "ial"
      ],
      [
        "Ġs",
        "ig"
      ],
      [
        "d",
        "en"
      ],
      [
        "er",
        "ved"
      ],
      [
        "ie",
        "l"
      ],
      [
        "ang",
        "u"
      ],
      [
        "Ġperio",
        "d"
      ],
      [
        "Ġsupp",
        "osed"
      ],
      [
        "Ġj",
        "ames"
      ],
      [
        "Ġknow",
        "ing"
      ],
      [
        "Ġturn",
        "ing"
      ],
      [
        "um",
        "ent"
      ],
      [
        "be",
        "red"
      ],
      [
        "Ġne",
        "g"
      ],
      [
        "Ġn",
        "amed"
      ],
      [
        "Ġbel",
        "ow"
      ],
      [
        "re",
        "ct"
      ],
      [
        "Ġse",
        "par"
      ],
      [
        "ur",
        "ity"
      ],
      [
        "Ġin",
        "it"
      ],
      [
        "n",
        "ine"
      ],
      [
        "er",
        "n"
      ],
      [
        "Ġev",
        "il"
      ],
      [
        "Ġcap",
        "t"
      ],
      [
        "Ġpres",
        "ident"
      ],
      [
        "Ġar",
        "ch"
      ],
      [
        "Ġvi",
        "ol"
      ],
      [
        "Ġre",
        "ach"
      ],
      [
        "Ġswe",
        "et"
      ],
      [
        "Ġke",
        "y"
      ],
      [
        "Ġsm",
        "ell"
      ],
      [
        "Ġth",
        "ick"
      ],
      [
        "Ġfore",
        "st"
      ],
      [
        "Ġan",
        "al"
      ],
      [
        "ru",
        "ction"
      ],
      [
        "Ġthan",
        "k"
      ],
      [
        "Ġform",
        "er"
      ],
      [
        "at",
        "a"
      ],
      [
        "Ġav",
        "o"
      ],
      [
        "Ġpa",
        "ul"
      ],
      [
        "et",
        "een"
      ],
      [
        "ap",
        "t"
      ],
      [
        "Ġc",
        "ra"
      ],
      [
        "Ġresp",
        "ons"
      ],
      [
        "Ġresp",
        "ond"
      ],
      [
        "Ġb",
        "rief"
      ],
      [
        "Ġg",
        "ames"
      ],
      [
        "Ġst",
        "rugg"
      ],
      [
        "ap",
        "ed"
      ],
      [
        "Ġor",
        "d"
      ],
      [
        "Ġspec",
        "ies"
      ],
      [
        "Ġdr",
        "ink"
      ],
      [
        "e",
        "ven"
      ],
      [
        "Ġso",
        "cial"
      ],
      [
        "Ġre",
        "pe"
      ],
      [
        "Ġmr",
        "s"
      ],
      [
        "Ġi",
        "gn"
      ],
      [
        "Ġli",
        "ved"
      ],
      [
        "Ġ",
        "x"
      ],
      [
        "Ġem",
        "er"
      ],
      [
        "Ġhe",
        "n"
      ],
      [
        "ip",
        "s"
      ],
      [
        "Ġl",
        "os"
      ],
      [
        "ac",
        "her"
      ],
      [
        "Ġt",
        "akes"
      ],
      [
        "Ġme",
        "l"
      ],
      [
        "Ġc",
        "ult"
      ],
      [
        "Ġr",
        "ul"
      ],
      [
        "oc",
        "ks"
      ],
      [
        "Ġpr",
        "im"
      ],
      [
        "re",
        "g"
      ],
      [
        "c",
        "her"
      ],
      [
        "Ġmar",
        "ch"
      ],
      [
        "Ġb",
        "ased"
      ],
      [
        "Ġmil",
        "es"
      ],
      [
        "Ġse",
        "pt"
      ],
      [
        "Ġemp",
        "ty"
      ],
      [
        "Ġcre",
        "ated"
      ],
      [
        "Ġc",
        "ab"
      ],
      [
        "Ġspe",
        "ed"
      ],
      [
        "Ġd",
        "i"
      ],
      [
        "ree",
        "k"
      ],
      [
        "Ġd",
        "ut"
      ],
      [
        "Ġaug",
        "ust"
      ],
      [
        "Ġcomp",
        "ut"
      ],
      [
        "st",
        "on"
      ],
      [
        "Ġtell",
        "ing"
      ],
      [
        "Ġp",
        "un"
      ],
      [
        "Ġcent",
        "ury"
      ],
      [
        "w",
        "ork"
      ],
      [
        "Ġvar",
        "ious"
      ],
      [
        "Ġo",
[...]
